#version: 0.2
Ġ s
Ġ p
Ã ¡
Ġ n
Ġ v
Ġ a
o v
Ġ t
Ã Ń
e n
c h
i e
Ä į
Ġ z
Ã ½
s t
Å ¾
Ġ m
Ġp r
Ġ k
Å ¡
Ġ d
o m
r a
Ã ©
Ã º
Ġ o
l a
Ġn a
j e
n e
Ġp o
Å ¥
i a
o r
l i
l e
Ġ b
h o
t e
a n
k o
r o
i n
r e
Ġn e
Ġ je
Ġs a
Ä ¾
s k
a k
e d
e r
t o
l o
Ġt o
Ġd o
Ġ u
c i
n o
a l
d e
Ġz a
Å¾ e
v a
t i
Ã½ ch
v o
c e
n i
Ġpr e
m e
k a
m i
t or
Ġ Äį
Ġ h
Ġv y
k u
t a
n a
Ġ ro
n Ã©
r Ã¡
r i
k y
e j
p o
Ġ S
Ã ´
ov a
Ġ i
Ġk tor
Ġ f
Ġs i
Ġ Å¾e
o b
o u
Ġm a
e t
Ġo d
a v
st i
a r
o n
Ġo b
j Ãº
Ġ Å¡
Ġs t
a s
i l
r u
o d
Ġt ak
c k
u d
Ġb y
a d
Å Ī
Ġa le
n Ã½
Ġpr i
Ġa j
Ġ e
Ġ 1
l Ã¡
Ä ı
n ÃŃ
k ov
Ġn Ã¡
Ġpo d
Ġ M
b o
u je
Ġ c
Ġ j
l ov
n y
Ġa ko
a t
Ġ P
ne j
s Å¥
Ġb o
Å¾ i
Ã ³
Ġn ie
l en
Ġ in
n Ã¡
Ġv e
n u
v e
ÃŃ m
Ġs om
b y
Ġ Ãº
Ġ ch
l u
Ġ B
Ġs Ãº
Ġz Ã¡
d a
Ġm o
t u
Ġ 2
Ã© ho
Ġs p
Ġ re
Ġv Ã½
d i
a m
Ġpr ed
Ġv o
r ov
z i
Ġ T
s i
en t
Ġ K
p e
Ġ A
Ġpr o
Ã¡ l
m u
Ã½ m
d y
Ä Ľ
ov an
i s
Ġ V
b a
Ġ ho
Ġro z
Ġs e
a j
Ġpr ÃŃ
Ġt e
Ġ D
Ġv Å¡
Ä¾ a
Ã ¤
m o
Ġd e
d u
st a
Ġje d
en ie
b e
n Ã½ch
Ġ N
c a
v i
s e
k Ã¡
z a
t y
Ġ ce
Ġm i
m a
u de
k la
Ġs po
0 0
z e
Ġ R
t Ã¡
v y
Ġna j
Äį i
c ie
Å¡ ie
n Ãº
Ġn i
vo j
u p
te Ä¾
Ġ le
u r
l y
Ġm Ã¡
Ġ g
ova Å¥
Ġm u
r ie
Ġa k
Ġk on
d o
Ġk o
Å¡ ÃŃ
i st
Ġ C
m en
ĠÄį o
c ia
Å¥ a
Ġ H
Ġu Å¾
v Ã¡
Ġs ta
h e
Ġk a
Ġb e
Ġ ra
Ġale bo
Ġ J
nÃ© ho
Ġ L
k e
s a
ko n
t ÃŃ
Ġ E
Ġ w
en sk
Ġb ude
t ov
Ġt om
Å¡ i
e Äı
Ġ len
p ra
ho d
en ia
Ġpo t
ra n
s ob
no sÅ¥
Å Ļ
Ġ F
c ov
m y
ra z
Ġm Ã´
no sti
st av
Ġktor Ã©
Ġz e
s le
l ÃŃ
p i
Ġ I
Ġ r
Ġm e
Ġs me
Ġs o
b i
ia d
s la
n om
st e
u jÃº
k om
u t
Ġa by
n d
Ġz o
d Ã¡
ia c
Ġi ch
Ä Į
Ġp ov
p a
te r
j a
an ie
o l
Ġ G
Ġs voj
Ġv z
Ġ O
Ġpr Ã¡
Ġve Ä¾
Ġ 3
Ġ .
m er
ĠvÅ¡ et
lov ensk
Ġt u
en ÃŃ
Ġ Å¾
Ġn o
i t
Ġktor Ã½
v ie
Ã¡ m
Ġ Ä¾
b u
Ġj a
r ÃŃ
sk y
Ġs k
Äį ÃŃ
Ġn ov
r y
Ġ Z
P o
p or
h a
st o
in g
e k
ra j
en Ã©
v r
Ġk om
sk u
an i
h u
Ġk eÄı
Ġna p
Ġ Å¾i
Ġm in
N a
Äį as
sk a
kla d
z na
Ġt en
re d
s ko
m Ã¡
ÅĪ a
Å ł
Ġh la
Ġt ie
e l
Ã¡ d
p u
ov Ã¡
Ġst ra
Ġbe z
o k
a li
ĠÄį i
st up
re j
v or
p ad
Ġ li
v er
ĠmÃ´ Å¾e
v ed
Å¾ d
Ġje ho
Ġv la
Ġm ie
Å¾ ÃŃ
s ia
in y
Å¡ te
Ġ2 0
Ġc o
u n
h ra
Ġt he
ĠÄ¾ ud
a le
Ġdo b
Ġp om
ed a
sle d
f or
nu t
sk ej
l ie
Ġne j
in Ã¡
Ġa ni
i ck
en Ã½
u l
Ġo p
n ov
i m
Ġz d
nÃ½ m
Ġv i
Ġbo l
Ġm y
in a
Ġt y
ro d
k t
r om
v ÃŃ
v ne
en Ã¡
Ã¡l ne
Ġb ud
Ġ Äı
ko u
p l
Äį ia
ne s
Ġ U
ch o
u j
ci u
Å¡ e
Ġ 4
no u
Ġpr a
Ġd om
Ġt am
Äį a
Ġv iac
Ġmo Å¾
lo Äį
Ġd i
Ġm ed
v an
Ġv ed
h y
Ġpo z
Ã¡ va
Ġs u
ĠvÅ¡ ak
ĠÅ¡ t
m ie
Ġp la
ĠÄį as
i Å¥
ny ch
Ġ 5
N e
Ġs te
Ġd ie
Ġch ce
ti ck
c u
Ġt r
Ġro ku
Ġne p
Ä¾ ad
s ÃŃ
v et
l Ã©
ch od
Ġjed no
Ġnie k
ov or
Ġd Ã´
z Ã¡
Äį o
Ġ1 9
Ġpod Ä¾a
b er
h la
Ġpr ie
Ġd ru
Ġm al
Ġu r
t om
ch Ã¡d
o z
to Äį
i ch
Ġ ci
ro b
Ġpr av
Ġpo u
Ġa u
Ġ ,
v Ã½
b or
r g
Ġpo li
Ġd a
Ġje j
T o
Ġne ch
Ġby Å¥
J e
Ġt re
v u
Ġ W
Ġa Å¾
vo d
Ġvy s
ci i
Ġho d
b ra
Ġktor Ã¡
Ġto ho
Ġspo loÄį
f i
Ġs ku
Ġk de
Ġ ÄĮ
c o
ra d
ov al
Ġce l
ÃŃ n
u m
ĠS lovensk
Ġp a
re b
en e
Å ¯
c ky
Ġp Ã¡
Ġbo lo
Ġst re
Ġj u
Ġpre to
ovan ie
s pe
vo t
Ġ Åł
ova li
chÃ¡d za
p la
i r
Ġe Å¡te
Ġv Ã¡
Ã´ sob
vo je
Ġs y
Ġvla st
ka z
P re
l ia
Ġe x
e s
ov i
st ÃŃ
Ġu z
Ġp ar
Ã¤ Äį
Ġk ed
Ġt i
st vo
rÃ¡ t
uje m
Ġ ru
g ra
Ġna d
an ia
t ra
ĠveÄ¾ mi
Ġ20 1
Å¡ t
ov Ã©
u s
c ÃŃ
Ġ 6
to k
va li
v al
g i
Ġo sob
v om
o t
Ġk raj
Ã½ mi
Ġv ie
Ġbo la
A k
p ov
o ch
r ia
le p
ĠÄı al
ov ej
b li
Ġka Å¾d
s po
s ie
t ne
en i
Ġs voje
ra t
ĠÅ¡ tÃ¡
r Ã©
h Ä¾ad
Ġa si
en a
Ġdru h
e m
i li
ĠnÃ¡ s
Ġbud Ãº
Ã ļ
ko Ä¾
d ie
n ie
Å¡ÃŃ ch
Ã¡ ch
s p
Ġpr ob
s u
sk Ã½
n g
Ġmed zi
Ġt a
t ia
ĠÅ¡ ko
Ġsp rÃ¡
Ġbo li
Ġin for
pra v
d en
Ġt Ã½m
Äį nÃ©
z or
sk e
ĠM a
Ġi m
Ġro kov
st at
Ġ2 00
Ġm en
rÃ¡ n
Ġf or
c t
ra ti
t vor
Ġd l
Ġnej ak
Ġ la
z ÃŃ
T ak
t Ã©
Ġp e
Ġh ovor
Ġpro ti
s y
Ġne po
n ÄĽ
Ġ rÃ¡
ur Ã³
Å¡ a
Ġ lo
Ġt ej
Ġt ro
Äį ne
Ġv a
Ġv lÃ¡
c om
Å¡ ej
Å¾ ia
ak a
ch u
d ÃŃ
Ġpo k
p re
Ġo k
d ob
sk Ã©
Ġtom u
Å¡ et
Ġne m
Äį ka
Ġm no
Ġi de
in u
Ġne bo
Ġne z
ie r
lo Å¾
v Ã©
nÃŃ k
Ġo f
Ġa l
Ġh ra
st va
Ġktor ÃŃ
Äį e
Å ½
Ġpre s
ova la
l Ãº
ĠÄį a
va Å¥
ch y
Ã¡ n
Ġs lu
Ġpot om
Ġroz hod
ÃŃ s
Ġ ov
Ġspo lu
j i
Äį nÃ½
an ÃŃ
Ġ 7
ci ÃŃ
r iad
Ġni ch
Ġdo sta
Ġst Ã¡
ĠÄ¾ud ÃŃ
Ġ rov
ie k
A le
Ġ 8
ova t
p is
st Ã©
Ġd Ã¡
l om
Ġd nes
Ġv od
an a
m ov
en y
Ġsp ra
Ġv er
Ġo rg
la d
Ġni k
h li
Ġp ÅĻ
t Ãº
g e
Ġsa mo
Ġpot reb
g u
sk Ã¡
Ġpr ia
ho l
Ġne b
le j
Ġz na
Ġzd ra
Ã¤ Å¥
Ġma li
Ġo s
Ġpov ed
Ġs lovensk
ĠP o
sk Ã©ho
z u
Ġt Ã½
Äį ky
Å¥a Å¾
Ġi ba
Å¾ u
P od
v is
ov Ã½
Ġf un
de l
ĠvÅ¡et k
Ġro k
Ġtie Å¾
Ġp er
z y
z d
Ġten to
Ġv ÃŃ
Ġa nd
Ġt h
i d
Ġ1 0
Ġpro st
an Ã©
en Ã½ch
no st
tÃŃ v
d r
t ie
Ġ y
Ġmy s
rati sla
Ġk u
Ã´ r
ĠS lov
en ÃŃm
Ġma jÃº
urÃ³ p
je m
le Å¾i
Ġz men
m ent
Ġv Ã¡m
e c
Ġs to
p rÃ¡
Ġprob lÃ©
sk om
Ġz i
ĠN e
ĠnÃ¡ m
ov Ã½ch
da j
jÃº ci
od u
Ġpred stav
Ġo n
Ã¡ r
sk Ã½ch
pa de
Ġce st
sa h
ĠveÄ¾ k
en er
Ġto to
Ġo ko
g a
Å¡ ia
Ġsp Ã´sob
an d
Ġ l
Ġa n
Ġte raz
i la
Ġs vet
Ġ 9
Ġle bo
j de
pe Äį
2 0
Ġs ve
V y
se l
t ak
Ġ rie
in an
zi d
re s
Ġnie Äįo
Z a
re m
ĠM ar
i ne
teÄ¾ ov
Ġp Ã´
ov o
ĠsÃº Äįas
Ġtej to
Ġh or
Ġvy h
nÃº Å¥
Ġpo s
Ġpo Äį
ro j
st Ãº
ko ch
nÃŃ kov
Ġt eda
Ġne vy
Ġb a
vÃ¡ d
Ġo ch
Ġk Ãº
u b
Ġro d
t ro
Ġt Ã½ch
Ġne do
Å¾i Å¥
Ġk am
P ri
an ov
ĠvÅ¡et ko
Ġv Ã¤Äį
Ã¡l ny
o p
s en
ni k
or o
Å¾ dy
Ġt ra
me st
j u
j av
Ġpom o
Ã´ Å¾e
Ġt ri
Ġte le
sti ck
Ġpod ob
Ġk vali
ist er
ĠÅ¾i vot
c Ãº
ch a
Ġpoli ti
Ġk an
ni Å¥
Ġz ÃŃ
te l
Ġk rÃ¡
Å¡ ÃŃm
A S
ĠÃº Äį
Ġpo Äįas
Ġk to
ro z
ĠÄį lov
Ä º
e b
Ġvo j
Ġpod por
Ġs na
ze m
t re
Ġpr v
Å¡ li
ovan ia
t ky
Ġce z
Ġmu sÃŃ
Ġp l
ni ka
t ku
b ou
ĠK o
Ġsy stÃ©
Ġs lov
b av
Äį nÃ½ch
Ġjed en
Ġni Äį
Äįi Å¥
Ġd u
Ġto h
Ġpo sled
Äį ov
Ġne s
n ak
ĠprÃŃ pade
Ġ lie
Ġ ?
Ġe le
va jÃº
je k
Ġk e
Å¾ a
Ġle p
s o
Ġy ou
Ġorg ani
Ġz m
Ġvy u
mi en
ĠÅ¾i vo
j ÃŃ
D o
Ġdob re
ka mi
ĠÄį e
Ġ 0
Ġst rÃ¡n
Ġma Å¥
Ġvo Ä¾
r ch
r d
ĠÅ¾ ia
Ġslu Å¾
be z
te ri
b ud
t en
Ã ¼
Ġmi li
ĠvÃ¡ s
p y
Ġf ak
ar d
Ġp i
s ad
Ġve rej
Ġ1 5
je d
Ġdo st
Ġne vie
Ġnaj v
lo sti
ĠB o
A ko
ale j
z nÃ¡
ovan Ã©
e ÅĪ
do l
zna m
nÃ½ mi
Ġd en
cho p
pov ed
Ã³ n
Ġpou Å¾ÃŃ
vy Å¡
Ġt Ãº
ĠB ratisla
p as
st or
v anie
rÃŃ klad
Ġp at
Ġf inan
Ġsk Ãº
p er
t h
Ġne u
Ġm il
Ġf a
Ġp lÃ¡
Ġkom u
ĠÅ¾ iad
ĠÄį len
ni ck
Ġinfor mÃ¡
pl ne
ko na
z er
c ou
Ġd va
bi Å¥
Ġf il
Ã´ z
Ġte ch
ĠvÅ¡et ky
Ġob la
s ne
Ġneb ude
c ka
t li
uje me
Ġniek tor
Ġr Ã½ch
v Ã¤
Ġpra cov
Ġi s
or i
d ia
Ġpoved al
ĠstÃ¡ le
Ġpro gra
Ġi st
Ġm an
ĠC h
Ġa t
Ġa p
Ġtom to
kov Ã¡
ĠmÃ´Å¾e te
r ne
ia Ä¾
Ġnaj lep
v ia
Ġv rÃ¡
ve k
Ġne mo
K eÄı
Äį nej
ti Å¥
b ÃŃ
ĠM i
ĠSlovensk u
Ġs ch
g en
rej me
Ġsku p
Ġt Ã¡
ĠmoÅ¾ no
Ġr Ã´z
Ġk or
po j
y s
Ġpo sky
ed y
Ġniek to
z mu
ia n
O d
ĠS R
00 0
Ġb Ã½
Ġin ter
Ġhod no
s et
Ġt la
ĠvÅ¡etk Ã½ch
Ġtoh to
Ġob y
r t
ĠR e
Ġk ri
p om
lo b
Ġne ma
t nÃ©
ĠU S
Ġtre ba
f e
nej Å¡ie
te j
c en
Å¾ ne
Ġne za
ti on
jÃº ce
Ġpr odu
lo g
Ġob chod
Ġpreto Å¾e
f er
zid ent
ci Ã¡l
p ly
Ġma la
sa Å¥
Ġ1 2
st u
ĠM o
Ġ lÃ¡
le s
st Ã¡
be c
nut ie
Ġb i
Ġs m
ĠprÃŃ pad
Ġ !
Ġ1 8
t r
ĠÄ¾ud ia
v en
l Ã³
Ġele kt
Ġur Äįi
tÃ¡ z
Ġpo sla
Ġhla v
h Ã¡
ra Å¥
Ġnie koÄ¾
Ġktor Ã½ch
Äį om
ÅĻ ÃŃ
Ġprost red
Ġh e
s il
Ġz nÃ¡
to u
en sko
ĠJ a
ro k
ovan ÃŃ
s lu
la n
Ġk li
ĠR u
ĠK a
Ġb an
nÃŃ ct
p le
ÄįÃŃ ta
Ġc ie
ci ou
Ġv Å¾dy
Ġmie st
Ġjedno du
ko j
c ent
ĠmÃ´ Å¾u
ov Ã©ho
Ġj ak
Ġde ÅĪ
r en
g h
T en
Ġza uj
rov eÅĪ
Ġf o
Ġk ni
n an
Ġch od
ujÃº ci
Ġt vr
b al
vo u
Å¡ie l
Ġod bor
Ġch y
m ÃŃ
Ġm od
Ġve ci
Äı aka
Ġv Ã´
tÃŃ vne
Ġktor ej
Ġnap rÃŃklad
Ġd ve
ra v
Ġked y
Ġf ar
se m
Ã ģ
m Ã¤
Ġh rÃ¡
Ġd r
Ġktor Ãº
N ie
M o
ovan Ã½
Ġde ti
Ġdl h
a ra
Ġn ÄĽ
ci t
Pod Ä¾a
ĠprÃ¡ ve
Ġra d
Ġne mÃ¡
q u
i k
ny m
AS R
Ġt vor
p ÃŃ
ĠzÃ¡ klad
Ġ ri
Ġk r
Ġ Å½
N o
Ġne ho
ti l
ĠzÃ¡ pas
ĠÄį in
Ġza Äį
Ġl ud
lo u
Ġs ÃŃ
f a
ra Äį
Ġza mest
Ä ½
ĠspoloÄį nosti
ĠkaÅ¾d Ã½
Ġsku toÄį
Ġk la
koÄ¾ vek
Ä¾ Ãº
Ġza hra
Å¡ om
r Ã½
Ġ ÅĪ
Ġu ved
j te
kon om
ĠE urÃ³p
Ġt er
J a
i Äį
Ġa g
s ed
Ġve Ä¾a
Ġsvoj u
Ġstra ny
Ġs ie
ĠT ASR
Ġf ir
Ġsi tu
an u
o s
Ġfun k
Ġprie stor
ni l
Ġ1 1
Å¡i Å¥
Ġo tÃ¡z
Ã© r
Ġb od
h at
or e
li Å¥
Ġdo kon
vr h
nÃŃ ka
Ġpo nÃº
an Ã½
die l
Ġa d
Å¡i u
l ÃŃm
te Ä¾a
Ġt ÃŃm
Ġs kon
N aj
Ġ3 0
l d
ĠB a
ro st
Ġa b
ro u
ni ce
e st
Ġsp om
Ã© mu
T A
oz aj
ĠmÃ¡ m
ĠN a
mo k
Ä¾a h
t Ã½
Ġnik dy
Äįa st
Ġne mu
ĠÅ¡tÃ¡ t
Ġc ent
le d
ce m
Ġd is
Ġs ed
Ġnaj mÃ¤
Ġz v
Ġne Å¾
d la
Ġp ek
ko l
ck ej
t in
en u
te dy
Ġzdra vot
Ġm ÅĪa
Ġpo stup
Å¡ enie
sk Ã´r
ĠmoÅ¾ nÃ©
B o
di Å¥
Ġo tvor
ske ho
h or
Ġdom Ã¡
ov e
Ġmin ister
ĠÅ¡ pe
Ġo stat
h nu
Ġpre zident
J ed
mer ick
v in
y ch
st ie
Ġob dob
ĠI n
Ġpo stav
Ġtak Ã©
k Ãº
Ġp u
s ch
Ġd et
A j
ÅĪ uje
n t
Ġposky t
ĠÄĮ e
Ġpra c
st ra
in ou
Ġa spo
da Å¥
Ġz ak
Ġna Å¡i
Ġpod mien
Ġpov eda
Ġvy Å¡
Ġ jÃº
a Å¥
Ġ Å¥aÅ¾
sk Ãº
20 1
m an
f ek
g y
Ġe ste
ra l
ĠV Ã¡
Ã³ nov
Ġj as
ĠzÃŃ ska
h ovor
Ġe ur
a la
Äį il
Ġse ba
pu bli
Ġdo kÃ¡
m om
ne ho
Ġve l
Äį nÃ©ho
Ġza riad
bi li
ÅĻ e
z o
ĠP re
ĠL e
Ã¡ cie
my s
ĠJ o
Ġbo j
s ov
Äį ku
K a
en d
Ġv ra
m in
Ġd al
i lo
Ġob sah
li vo
P red
Ġh Ä¾ad
ĠÄıal Å¡ie
Ġvy tvor
ĠpÃ¡ r
Äį nÃ¡
Ġna ozaj
ĠL i
Ġ1 4
t s
van ia
vÃ¡d z
Ġv set
Ġvy j
s ou
Ġke by
Ġra z
te lia
Ġz vÃ½
va teÄ¾
Ġ1 3
Ġtie to
C h
Ġsvoj ich
Ġk ul
Ġkomu ni
Ġro di
ÄĮ o
o o
ĠÄį ÃŃ
Ġmu Å¾
Ġmie sto
Ġs l
Ġvi de
vo ch
ĠD e
Ġpr vÃ½
Ġ1 6
Ġ lÃŃ
st re
Å¥a h
ĠÅ¡t vr
p Ã¡
k tor
Ġa ut
ĠT o
z ie
Ġau to
Ġzm lu
s ÃŃm
Ġhla vne
Ġw e
o sti
n enie
po Äį
Ġp ia
Å¡ lo
Ġzahra ni
Ġh ist
Ġu vie
sky ch
n ia
z ni
Ġspo j
Ġstre t
k ej
Ġsvoje j
ĠvÃ½ rob
u Äı
ĠnÃ¡ rod
de j
Ġm et
r Ãº
Ġh ne
Å¡t ru
en ej
Ġoko lo
p ri
Ġz ob
Ġko le
Ġro ka
Ġpov in
h ne
Ä¾ u
ne c
ĠmoÅ¾ nosÅ¥
Ã¡ ra
Ġobla sti
Ġs er
a g
e Ä¾
Äį er
Ġre publi
ĠprÃ¡ ce
dÃ¡ r
Ġza Äįia
Ġin Ã©
te g
ĠÃº plne
nÃŃ ci
b il
ĠniekoÄ¾ ko
ĠÄįa sti
Ġna chÃ¡dza
rÃ¡ v
e li
Ġmo hli
Ġk lu
si m
Ġ1 7
m ci
Å¥ ou
Ġpou Å¾i
Ġma r
ck Ã©
ran cÃº
eni u
Ġpred aj
t al
m ed
Ġp Ã´sob
Å¥a z
Ã ¶
pla t
Å ķ
Ä İ
V Ã½
ĠP e
ĠÃº spe
Ġsvoj ho
Ġn or
Ġur l
Ġpar la
a ri
Ġhovor ÃŃ
z ia
b ie
Z Ã¡
up er
c ku
li k
Ġ ener
Ġktor Ã©ho
Ġby t
R A
ko ho
ie c
Ġmno Å¾
Ġsi l
Ġs mer
Ġe u
an t
Ã¡ k
nut ia
Ġv on
Ġoch ra
mo Å¾
s ol
Ġd voj
Ġo h
s s
Ġza bez
Ġp ÃŃ
ĠÄį lÃ¡
ce j
Ġpla t
Ġni c
ti vi
Ġh a
ĠdÃ´ leÅ¾i
Ġmin Ãº
ĠÄı alej
ĠSlov ensko
ck Ã½
Ġprodu k
st ov
v ky
rancÃº z
st rov
ova teÄ¾
Ġre ali
Ġse be
Ġpr in
ĠtÃ½ch to
x i
Ġpre k
ĠV a
Ġch la
. ,
p ar
Ġkon tro
rie k
Ġdo sia
ĠJ e
ĠtÃ½ Å¾d
Ġnevie m
Ġvyj ad
Ġ19 9
ĠUS A
k Ã©
Ġpoli tick
Ġd voch
ĠprÃ¡ v
s om
z ent
c ko
Ġ Ãļ
ka m
h l
st ia
ĠÄį er
Äį enie
Ġpri prav
Ġv nÃº
nÃŃ m
Ġmo z
kla de
Ġvo li
Ġa merick
Ġzna men
ĠvÃ½ sled
S Ãº
Ġv hod
Ġto ti
ob il
Ġh ud
Ġs chop
ĠP a
ĠvÃ½ ro
Ġaut om
Ġmo c
ĠÅ¡ por
y m
no stÃŃ
Ġpoz or
Å¡ ta
d al
z uje
Å¡ ko
Ġtak mer
Ġinter ne
cia ch
Ġpo l
Ġzauj ÃŃm
ĠnÃ¡ zor
Ġza tia
g o
Ġr ia
Ġ2 5
Ġu nd
ĠnÃ¡ Å¡
ĠnÃ¡ v
pi Å¥
ĠÃº daj
ĠvÅ¡ e
Ġorgani zÃ¡
al y
Ġma m
Ġ Y
a a
vo la
Ġk rÃ¡t
Ġp ova
ÃŃ na
Ġvyh lÃ¡
p r
ĠmÃ¡ me
Ġne v
Ġpre Äįo
z inÃ¡
an Ã¡
P ro
ĠF i
I n
Ġv Äıaka
Ġvys ok
Ä¾ ko
Ġpro jek
zinÃ¡ rod
Ġv en
ĠspoloÄį nosÅ¥
Ġpo Å¾
T e
Ġtr Ã©
an Ãº
t ka
Ġu ro
av e
st Ã¡va
te m
lÃ¡ d
Ġmno h
Ġg e
Ġnie len
no k
ĠvÃ¤Äį Å¡
ĠÅ¡ ty
Ġz od
Ġa r
Ġro ky
Ġme sta
ma ti
c aj
Ġmo j
Ġod por
ob ec
p ro
ĠS I
r b
Ġnajv Ã¤Äį
g ie
rie d
st y
ova lo
Ã½ va
d er
Ġk up
Äį ak
Ġmo je
Ġro koch
Ġsve ta
Ġma teri
z al
Ġsta r
Ġsve te
Ġtoti Å¾
Ġk re
ĠmÃ¡ te
ĠvÃ½ Å¡
ĠproblÃ© m
li m
ĠrÃ¡ mci
ĠÄįlov ek
Ġag ent
Ġme sia
Ġza s
do k
Ġf i
N Ã¡
ie l
y k
Ġ1 00
va t
Ġbez peÄį
ĠV Ã¡m
O b
Ġu s
hra d
h r
kov Ã©
ĠzÃ¡ kaz
Ġex ist
ne Å¡
le b
ov Ãº
Ġth at
ci Ã¡lne
Ġma lo
ĠB e
len ie
ĠÃºÄį in
vi d
Ġfun g
Ġsta v
k rÃ¡t
t vÃ¡
Ġpo riad
Ġp enia
Ġt ova
Ġe konom
ĠsÃº d
h nut
Ġg ra
ĠzÃ¡ kon
stÃº p
kÃ¡ r
Ġp am
Ġur Äį
s on
z dy
Ġfo to
ĠvÃ´ bec
Ġj en
ĠM e
na ko
Ã³ ri
en Ãº
Ãº d
ĠmÃ´ j
ĠJ u
Ġv Ã½ch
ĠÄįas e
li Å¡
c er
ta li
ĠurÄįi te
Ġtak Å¾e
nu tÃŃ
Å¡ u
ce p
ĠT e
U Å¾
Ġpro ce
ĠrÃ½ch lo
Ġnov Ã©
Ġna v
Ã¡ cia
ĠÄįas Å¥
ĠzÃ¡ kona
Ġok rem
Ġdie Å¥a
or d
ĠsprÃ¡ v
ĠSlovensk a
Ġ2 1
Ġ Å¥a
i teÄ¾
ĠÄįa sto
h er
ÃŃ sÅ¥
lob od
Ġfak t
Ġk dy
Ġktor om
Ġrov nak
spo dÃ¡r
Ġm lad
V o
Ġf ut
Ġza Äįa
p red
ie Å¥
Ġkul tÃº
li l
Ġtro chu
Ġpres ne
Ġb lÃŃ
st al
Ġh y
o sÅ¥
uje te
Ġ5 0
ra li
c ne
Ġnech ce
vi Å¥
h i
fer en
ĠÅ¡ ta
ci ch
Ġdom a
d ÄĽ
V Å¡et
Ġin ak
Ġ Ä¾ah
Ġz ru
Ġtak to
Ġpok raÄį
kov ej
l l
la v
Ġa re
st er
ru m
Ġob Äį
T ie
Ġm ÄĽ
ĠinformÃ¡ cie
Ġsk Ã´r
ad y
Ġpot vr
Ã¡l nej
Ġza d
ho u
Ġaspo ÅĪ
ĠvÅ¡et ci
al ÃŃ
ĠnÃ¡ j
ĠsÃº Å¥a
ĠvlÃ¡ dy
lo k
Ġmo hol
ĠL u
ply v
ĠÄį ist
dÃ¡ va
Ġob jav
Ġlep Å¡ie
ob o
po n
si on
Å¡ la
or u
Ġja ko
ujÃº ce
ĠzÃ¡ roveÅĪ
Ġin ve
my sel
Ġse m
Ġmin u
Ġi t
ĠsÃº vis
ent ov
to ch
Ġma s
po zÃŃ
ĠÅ¾ivo ta
v ÄĽ
Ã³ ny
Ġd re
c Å¥
st ro
Ġpo ku
Ġinfor m
in i
Ġo zna
Ġvy bra
Ġma j
Ġjednodu ch
Ġkan di
a mi
Ġtre st
Å¡ ou
E R
d lo
at ÃŃ
Ġpo nu
ovan Ã¡
sla v
Ġp ÃŃs
lov i
st ri
Ġpri j
ie m
ve rej
Ġna s
Ġu kÃ¡
log ick
Ġcie Ä¾
Ġr iad
ĠÅ¡t ud
Ġk ar
Ġdo pl
v Ã½ch
h le
Ġd ar
Ġz lo
Å¡ ti
Ġst red
sku toÄį
Ġp lo
Ġagent Ãº
Ġcel Ã½
Pre to
ĠponÃº ka
Ġpre mi
Ġv ia
be h
p lo
Ġk rÃŃ
Ġjedno tli
Ġte x
Ġvys vet
rÃ¡ l
ĠÃº lo
di teÄ¾
u z
ĠnÃ¡ z
Ġpria mo
li n
om Ã¡
Ten to
Ġsamo z
Ġpo hÄ¾ad
Ġza ch
ma il
Ġz ne
ĠtÃº to
Ġu ni
tick Ã©
Ġmin ul
ĠH o
f t
e la
t nÃ½
te d
Ġin Ã½ch
ĠS e
Ġprav i
tor o
leÅ¾i to
ch ov
k raj
Ġt voj
Ġdokon ca
sko u
ĠzÃ¡ klade
ĠvÃ½ raz
M Ã¡
Ġdo sÅ¥
Ġpre vÃ¡dz
g ist
Ġt Ã©
jÃºci ch
Ġre gi
vÃ¡d za
ri t
Ġzatia Ä¾
Ġcel kom
ĠnÃ¡ ro
Ġna Å¡e
ti cky
ĠS a
Ġmen ej
sta ne
Äı ar
i c
Ġpenia ze
Ġd ovo
z aj
Ġop Ã¤Å¥
Ġjed na
t Ã½m
Ġmie sta
ĠE U
Ġk ra
Ġstra ne
ne r
on d
Ġnem Ã´Å¾e
Äį ek
Ġhla s
Ġse z
Å¾ il
Ġu moÅ¾
mok ra
je kt
Ġod o
Äįi li
Ã³ ne
ka ch
Ġi z
an Ã½ch
Ġop at
va teÄ¾ov
M a
men tu
ĠÅ¡ k
h rÃ¡
Ġv tedy
ĠnÃ¡ jde
E N
zmu s
Ġm ne
b ri
Ġpo hy
Ġzod poved
Ġd nÃŃ
nosÅ¥ ou
ro ch
zna men
ck Ã½ch
ĠA l
Ġf ot
Ġs la
Ġp sy
ĠN Ã¡
kÃ¡ ch
ĠÄıal Å¡ÃŃch
to ra
Ġja zy
Ġg ener
Ġnap r
f o
Ġko ne
jed nÃ¡
z ky
T O
Ġvys o
i en
en Ã©ho
ĠA n
L A
Ġd er
pra c
Ġpotreb nÃ©
ĠS t
Ġman Å¾e
slu Å¡
Ġpa ra
nÃ© mu
Ġd ra
Ġd ia
Ġdom ov
ĠD u
sÅ¥ ou
Ġz vo
Ġktor Ã½m
Ġkraj iny
Äį nÃº
li t
1 0
Ġdruh ej
Ġnor m
Ã½ ba
Ġnep re
Å¾i li
Ġp le
Ġmie ste
po dob
ĠZ Ã¡
h lo
va m
ĠV y
Ġvz de
Ġch vÃŃ
t ÄĽ
T I
Ġf e
ĠvÃŃ Å¥az
Ġpova Å¾
s me
la t
Ġau tor
Ġb ie
ĠE Ãļ
pra vy
se li
ĠT he
ĠÄįlov e
Ġa m
il l
ĠpÃ´ vod
ca mi
ni li
inÃ¡ ch
Ġ2 4
Ġs uper
ĠsystÃ© m
w a
Å¡ie ho
ÃŃ me
Ġpoveda Å¥
Ġty m
Ġjed in
g an
ĠM ich
Ġak tu
Ġv r
hla s
Ġm Ã©
ÅĪ ov
To to
ie b
Ġa s
Ġvlast ne
Ġtak Ã½
Ġpo cit
j ak
an y
Ġj sou
me ra
Ġne dÃ¡
Ġu li
rÃ¡ Å¾
ni ci
ng li
L en
ĠA nd
d li
Ġc ÃŃ
ĠSI TA
ĠL a
ĠnaÅ¡i ch
by t
la nd
Ġp ly
ovan Ã½ch
vo k
Ġd ÄĽ
Å¡ Å¥
Ġve c
e e
Ġz Ãº
Ġch or
Ġdl ho
gra f
Ġod s
Ġzamest nan
Ġza se
Ġn ÃŃm
dr Å¾
Ġvi die
Ġd ÅĪa
Ġd as
Ġro biÅ¥
f f
Ġz vy
ĠvÃ½ bor
Ġc om
ck Ã¡
n al
Ġsk ve
z en
u k
Ġs Ã¡m
Ġre pre
ta ne
Ġmi mo
Ġpot re
Ġk v
kla dy
Ġbude m
aj te
Ġ om
ĠsluÅ¾ by
Ġnik to
v il
Ġsm r
ta Å¥
Ġvy bav
Ġmod er
ze ra
Ġob raz
Ġpo lÃŃ
Ġt ur
R oz
T Ã¡
ro n
Ġposla n
Ġe urÃ³p
Ġvyu Å¾ÃŃ
mie st
Ġprob le
V A
Ġper cent
z ko
ck Ã©ho
ĠP ro
Ġu p
Ã¡ ciu
ÄįÃŃ na
x u
an ÃŃm
Ġ lu
ĠskÃº sen
Ġnie co
ĠvlÃ¡ d
2 00
ĠplÃ¡ n
Ġna Å¡ej
Ġj sem
Ġpri Äįom
Å¡tru k
y zi
t nej
ĠÃº zem
O k
ĠP ra
Ġbude te
Ġra di
ĠnÃ¡v Å¡te
vi li
av y
k Ã½m
ĠprÃŃ sluÅ¡
in d
Ġpat rÃŃ
Äį enÃŃ
Ġme ste
ku p
ĠprÃŃ stup
Ġnajv iac
pu sti
ĠÅ¡ko ly
st ve
Å¡ ka
Ġmed zinÃ¡rod
ĠÅ¡ i
Ġpar tne
ĠnÃ¡ sled
Ġne de
p tem
ĠS M
ĠS ta
ia r
lÃ¡ r
ĠÅ¡t Ãº
ti v
t la
Ġkon tak
Ġj anu
gh t
Ġh u
ck e
Ġd Ã¡va
Ġ ÃŃsÅ¥
Ġsta ve
Ġpri pom
r enia
ie t
le r
Ã¡lne ho
it h
Ġma t
Ġme st
Ġne me
ĠP et
1 9
Ġu me
Ġne skÃ´r
h ov
ĠÃº rov
Ġsp e
Ġme s
Ġn ena
Ġne ved
Ġrov nako
Ġkon k
Ġo ri
ar t
ĠBratisla va
ĠR a
ĠD o
R e
Ġm om
Ġpo rad
Ġz vyÅ¡
i g
b Ã¡ch
ti li
m ou
Ġs c
P r
om o
Ġni mi
ĠvÃ¡ Å¡
Ġt aj
re l
Ġd neÅ¡
Ã¡l na
Ġpoli caj
5 0
Ġra st
Ġk ur
ĠprÃ¡ vo
Ġvz ni
Ġz u
Ġ2 2
ĠÅ¡ko l
Ġs led
hÄ¾ad om
3 0
h lÃ¡
Ã´ li
Ġ4 0
Ã¡l nych
ni te
zi den
Ġc eny
Ġdo ku
Ġtak e
Ġne o
ĠprÃŃ jem
Ġkom p
Ġo znÃ¡
Ġpre jav
na Å¥
ĠtÃ½ ka
Ġniek edy
Ġmili Ã³nov
vo du
Ġtech no
kov Ã½
Ġz h
to l
Ġdost al
Ġvo Äįi
Ġjed nu
my sle
Ġak tivi
Ġse ptem
ĠrÃ´z nych
va r
ĠSlovensk ej
z ovaÅ¥
m or
Ġpo rov
Ġsamoz rejme
Ġbude me
l Ã½
Ġz nÃŃ
Ġg a
Ġc a
Ġre kla
Ġnep ri
nÃŃ kom
Ġz la
Ġde mokra
Ġm na
Ġo Äįak
kt Ã³
Äįi la
z ne
ko nÃ¡
nÃŃct vom
Ġu skutoÄį
ĠvÃ½ kon
S ta
Äįia n
Ġ x
cia li
ĠmnoÅ¾ stvo
Ġtak y
Ġpod la
ĠNe me
ĠÄ¾ uÄı
ov om
sk Ã½m
Ġv ÄĽ
Ġso ciÃ¡l
Ġs rd
Ġt is
Ġc en
de podob
di ne
Ġjed nej
S po
b le
Ġg Ã³
Ã© ri
Ġz ni
ĠvÃ½ znam
Ġchce l
i u
Ġviac er
Ġpo ÄįÃŃta
Ġkom ple
Ġna z
Ġab sol
ĠpoÄį et
li kÃ¡
ĠzÃŃ sk
ny mi
Ġmin im
z v
c nosti
st vÃ¡
Ġuvie dol
r enie
Ġw eb
t reb
Ġp an
Ġb Ã¡
ie s
de ÅĪ
Ġpom Ã´
te li
Ġfut bal
Ġspolu prÃ¡
te k
ĠG a
Ġnov Ã½
Ġse bou
Ġg u
ĠÄıal Å¡ÃŃ
z ra
ĠvÃ½ voj
Äº Å¾
Ġpo ru
Ġk Ã½m
te raz
ĠÅ¡por tov
Ã© ra
ĠÅĪ om
ta m
ĠvÃ½ ber
Ġf yzi
ob er
Ġdob rÃ©
Ġ Ä½
Ġro bÃŃ
Ġna stav
Ġchce te
Ġnap riek
Ġs ou
za li
di li
Ġv stup
Ġak Ã©
Ġpomo c
ĠkeÄı Å¾e
Ġvy Å¡et
Ġve Äįer
Ġvie m
nej Å¡ÃŃ
Ġsvoj om
ti m
Ġpri bli
Ġmes iac
Ġw as
ĠVÃ¡ s
k ova
Ġvy hra
to n
al ian
i ska
Ġzabez peÄį
ovan ÃŃm
Ġprav du
Ġpo ho
ĠvrÃ¡ tane
re k
ĠdÃ´ vod
Ġu m
Ġpa ci
Ä¾ ov
Ġp al
Ġh ru
Ġtele vÃŃ
Ġskup iny
Ġe fek
kom u
Ġpr ak
L e
tu l
kov Ã½ch
Ġu po
Ġz lep
ĠrÃ¡ d
op ak
Å¾ no
Ġzd roj
ĠbÃ½ val
ĠR o
Ok rem
Ġrepubli ky
k rom
Ġ2 3
ĠÃº rad
Ġnov em
ĠuÅ¾ ÃŃ
Å¡ Å¥a
kon iec
ĠveÄ¾ ko
ra zi
Ġv ar
Ne ch
Ġpov o
Ġt ran
Ġ Ã¡
Ġt ÃŃ
da li
Ġ qu
s eda
Ġp Ã¤Å¥
Ġu rob
Ġsta rost
ia l
Ġr y
Ġka teg
Ġt vÃ¡
ri l
va la
ĠspÃ´sob om
d ra
Ġhne Äı
N iek
Ġod mie
Ġb l
Ġnaj vyÅ¡
Ġz verej
ĠK u
Ġob e
Ġprogra m
ru Å¾
M ys
p at
g er
Ġze len
Ġkla si
ĠP ar
ov ia
ĠÄįlÃ¡ n
Ġdi sku
Ġd ov
na j
as e
ch e
ĠA mer
Ġbe Å¾
ĠveÄ¾k Ã©
Ġra da
h ad
Ġznamen Ã¡
ĠproblÃ© my
ĠÄįas u
Äį aj
ĠdÃ¡ v
ĠÃºspe Å¡
Ġv Ã¤
cov ia
ĠS o
ĠzaÄįia tku
anie l
ĠÅ¡tÃ¡ tu
Ġa z
ĠvlÃ¡ da
ĠtÃ¡ to
Äį nom
ĠÄį ÃŃm
Ġo ktÃ³
p ie
P rÃŃ
ĠpoÅ¾ iad
ak ujem
st rÃ¡
1 1
Ġvod y
Ġho ci
ni la
K o
Ġnebo l
ĠF ran
ĠBratisla ve
ri Å¥
r ka
Ġjed nÃ©ho
Ġs toro
ĠZ a
va p
Ġtele f
Ã³ na
Ġmo ze
ĠÅ¡ Å¥a
Ġap rÃŃ
ĠsÃŃ ce
Ġk y
Tak Å¾e
Ġ 000
Ġnemo c
ĠÃº ra
vÃ¤ z
ka li
ĠN o
ĠvÃ½ stav
k et
Ã¡ t
b Ãº
Ġro bi
Ġk ter
Ġroz diel
Ġm ÃŃ
k Ã½
li ne
an om
ick Ã©
Ġne vi
Ġtro ch
Ġvel mi
n enÃ©
Ã¡ ri
van ÃŃ
Ġd ed
Ġpo zi
Na p
Ġdo ho
ĠO b
Ġpo lovi
Ġnich t
Äį enia
Ġpom Ã¡
Ġpre ziden
Ġne od
Ġpr vom
Ġob med
h om
Ġo ni
ĠzÃ¡ ujem
Ġprostred nÃŃctvom
Ġza ÄįÃŃna
j om
ĠÅ¡ Ã©
un g
Ã į
Ã³ nu
Je ho
kov i
S am
ni ca
Ġne d
in ister
ĠÄį ak
Ġkv Ã´li
li li
hod no
ĠnÃ¡ vrh
Å¡ ov
er u
da m
Ġpo lo
Ġvy z
da lo
ĠÅ¾iad ne
ĠzaujÃŃm av
Ġro b
Ġz loÅ¾
Ġka pi
Ġrie Å¡
g in
Ġob ra
Ġpred sa
ĠÄį ÃŃs
ĠB ar
rie Å¥
Ġnajlep Å¡ie
Ġre Å¾i
Ġw ith
ĠÅ¾ eny
Ġsy m
ti la
inÃ¡ le
hod ou
Ġza stav
Ġoby vateÄ¾ov
Ġpred po
Ġtis ÃŃ
Ġpo n
Ġst rÃ¡
ĠÄį ia
fi kÃ¡
ĠN A
ĠrÃ´z ne
Ġmys lÃŃ
Ġtr hu
tvÃ¡ ra
Å¡ ak
Ġb u
Ġpri tom
Ä¾Ãº b
Ġroz prÃ¡
Ġelekt ro
ĠÄį ier
r na
e z
Ġe s
m on
Ġde cem
ĠprÃ¡ va
Ġ en
ĠB an
Ġma je
Ġv l
al ne
Ġdet ÃŃ
h en
Ġnebo lo
ĠpÃ¡ n
Ġzi sti
av i
Ġkandi dÃ¡
e Ä¾a
Ġmo tor
ĠmanÅ¾e l
Ġte plo
cÃŃ ch
Ġs ko
ĠMar tin
Ġn ÃŃ
Ġch u
Ã½ Å¡
s h
f il
Ġka Å¾
ver y
M Ã´Å¾e
Å¡t ÄĽ
n enÃŃ
ĠÃºdaj ov
for m
Ġsa m
Ġjednodu cho
Ġkonk rÃ©
Å¾ Å¡ie
ĠÃº to
ĠmÃ© di
Ġu n
Å¾ deÅĪ
ĠH a
O V
va Å¾
Ġno t
z me
Ġza pla
t nÃ¡
c kou
le g
aj u
Ġlud i
eb ru
ĠM at
p ÃŃs
Ġho spodÃ¡r
de len
Ġprav depodob
Ġchce m
da je
m m
ĠsÃºÄįas nosti
Ġc enu
Ġu miest
ĠprÃ¡ cu
ĠS mer
n ing
lÃ¡ v
ĠdÃ´ chod
va d
N S
kt Ãº
Ġfir my
Ġpres ved
ĠpÅĻ i
Äį nÃ½m
Ġ X
Ġspo tre
ĠÅ¡ an
en om
Ġ19 8
ly m
Ġpre v
u Å¾
Ġdosta ne
Ġze m
Ġroz voj
da la
Ġpreziden ta
Ġdie v
ĠsÃºÄįas Å¥ou
ĠA le
ce ho
I de
stÃº pi
Ġrod in
Ġma x
ed zi
Ġpomo cou
Ġu Äįi
Ġniektor Ã½ch
na li
ĠKo Å¡i
Ġkom ent
ĠÅ¡t Ã½
Ġhla d
Äį nÃŃ
ani u
Ġk m
Ġna rod
ĠzÃ¡ uj
Ġa no
Ġpro te
Ġmu sia
Ġs ud
Ġd ni
Ġau gu
Ġprav da
Ġh ave
ĠT ak
T he
Ġs lobod
Ġm la
Ġva Å¡e
Ġle t
Ġ6 0
ĠminÃº t
pra va
Ġpo pu
Ġpribli Å¾ne
Ġra dy
Ġpo ist
Ġst al
I N
ĠÅ¡ ÃŃ
pra vu
ob e
ov y
ÅĪ aj
Ġci r
Å¡ ku
ĠE urÃ³
lov Ã¡
Ġstra na
Ġprost ried
Ġvz Å¥ah
po l
ad a
Ġvy konÃ¡
Ġob ce
T u
ĠS k
Ġne zÃ¡
ĠÄįlove ka
b in
l Ã½ch
ĠV eÄ¾
Ġk Ã¡
ĠtÃ½ Å¾deÅĪ
Ġtie z
Ġob rÃ¡
ck om
ĠprÃŃ spe
za Å¥
t ri
Ġf ebru
Ġpod nika
Ġfil m
Ġc on
f am
ĠsystÃ© mu
Ġvo zid
M ar
Ġchla p
Ġce lÃ©
w e
ĠS P
Ġpod ari
Ġvidie Å¥
Ġs kla
Ġdruh Ã½
Ġpoz nÃ¡
Ġme sto
Ġdo z
E S
Ġpria teÄ¾
1 2
Ġnov Ã½ch
Ġg o
ĠT i
Ġpo Ä¾
Ġo te
Ġho kej
Ġth is
st roj
chy b
en ta
Ġktor e
ova nej
ĠdokÃ¡ Å¾e
zer Ã¡
ĠS ch
Ġpo h
Ġda Å¥
Ġvy d
Ġpohy b
ver zi
Ġj ste
pad ne
x ist
ĠC o
S om
ĠprÃŃ de
Ġst up
ĠÅ¡ty ri
Ġrepre zent
Äį iek
Ġuro biÅ¥
uj u
ĠvÃ¤ z
ĠprÃŃ liÅ¡
ĠpomÃ¡ ha
ĠÃº stav
Ġpek ne
Ġpre te
Ġmy sle
ĠprÃŃ rod
ĠA f
ĠP od
ov ou
Ġz b
di t
Ġzmlu vy
Ġpodob ne
Ã´ l
ĠA u
ÅĻ i
Ġmin ist
Ġde sia
A N
Ġsu b
Ka Å¾d
ĠPe ter
H o
ĠF a
Äį ke
k Ã½ch
Ġsa mi
ĠÄį om
i sÅ¥
Ġt rÃ¡
be hu
Ġra do
Ġz by
Ġja z
Ġw or
Ġu kon
ĠsprÃ¡ vne
Ġre gist
Ġle te
Ġo t
ĠprÃŃ leÅ¾ito
Å¾i la
Ġpred sed
Ġu kaz
k s
ti sÃŃ
ĠkrÃ¡ s
V eÄ¾
Ġin di
Ġob rov
ale ko
Ġve cÃŃ
ÅĪ ujÃº
ĠsprÃ¡ vy
ĠmÃ´Å¾e me
ĠnÃ¡jde te
ĠnÃ¡j sÅ¥
re a
R O
m ne
Ġb ra
Ġf rancÃºz
Ġf aj
ov Ã½m
Ġp as
Ġs ved
Ġvo l
Ġo z
ak e
Ġ2 6
hnu Å¥
Ġporiad ku
Ġstarost livo
Ġmo de
h al
Ġne sk
Ġsta lo
Ã¡ lu
kov o
Ġmno ho
Ġan ti
ov Å¡et
ĠzÃº Äįast
Ġvz du
Ġh er
Ġmys lÃŃm
Ġa rch
Ġob jednÃ¡
Ġop ak
ve re
en Ã½m
Ġpro fe
C H
Ġspo koj
Äį in
Ġod pov
Ġna vrh
Ġn enÃ¡
Ġpri sp
va j
Å¡ il
da jÃº
ÅĪ u
ĠveÄ¾k Ã½
Ġz om
ĠB ri
Ġpom er
Å¾a Å¥
Ġte ba
Ġo fi
Ġb al
om a
v ku
Ġpo ko
Ġmo hla
Ġvz Å¥a
Ġs obo
Ġde saÅ¥
ĠB y
si Å¥
ĠC a
om et
Ġst rie
ĠA k
ĠstrÃ¡n ke
Ġpred Ã¡va
me s
por t
Ġpotvr d
Ġak Ã½
Ġde f
Ġop er
Ġz vie
Ġdosta Å¥
Ch ce
Ġdoku ment
Ġa ngli
Ġmom ent
Ġz le
Ġria diteÄ¾
ti ch
Ġ2 8
ovÅ¡et kÃ½m
Ġkri ti
D e
Ġpodmien ky
sa hu
ĠH e
Ġch ud
ara k
Ġroz poÄį
le t
di la
g n
E D
Ġpred me
Ġdo dÃ¡
Ġb lo
Ġp ani
Ġk ro
Ġza b
Ġpr vÃ©
ov ed
i de
Ġ201 8
ÃŃm a
Ġpravi del
Ġodpor Ãº
h n
Ġlie ta
k vi
ĠpoÅ¾iad av
Ġch cÃº
v ej
ĠÃº daje
Ġpro to
Ġh l
sk up
Ġm or
at ia
tick Ã½
Ġp ad
p s
ci Ã¡ch
Ġh ry
Ġ2 7
Ġrod iny
Ġupo zor
Ã¼ r
st en
Ġmen o
ĠA r
ran ie
Po tom
ÃŃ te
Ġz bra
Ãº to
tie Å¾
sta va
rov i
k iaÄ¾
no ho
Ġo Äįi
Ġs lÃº
Äįia r
Ġkdy Å¾
Ġto u
D nes
n enia
Ġnap ÃŃ
Ġkraj ÃŃn
Ġniektor Ã©
ĠdÃ´leÅ¾i tÃ©
Ġroz ho
Ġsk oro
ku je
Ã© n
Ġpoz ÃŃ
as i
Ġtvr d
ĠzaÄį al
ĠÄįÃŃs lo
Ġlud ia
Ġtechno lÃ³
v Å¡ak
ĠinformÃ¡ ciÃŃ
Ġeu ro
ĠsÃº krom
ĠÃºrov ni
Ġst anov
ar mo
Ġdo be
Ġpodpor u
ĠpÃŃ Å¡e
ĠpÅĻ ÃŃ
ĠEurÃ³p skej
Ġb la
Ã³ d
Ġmo ja
n ova
M y
Ġna koniec
Ġch arak
p al
Ġpod uj
ĠB la
Ã¡l nu
lov ek
M u
Ġ3 1
Ã´ vod
Ã© ru
Ġc ud
w n
p en
kov Ã©ho
ĠvÃ½ch od
Ġod pad
Ġza bud
Ġs klad
Ġu plne
Ġprv ej
Ġvzde lÃ¡
Ġna u
Äİ al
Ġda ÅĪ
lov e
Ġu dr
Ġap likÃ¡
zÃ¡ cie
ĠE u
Ġdl hod
Ġpr en
Ġvz nik
vie m
mo t
Ġo r
Ġvy rob
ol Ã³
pu st
Ġtu ri
ĠcieÄ¾ om
ĠsÃºÅ¥a Å¾e
ĠÅ¡ e
Ġpre h
ĠvÃ½ sku
Ġpo Å¡ko
Ġm obil
Ġna po
Ġob jek
Ġekonom i
Ġc yk
Ã´ b
Ġch Ã½ba
Ġal l
tick ej
b Ã¡
ĠtÃ½m to
Ġjanu Ã¡ra
ter na
va lo
Ġd ej
ĠsluÅ¾ ieb
Ġprie mer
t ÃŃm
TÃ¡ to
si t
Ġz rejme
Ġle g
Ġpodari lo
Ġtra di
Å¡ti tÃº
Ġzariad enia
ĠvÃ½ ni
bo j
i ta
Ġkom is
Ġpred ovÅ¡etkÃ½m
te s
Ġkon cer
ĠzÃ¡ stup
s er
Ġc m
Ġzv lÃ¡
ĠdÃ´ sled
ĠV la
Ġktor y
Ġb rÃ¡
Ġnemu sÃŃ
Ġpe ÅĪa
Ġpo zna
l ne
Ġin Ã½
Ġzob raz
ne m
i o
Ġrok mi
Ġhod ÃŃn
ru h
Ġroz hovor
Ġza loÅ¾
am a
Ġpia tok
men te
Mo Å¾no
Ġsamo stat
Ġpla tÃŃ
Ġpred pis
ĠpÅĻ ed
Ġsch vÃ¡
ĠB u
A R
ĠB er
Ġpred chÃ¡dza
Ġm Ã¤
st vom
ĠS u
b en
sle dok
ni t
Ġobdob ÃŃ
Ã¡ cii
Ġnem al
K on
Ġt zv
ÅĪ och
Ġre ak
Ġvyso ko
k ro
Ġma ji
Å¡ pe
Ġuved om
Ġst ud
Ġvset ko
Ġbo le
Ġc vi
ujÃºci ch
Z o
b ur
Ġ ly
Ġnov inÃ¡
Ġma g
Ġpo zem
ĠV Ã½
Ġkraj ine
ra k
P rÃ¡
ĠzÃ¡ vis
om an
Ġminu losti
Ġvi d
Ġspra c
Ġob ec
Ġp is
Ġe in
Ġpsy ch
Ġma ju
i i
ĠK ri
Ġsp l
iad ne
st om
ĠkÃº pe
Ġne bez
z ka
g ia
ri k
Ġdob rÃ½
mi l
el l
ch Ã¡
ĠprÃŃpad ne
ĠSlov Ã¡
a h
ĠJ an
Ġk te
t k
Ġklu b
ta mi
Ġob vin
Ġne ob
s ak
Ġpri rod
Ġho te
nut Ã©
Ä¾ uje
Å¡li en
or y
ĠjÃº na
ĠzÃ¡ pad
ĠkaÅ¾d Ã©ho
Ġbud u
Ġe mail
Ã Ł
Ġdo stup
o j
Te raz
r n
and ard
Ġc ca
Ġb av
Ġhud ob
Ġvz Ã¡
O S
teÄ¾ nÃ©
Ġosob y
ĠP ri
Äį ko
ba li
ĠT u
Ġsp Ã¡
Ġst rom
Ġnov Ã©ho
Ġyou r
Ġna vy
Ġthe y
Ġh roz
Ã¡lny m
Ġdom u
Ġvoj ensk
ĠÅ¡Ã© f
Ġt ÄĽ
Ġkam a
Ġce lej
Å¡ ky
Ġnejak Ã©
Äį uje
nu Å¥
mo s
Ġinfor ma
ĠÄįin nosti
ĠzaÄį ali
Ġpo hod
Ġdosta li
Ġseptem bra
Ġneb ud
er s
c al
ĠvÅ¡e obec
Ġpred tÃ½m
Ġn enÃŃ
ĠvÅ¡etk Ã½m
ĠÅ¡ p
Ġko ko
cho de
Ġtova ru
stia ch
pozÃŃ cii
C el
Ġw ir
Ġre sp
om e
Ġdo hod
Ġkon ku
Ġelekt ri
cov i
ĠnÃ¡Å¡ ho
Ġmar ca
Ġpo koj
Ġli n
ĠvÃ½sled ky
Ġpro jekt
w s
Ġj in
ci m
c s
Ġc as
Ġved ieÅ¥
Ġov eÄ¾a
Ġmesia cov
Ġsvoj im
ĠsÃº hla
Ġpo Å¾ia
a lo
Ġst ani
Ġpe v
za la
Ġnap ad
i te
ĠF rancÃºz
Ġvyu Å¾i
Ġorg Ã¡
Ġkan ce
ĠpouÅ¾ÃŃ va
ĠmÃ¡ ja
Ġnaj men
Pre Äįo
ĠNÃ¡ rod
ĠS te
Ġu k
s enie
ro ÄįnÃ½
Ġdi zaj
ci te
Ġkon ca
Ġuz av
Ġa ku
sie l
Ġri zi
ĠÅ¾ia do
Ġsk or
Ġmax im
i z
c y
Ġcest u
Ġpos il
Ġs ho
Ġdi vÃ¡
Ġobsah uje
len Ã©
sta li
ia ch
Ġpo r
t kom
tick Ã½ch
Ġcest y
Ġna mie
Äįi lo
nov u
ma li
ĠsÃºvis losti
Ġnejak Ã½
I A
hl iad
lu s
Ġ8 0
ja Å¥
Ġov er
Ġroz um
rov o
ĠK on
ĠvnÃº tor
B ude
Ġm ana
Ġmaj strov
Ġu tor
Ġza j
Ġvy p
Ġpu bli
Ġ9 0
Ġmateri Ã¡l
Ġdi sk
sto j
Ġad re
Ġm Ãº
ĠM ed
D S
ĠI I
ne t
ni ku
h an
t rov
ru je
Tie to
Ġr Ãº
Ġpostup ne
Ġtech nick
ch t
ova cie
zi u
kla dÃ¡
Ġsl ova
Ġz vu
Ġh rd
m Ã½Å¡
Ġi sto
Ġmil iar
Ġs ti
sle du
Ġc ena
Ġje dine
Å¯ Å¾e
Ġa rg
Ġdo teraz
Ġod poved
Ġparla mentu
d av
Ġpoveda la
ĠmÃ¡ lo
en ou
Ġt rie
Ġte lo
ĠÅ¾ivo te
bo Å¾
n enÃ½
tov al
Ġk ry
ĠoktÃ³ bra
Ġvy Å¾
Ġnie koho
Ġle kÃ¡
ĠG e
V ie
Ġar mÃ¡
tov Ã¡
T E
K O
Ġniek de
z in
h aj
Ġo na
Ġparla ment
d ov
Ġobmed z
tisÃŃ c
tov ej
Ġzmen y
b an
Ġroz Å¡ÃŃ
en ti
Ġbo hat
Ġre k
ve s
Ġs v
Ġnovem bra
rost red
Ġsta ro
Ġku chy
B ol
Ġsobo tu
ovi Äį
Ġal bu
ÅĪ ou
ni ky
Ġn ut
I S
Ġdo prav
ĠaprÃŃ la
Ġse k
Ġmy Å¡lien
Ġz ran
Ġ er
Ġsto jÃŃ
ĠmÃ¡ Å¡
Ã© rie
ĠD an
Ġne sp
ĠU ni
Ġstave b
ti t
Ã¡ lov
d om
ur l
al u
vi t
Ġw ill
Ġna sled
a u
n anie
Ġh vie
Ġvy ch
pr v
Ġpri Å¡iel
tÃŃv ny
nÃŃct va
Ġve ku
tov Ã©
Ġin Ã©ho
Ġproce s
Ġna opak
zÃ¡ cia
Ġkon ci
Ġpre zent
rom a
Ġhist or
Ġne sta
k lo
Ġn en
Ġ Ð
ci on
ĠprÃŃ ro
Ġle kÃ¡r
Ġza Äįne
Ġnep ria
Ġautom a
Ġnap ÃŃs
Ġvy pl
ba mi
Ġpro ste
ĠskutoÄį ne
lÃŃ n
Ġslu Å¡
ĠK om
Ġzabez pe
Ġvo la
Ġnema jÃº
ĠÅ¥aÅ¾ ko
ĠvÃ½Å¡ ke
Ġ2 9
Å¾i te
D ob
Ġch a
Ġov plyv
Ġd ro
Äį kou
Ġprofe sion
Ġc an
Ã¤ t
Ġo ut
Ġsa ma
Ġno ci
a ko
ĠoÄįak Ã¡va
Ġta bu
ĠpomÃ´ cÅ¥
t rÃ©
ĠzÃŃska Å¥
Ġt va
le z
Ġch rÃ¡
l ova
Ġpo Å¡
Ġob le
ud ia
r Å¾
kÃ¡ m
ej Å¡ie
Å¡ pi
ĠEurÃ³p y
ro slav
ĠnÃ¡ vr
Ġmo hlo
Mys lÃŃm
Ġb ru
Ġk il
in o
la st
Po Äįas
Ã³ m
Ġvz or
ĠprÃ¡ ci
Ġ201 6
Ġra de
Ġo ce
Ġprav id
g ran
Ġk Ä¾Ãº
Ġslovensk Ã½ch
Ġvset ky
ĠjÃº la
Ġod kaz
ou r
m ar
Ġk us
ĠznÃ¡ me
ch om
Ġmnoh Ã½ch
Ġpo ze
Ġvo leb
KaÅ¾d Ã½
toÄį ne
Ġin Å¡titÃº
Ġtvr dÃŃ
Ġj o
Ġmoz no
Ġpo ste
Ġko la
Ġhe re
ov ky
Ġvy men
Ġko ho
li s
Ġs ne
Ġna sledu
Ġv as
Ġnej de
Ġfor mu
Ġd an
ad u
ĠÃº Äįast
Ġstoro Äįia
Ġ201 7
V Äıaka
Ġpri pra
Ġre ag
N ik
ĠM u
ĠznÃ¡ my
Ġde Å¥
teÄ¾ om
Ġdo dal
Å¡i li
Ġv raj
i mi
ĠMa Äıar
Ġprogra mu
Ġce ste
Ġko Ä¾ko
sie la
Ġpri chÃ¡dza
ĠN i
Ġv et
ĠprÃŃ j
Ġvz dia
Ġvy Å¡e
ĠÅ¡tÃº di
Ġposled nÃ½ch
d Ã©
Ġdis pozÃŃcii
I ch
Äº ÅĪa
ĠÄįlÃ¡ nok
Ġpro ku
ĠZ e
Ġro Äį
Ãģ no
ĠmoÅ¾ nosti
Ġvy rÃ¡
ĠL o
in k
Äįe ra
Ġob Ä¾Ãºb
V ed
Ġslovensk ej
ist o
pe l
Ġkomuni kÃ¡
s li
Ġrozhod ne
Ġautom obil
lo s
al Ã½
Äį enÃ½
ing u
ĠponÃº k
Äį at
Ġu byt
ĠprÃŃ beh
Ã³ri i
be ra
U S
Ġpod stat
Ġprojek tu
ĠagentÃº ra
lÃ¡ da
ĠU kraj
Äį en
m ÄĽ
Ġd iaÄ¾
Ġosob ne
Ġtr h
raz u
r z
i sti
rat Ãº
bie ha
inÃ¡ Å¡a
Ġcel Ã©ho
ze f
ĠnÄĽ k
isÅ¥ ov
Ġp ak
Ġmu sel
ĠsÃº bor
Ġjed nom
m al
Ġpo sta
ĠÄį aka
Ġjas nÃ©
O R
Ġdo d
ak u
z ku
ne ch
ĠbezpeÄį nost
Ġstre du
ĠzaÄįa la
Ġrad Å¡ej
Ġu plat
Å¡ tÃŃ
Ã³ rie
ĠD a
li la
Ġro bo
la de
Ġnaj bli
Ġb un
Ġd vom
po zi
ĠJ Ã¡
b at
Ġjas ne
Ġv rch
stick Ã©
ĠÅ¾i je
Ġnebo la
ila n
gi u
ĠÅ¡e sÅ¥
van Ã©
Ġty pu
Ġcel om
Ġnov ej
Ġtak Ã¡
t Ã½ch
Ġu st
Ġpa ne
Äı alej
Äį enÃ©
Ġc er
jÃºce ho
Ġpo c
ĠNe w
pe ra
tor i
na mi
Ġv plyv
in ky
Ġdo le
ĠÅ¾ ena
Ġce sta
ick Ã½
Ġch e
ĠO S
sk i
Ġrie Å¡enie
ĠN aj
oz rejme
Å¾ ky
Ã´ d
ĠFi co
den ti
1 5
Ġ19 7
Ġpo ci
Ġper cen
Ġnebo li
Ġo kam
Ġty ch
ĠrÃ¡ no
n anÃŃ
ĠblÃŃ zko
Ġh lu
Ġob Äįian
Ġ7 0
ĠV e
O L
T y
Ġin f
u Å¾ÃŃ
r Ã½ch
Ġpotreb uje
Ġdo spe
len ÃŃ
ro ti
Ġpov ie
ovan Ã©ho
lo sÅ¥
Ġre zer
Ġos Ã´b
on t
P ra
ĠB ru
Ġza v
ĠT at
Ġnavy Å¡e
ĠÅ¡t vor
Ġchce li
l ko
Ġo sem
Ġre la
ĠnÃ¡ d
ĠT a
Äį et
Ġob ci
ick Ã½ch
Ġu te
ĠpÅĻ e
sta Å¥
Ġmal Ã©
ri te
Ãº t
ĠnezÃ¡ vis
ĠÃº pl
Ġvide o
Ġprek vap
Ġrob ia
Ġkom b
ti k
Ġo ne
de lok
ut sch
Ġ201 5
Ġte m
ĠV er
pe c
Ġpod sta
Ġdecem bra
len ia
Ġkon f
Ġne e
p li
Ġex per
Ġkre sÅ¥
lÃ¡ ch
ĠEurÃ³ pe
Ġprie sku
Äį an
Ġstra nu
Ġvy rov
Ġsp Ã¤Å¥
Ġhod iny
S S
vo Ä¾
tu jÃº
ick ej
Ġ19 6
Ġsa d
at ie
Ġh um
Ġmu sie
Ġener gie
Ġpo loÅ¾
Ġaugu sta
Ġne ver
Ġspra vod
ĠÄ¾uÄı om
P e
ĠÄ¾ah ko
Ġpou Å¾iÅ¥
ro zu
Ġi h
Ġoch or
ĠÅ¾i en
Ġprie behu
Ġtro j
Ġmu si
O N
Ġmi mor
Ġpot rav
Ġvi dÃŃ
ĠR ad
Ġb ut
g ent
Ġma te
ak Ãº
Ġza p
Ġnema li
Ġh ro
stie v
si li
C o
Ġpok iaÄ¾
Ġp ie
Ġnedo kÃ¡
al l
4 0
ti u
Å ¤
h ing
la s
cep t
ĠÃºzem ÃŃ
uj te
Ġj ad
Ġfoto graf
st an
ĠÅ¡pe ci
Ġabsol v
is ko
ta il
ĠÅ½ ili
si u
Ġst ia
Ġn om
ĠN it
Ġdovo len
Ġskup ina
ĠO d
zi i
ĠzÃ¡ ko
sta la
ni lo
anÃº Å¡i
lÃŃ k
Ġosob nÃ½ch
Ġs vie
ĠPo Ä¾
Ġpon delok
Ġser i
Ġka ri
Ġod ov
ta j
li ch
nÃŃ ma
Ġobdob ie
Ġzariad enÃŃ
ĠI van
Ġkon feren
ĠÃº nie
Ġslov o
vo l
Ġved Ãº
Ġrozhod nutie
ĠnÃ¡ klad
ak ov
Ġb er
Ġjednotli vÃ½ch
Ġ201 4
Ġsta ne
ĠvyÅ¡ Å¡ie
le k
Ġprirod z
I E
ĠvoÄ¾ bÃ¡ch
Ġpo cho
Ġpo st
Ġbod ov
Ġsp or
ĠtÃŃm u
ja ko
ĠtisÃŃ c
Ġdi va
Ġdruh om
M edzi
t kov
bi la
cia mi
li v
ĠvÃ½ z
ie la
Ġmana Å¾
rov Ã¡
Ġaspo n
di m
Ġt an
ka j
Ġvy zera
Ġsmer om
tor ov
Ġko lo
Ġz ist
Po z
p t
u u
Ġpo isÅ¥ov
tick Ã¡
Ġli st
ĠE x
Ġpravdepodob ne
Ġsta le
en stvo
Ġni m
Ġpre u
nej Å¡ÃŃch
Ġpri poj
ĠnÃ¡sled ne
is la
vi du
Ã¡ te
me ÅĪ
um ent
Ġkni hy
A ni
N O
Ġfe sti
Ġvhod nÃ©
pe m
Ġspotre bi
pa ci
no du
zÃ¡ ciu
ĠMich al
ĠkrÃ¡ sne
Ġfung uje
ĠBy stri
tra k
Niek tor
ĠÅ¡k Ã´l
Ġfunk cie
ĠprÃŃ tom
Ġdo bu
Ġpro sÃŃm
Ġklu bu
op le
Ġpod oz
Ġb re
Ġsy n
ĠÄįlen ov
E Å¡te
Ġby ch
K to
Ġch lad
ou ld
Ġvy ber
Ġ3 5
Ġd c
prÃ¡ v
ce l
ova ne
T re
Ġh as
Ġnejak e
Ġsta ÄįÃŃ
Ġo sla
Ġsvoj ou
Ġno c
Ġpremi Ã©r
Ġproble m
k or
no ch
Ġtla Äį
Åķ t
ve l
Ġu vi
Ġtova r
Ġfebru Ã¡ra
K A
Ġf rom
ĠzÃ¡ sad
S o
g re
ĠtakÃ© to
lym pi
ĠvÃ½ ko
Ġpri mÃ¡
ĠÅ¡ko le
Ġdo p
ĠobÄį anov
Ġmoje j
Ġhra ni
lie b
Ġnap l
ĠstrÃ¡n ky
Ġmed i
k al
Ġjed nÃ½m
ri lo
ĠÄĮ ÃŃ
Ġved om
ÅĪ ovaÅ¥
Ġnede Ä¾u
on g
Ġ201 2
te f
Ġd Ãº
Ġma ter
Ġroz u
in t
ĠotÃ¡z ky
Ġk al
Ġpo hla
Ġna Äıalej
D D
Ġte st
Ã© ry
li ng
Ġa f
h am
Ġm ore
Ġkone Äįne
Ġs an
Ġje m
Ġru ky
Ġochra nu
po d
Ġori gin
Ġpre co
Ġmiliar dy
ĠK ar
len Ã½
Å¾ as
Ġhla vy
ĠmuÅ¾ ov
Ġsna Å¾ÃŃ
tov Ã½
z ke
Ġvi del
Ġtak Ã½ch
Ġb rit
Ġna mi
Ġse ver
Ġat mos
a ch
Ġ5 00
Ġuni verzi
Ġe m
Äį kov
Ġh an
Ġnap is
ie Ä¾
t enie
Ġtak tieÅ¾
Ġmu seli
Ġpred seda
r ovaÅ¥
ĠbudÃº cnosti
ĠÅĪ ou
ĠÃºra du
Ġprostred ia
z ov
Ġve la
Ġf an
V er
ĠvÃ¤ÄįÅ¡ ina
ĠP av
v ka
va me
Ġmi t
ĠÃ¡ no
r v
Ġb li
ĠD i
Ġi denti
ÄĽ k
Ġ Q
g Ã¡
mi t
Ġz re
ni kov
Ġdo lÃ¡
ĠkaÅ¾ dej
Ġ201 0
Ġza stup
Ġex trÃ©
Ġhra Å¥
e by
ĠJ Ã¡n
ĠÅ¡tvr tok
Å¡i la
ovan iu
Ġcel Ãº
ĠnÃ¡z vom
Äį u
Ġz mie
ĠÄįin nosÅ¥
Ġto Ä¾ko
t ina
Ġ et
Ġob nov
ky ÅĪa
Ã´ leÅ¾i
ĠzÃ¡ ch
Ġu vÃ¡dza
ĠvoÄ¾ by
Ġpod nik
ch ani
ne d
ta t
ĠpoÅ¾ ad
Ġpotre by
c ed
PrÃ¡ ve
Ġve Äı
Ġviacer Ã½ch
Ġpr inÃ¡Å¡a
de m
nÃ¡ sob
Ġp Ã½
M i
ĠpoÄį tu
Ġhla vu
g or
Ġdo by
Ġp es
Ġpo sti
ĠÅ¡ am
Ġtaj om
J o
g atÃŃ
Ġostat nÃ½ch
Ġsym bo
Ġza h
Ġp en
ĠM er
Ġde je
sky m
ĠdÃ´ vodu
g t
ĠV i
Ġpro spe
Ġauto bu
ĠsÃº Å¥aÅ¾
Ġpo hÃ¡
t nÃ½ch
Ġma Äıar
Ġf anÃºÅ¡i
Ġchce la
Ġs en
Ġh ad
ti p
ĠskÃºsen osti
Ġz novu
c in
Ġpo ra
Ġza znamen
ĠS i
Ġza sad
Ġban ky
Ġle s
Ġb ratisla
ĠpeÅĪa zÃŃ
rÃ¡ cie
Ġkomb inÃ¡
be l
Ġj im
Ġsp is
E M
Ġob och
Äį ie
Ġzamestnan cov
ĠV o
Ġzna Äįky
st r
van Ã¡
Ġli ke
Ã ī
A by
1 8
Å¡t al
Ġutor ok
le c
Ġchor ob
t an
Ġc uk
Ġ3 2
Ġop rÃ¡v
TI S
Ġmet rov
Ġal terna
Ġza mera
Ġdosta la
Ġpov rch
Ġmo del
Ġnep rÃŃ
Ġtak ze
ĠsÃº du
ĠÄįlÃ¡n ku
Ġpoliti ky
Ġmusie Å¥
Ġs lÃ¡v
ĠG u
E L
Ġod vola
Ġ201 3
Ġ19 4
Ġ200 8
Ġv re
Ġda ne
la r
Ġelektro nick
lÃ¡ m
z da
th er
Ġd ÄºÅ¾
Ġz nova
Ġna hra
b re
zi t
I C
Ġje Å¡tÄĽ
ch en
Ġpri Å¡li
ĠAmer i
Ġn u
Ġpo pla
VÅ¡et ky
d saÅ¥
Ġsmr ti
d ou
Ġhor e
no s
6 0
A A
ĠnÃ¡vÅ¡te v
S lovensk
ĠÅĪ u
Ġmili Ã³na
ĠM inister
Ġvy hÄ¾ad
Äį ania
Ġzahrani ÄįnÃ½ch
Ġvoj ny
ce s
ĠmÃ´Å¾e m
Ġm lie
P a
ĠvÃ½raz ne
Ġstret nutÃŃ
Ġpodsta te
Ġpo ch
Ġpam Ã¤
s ej
A L
ĠzÃŃsk al
Ġvy zerÃ¡
Ġm m
Ġc lovek
ud a
Ġti tul
Ġt voje
ĠÅ¡ pi
Ġva Å¡i
Ġd ali
lo Å¾iÅ¥
z ujÃº
rovo Ä¾
Ġhodno ty
Ġkraj ina
ĠvÃ¡ Å¾ne
Ġop roti
Ġpo te
Ġnes mie
ja zd
k mi
ĠkrÃ¡ Ä¾ov
ĠtrÃ© ning
Ġh r
ĠvÃŃ k
t nÃŃ
Ġprac ovaÅ¥
Ġdo pad
aj a
x e
Ġote c
Ġpredstav uje
Ġdo dÃ¡va
Ġhovor iÅ¥
enÃ½ mi
Ġin de
Ġvz dy
Å¡ ne
ĠvÃ¡ Å¾
Ġdopl n
stÃ¡ le
ĠEu ro
Ġsta Å¥
Å¯ m
Ġsed em
Ġk do
ĠkÃº p
Ġoh roz
Ġv obec
vne ho
z de
ĠM an
lÃ¡ cie
j sÅ¥
Ġpres ad
ĠS poj
Ġfa reb
Ġpoz rieÅ¥
Ġby l
nes s
ĠR ober
ĠÄįak Ã¡
Ġpok Ãº
Ġo cho
Ã¤Äį Å¡
ĠzvÃ½ Å¡
Ġch rb
mÃŃ r
ĠH or
Ġu t
Ġne roz
Ġna Å¡om
Ġfir ma
ar ÃŃ
u se
Ġ200 9
c yk
Ġla c
ĠÅ¡t ru
Ġli te
201 8
ĠT O
van Ã½
ro je
Ġslovensk Ã½
Ġnov Ãº
lov Ã©
LA VA
Ġin ten
Ġnem Ã¡m
Ġosob a
Ġindi vidu
Ġslov Ã¡
ce bo
Ġte la
Ġkni Å¾
Ġpot en
Ġkance lÃ¡
Ġnov e
Ġsvoj ÃŃm
omÃ¡ Å¡
ĠotÃ¡z ku
RA TIS
ĠmÃ´ cÅ¥
a de
do ch
Ġi stÃ©
Ġust anov
ia m
ĠumoÅ¾ ÅĪuje
ĠzÃ¡ vere
Ã¡va jÃº
Ġd at
n en
Ġminim Ã¡lne
no w
Ġatmos f
Ġn eni
st li
Ġsp u
Ġm lÃ¡
st ran
Ġm nou
stÃºp il
Ġnejak y
ĠktorÃ½ mi
V eÄı
Ġkam pa
Ġs vÃ¤
si ch
ĠproblÃ© mov
Ġk vet
ĠskutoÄį nosti
J ej
Ġpre bieha
w er
Ġpe ople
Ġp y
Ġvlast nÃ©
A si
Bo lo
RATIS LAVA
i p
Ġpri spe
ĠvyhlÃ¡ s
Ġmys li
Ġtran s
Ġpro pa
Ġkil omet
ĠÃº Äįe
Ġs via
ĠT ren
Ġka zdy
c vi
ni i
le m
M Ã¡m
Ġs mu
Ġur cite
Ġvzdia len
ĠD P
sk ÃŃ
Sam ozrejme
gra fi
re e
Ġpartne r
Ġdi pl
z du
Ġa ka
por u
Ã´ raz
ĠVla di
Ġz mysel
ia ci
Ġnamie sto
Ġna m
Ġzamest nÃ¡
Ġzd ruÅ¾
z at
Ġrozho dol
l t
pra ve
Ġu prav
cky ch
ĠdÃ¡v no
K om
Ġmys lim
Ġka ta
ĠnÃ¡ pad
Ġto p
Ġpri hlÃ¡
lo ch
Ġo lej
Ã© rov
ĠS A
Ġsna d
Ġkole k
uj ÃŃ
Ale bo
Ġmo ci
Ġsu sed
Ġako by
oo g
Ġd ÅĪoch
Ġvy rie
vo dy
2 5
Ġved ia
me j
loÄį nosÅ¥
Ġty p
f u
ĠpoÅ¡ko d
ani pu
ĠzaÄįa Å¥
Ġdo s
vo sÅ¥
ĠÃº Å¾as
V iac
Ä¾ ub
Ġo strov
Ġosob it
Ġpa pie
Ġden ne
tor y
Ġb uÄı
Å¡a Å¥
ĠkaÅ¾d om
Ġvy tvÃ¡ra
Ġlie Äį
ĠhrÃ¡ Äįov
ov u
Ġd y
bi t
Ġk ru
ĠÃº roveÅĪ
Ġfinan c
Ġo prav
Ġ200 6
rad ÃŃ
tre ba
ĠzÃ¡ Å¾i
Ġ200 7
s lovensk
vÃŃ n
ĠorganizÃ¡ cie
toÄį nÃ©
Å¡ta u
Ġpodob e
spe k
Ġb ar
hnu teÄ¾
o ne
ĠnÃ¡ boÅ¾
Ġrodi Äįov
ĠpouÅ¾ÃŃ vaÅ¥
H L
Ġm on
Ġne Ãº
stÃº piÅ¥
tov Ã½ch
ĠnÃ¡ klady
Ġin te
xist uje
Ġz mysle
Ġb rat
Ġopat renia
ĠÅ¡Å¥a st
A u
nÃŃ c
Å¡ k
du k
Ġd ÃŃ
Ġmu sÃŃm
or g
Ġkontro l
Ġme chani
ĠvyÅ¾ ad
o ku
t uje
ĠZ em
ĠspoloÄį ensk
ĠvÃ½ men
rie m
ĠP R
Ġnech Ã¡
Ġpat ria
Ã¡ Äįi
si la
Ġka u
an g
ĠS am
sa la
ed er
Ġt alian
Ġin teli
h ar
s ok
je me
ĠT y
S k
ĠM Ã¡
Ġpro f
ĠT V
ie ra
Ġjed nou
ĠÅ¡i rok
ĠmusÃŃ me
ĠdÃ´ kaz
r in
a Å¾
Ġw hat
ĠR akÃº
ĠznÃŃ Å¾
Ġkon Å¡truk
k ed
ĠnÃ¡s il
Ġsi g
van ÃŃm
ĠvyhlÃ¡ sil
Ãº n
ĠK ot
Ġrov no
Ġvie me
vi la
ĠpÃ´ jde
lo n
ri li
ra mi
Ġak Ãº
ĠprÃ¡ zd
Ġz bav
Ġ201 1
Ġhne d
Ġde st
ci o
ka Å¥
T V
Ġprav e
Ġli di
Ġnepo d
N E
Ġau ch
ck Ãº
Ġle ti
st red
tne ho
Ġfar by
Ġmin i
Ġpot ra
ĠÃº toÄį
S lov
en o
Ġb at
z oval
? !
Ġne gatÃŃ
Ġdo nt
vÃ© d
Ġuli ci
Ġener ge
Ã¡ li
Ġsi ly
aj ÃŃ
Ġdru hy
Ġau ta
Ġby lo
lo gi
len a
Ġnevy hnut
9 0
1 3
Nap riek
ĠÅ¡an cu
Ġved ie
Ġd oru
Ġsta la
Ġvla sy
Ġpredstav i
Ġpomer ne
ta la
Ġchce me
8 0
Po kiaÄ¾
ĠzÃ¡ bav
Ġved e
ia t
m at
de s
Ne m
O M
Ġsvoj imi
Ġne f
di o
g ov
ĠS K
ter s
KeÄı Å¾e
Ġov o
vo lÃ¡
lov ej
for mÃ¡
ĠpolÃŃ cia
Ġst roj
Ġoch ran
Ġ ÅĻÃŃ
t ovaÅ¥
Ġz do
Ġbratisla v
Ġo pa
ĠzÃ¡pas e
Ġm r
Ġdva ja
Ġvytvor iÅ¥
va te
ke v
ĠD ob
ĠC ar
lÃ¡ n
Ġb ran
1 4
Ġexist uje
Ġzmen iÅ¥
t nÃ©ho
Ġi d
Ġst Ãº
Ġnebud Ãº
v ny
Ġt ady
an Ã©ho
Ġarg ument
ĠM S
Ġslovensk Ã©ho
Ġchu Å¥
Ġoby Äįaj
Ġter ori
Ġz im
tÃ¡ t
Ġdo Å¡lo
tor om
Ġvy chÃ¡dza
ĠP or
Ġminister stvo
Ġsamo sp
ĠÅ¥aÅ¾ kÃ©
ĠH u
ale bo
Ġmlad Ã½ch
Ġpod ie
ĠvrÃ¡ tiÅ¥
Ġzad armo
Ġv am
Ġopat r
dr Å¾ia
Ġsc Ã©
ra st
ĠÅł p
Ġpodmien ok
Ġm Åķt
Äį nou
ĠT rna
ÃŃ Å¡
Ġfinan ciÃŃ
a jÃº
Ġw ie
Ġ200 0
Ġob sad
Ġoko lÃŃ
st vu
aa aa
tÃ¡ r
men ia
kov Ãº
ĠÅ¡tÃ¡ tov
Ġsi ch
Ġnajmen ej
v iac
Ġkonku ren
ĠÃº ver
B ez
ĠvÅ¡e ch
Ġs val
D ie
fi kov
ĠÅ¡ ie
de sia
ĠsÃº lade
Ġvie te
tÃ¡ ch
ra b
a b
tÃ¡ n
Ġne k
ĠSM S
nut Ã½
Ã¡ z
ÃŃ t
Ġch Ã¡
N A
Ġpomo ci
ti mi
Ġrod ina
ved l
Ġw a
ÄĮ i
ck Ã½m
1 6
la da
an o
Ġ4 5
ĠC i
lÃ¡ Å¡
g ar
Ġz lom
ĠprÃ¡ ca
t vr
cia l
ĠT om
hra l
Ġpripom ÃŃna
Ġjednoduch Ã©
b lÃŃ
Ġse xu
va ju
Ġzmen u
Ġna Å¡u
Ġon line
Ġh mot
ĠkÃºpe Ä¾
vÃ¡ Å¾
ĠvÃ¤ÄįÅ¡ inou
Ġi ne
Ġk rok
ro s
Ġj sme
ĠchvÃŃ Ä¾u
Ġvyu Å¾iÅ¥
ma mi
ĠÅ¡pe ciali
b od
ĠÅ¡t andard
Ġfesti val
R u
Ġdlhod ob
Ġt al
Ġneu stÃ¡le
Ġsla b
Ġmu se
Ġa vÅ¡ak
s ud
ni Å¾
ĠmÃ´j ho
jÃºci m
Ġbud ou
Ġprv Ã©ho
ĠJo zef
ĠsprÃ¡ va
Ġte be
ĠLi p
ĠT alian
Ġh ej
Ġnez nÃ¡
Ġuzav re
Ġre Å¡tau
st ol
ĠMa ri
ÅĻ ej
Ġdr Å¾
Ġrie Å¡iÅ¥
ĠbÃ½ t
O n
Ġpre z
Ġve s
ĠÄĮ R
Å¾ nÃ©
Ġg et
chod om
Ġtur na
Ġnesk or
M e
nut ÃŃm
Ġau f
ĠdolÃ¡ rov
koÄ¾ ko
Ġju st
ĠÅ¡ at
Ġde tail
Ġak cie
kov anie
un k
b roj
er n
ĠpoÄį Ãº
Ġo cen
i ce
Ġ3 6
Ġpoz ri
Ã¡l nÃŃ
ĠkaÅ¾d Ã©
Å¡ÃŃ mi
ĠT rum
se k
Ġvy ho
rov anie
Ġch o
ke l
Ġpodob nÃ©
kla du
d at
Ġj i
Ġin Å¡pi
mo ch
stick Ã½
Ġvybra Å¥
Ã© re
Ġnaj prv
Ġze mi
Ġdob rovoÄ¾
In form
Ġ3 00
p ia
Ġprin ie
ĠÅ¡tvr Å¥
ĠktorÃ© mu
VÅ¡et ko
H lav
ĠveÄ¾ kÃ¡
st ar
Ġf inÃ¡le
Äı te
H ovor
Ġprie mysel
Ġpom aly
Ġw ho
ĠÅ¡tru ktÃº
Ġpo chop
teÄ¾ nÃ½
M al
ent om
stick ej
ĠÃºÄį el
Ġko alÃŃ
ĠV al
ĠS tre
Ġvo lieb
Ġkomple x
Ġna to
Ġvy pad
Ġspravod livo
i v
ro p
ĠBri tÃ¡
n enÃ¡
Ġno ch
n or
Ġbo hu
Ġte ra
Ġna Å¡a
c as
Ġd av
U r
ĠH ar
Ġzvie ra
Ġpri z
Äį enÃŃm
Ġsta vu
Ġaktivi ty
rne ho
Ġoby vateÄ¾
Ġo lympi
ĠkresÅ¥ an
ĠpokraÄį ovaÅ¥
l ti
Ã Ŀ
ĠÅ¾i Å¥
Ã¡va Å¥
Å½ e
Ġkraj inÃ¡ch
ĠvnÃº tra
Ġkvali ty
tÃŃv nej
1 7
Ġb alÃŃ
ho ch
Ġfil mov
ĠW e
Ġan aly
Ð °
ĠsÃº per
ĠtrÃ© ne
ĠnÃ¡z ov
Ġved el
t Ã©ho
Ġu de
ĠRu sko
to lÃŃ
ĠB or
Ġ3 3
Ġvy nika
Ġminister stva
ĠvÃ½ sledok
ĠP an
Ġz vÃŃ
Ġochra ny
Ġso ciÃ¡lne
Ġu ply
Ġza ru
Ġroz mer
ĠprÃŃpad och
Ġzvy k
Ġm Å¯Å¾e
Ġrozhod nutia
Ġne hnuteÄ¾
Ġre kon
ĠÅ¡ty roch
Ġob et
ĠI m
Ġnedo sta
ĠÅ¾e le
ĠoznÃ¡ mi
Ġpo rt
sa li
Ġlo kali
Ġdruh Ã©ho
K eby
Ġod had
ĠT ur
pa Å¥
l ud
ĠrieÅ¡ enia
ĠR ich
Ġb or
par te
ĠF or
Ġdest inÃ¡
Ġpo chÃ¡dza
en ky
Ġuvie dla
ĠL ond
pla tnÃ©
Ġna k
Ġm ak
ne k
Ġhl bo
Ġria di
Ã¡l y
ĠsociÃ¡l nych
Ġh ier
v no
Ġkon ania
Ġk rat
Ġvys iela
ĠBa bi
2 4
Ġnajbli Å¾
Ġpro fil
Ġist Ã½
f inÃ¡le
ĠzÃ¡ sob
Ġs va
o logick
Ġni Å¾
Ġi ts
Ġzdroj ov
Ġda la
Ġre g
h Ã©
Ġod ol
Ġs le
tick Ã©ho
Ġkon iec
ĠS tra
ĠK i
Ġurob il
Ġu voÄ¾
Ġzo p
en stva
Ġde mon
men ÃŃ
Ġvod a
vÃ¡ t
Ġre zor
Ãº Å¡Å¥a
rov ej
Ġpod pis
Ġposkyt uje
ĠS po
Ġstret nutia
ĠS y
ĠÃºlo hu
ĠzÃ¡ ver
Ġre gu
Ġvon kaj
Ġzo stÃ¡va
Ġz bor
A n
Ġz ved
Ġporiad ne
Ġste j
Ġzd Ã´raz
ĠM il
Ġna zor
Ġb om
Ġst y
Ġcest ov
Ġuz at
i le
Ġnaj nov
Ġosob nÃ©
Ġj Ã¡
Ġktor ou
ĠnÃ¡d her
ĠkultÃº r
Ã¡l nom
Ġnaj d
t le
Ġin i
ĠtÃ½Å¾d ne
Ġre feren
Ä¾a Å¥
Ġzv lÃ¡d
Ġdo pravy
ĠgÃ³ l
Ġprv Ã½ch
ĠAle x
Ġvy bud
pov eda
ni cky
ru s
ĠpÃ´sob ÃŃ
Ġmesia ce
Ġh lÃ¡
Ġa c
Ġi f
Ġu pra
Ġsy ste
Ġna sad
ĠnÃ¡ stroj
st rÃ¡n
ĠvzÃ¡ jom
tÃ¡ m
vy k
ran ia
nÃŃk mi
ĠNA TO
ÅĻe ba
Ġsie te
Mu sÃŃ
ng e
Å¡ ek
Ġme sa
Äį ÃŃm
ĠsprÃ¡ vu
Ġex tra
Ġjedno zna
on y
Ġdu chov
ĠG re
Ġst ÃŃ
Äı a
sah uje
tÃŃv nych
Ġ ÅĻ
k ovaÅ¥
Ġbez pe
Ġnie je
an ovi
ĠdÃ´sled ku
am Ã¤
Ġpom Ã´Å¾e
Ġprostred ie
Ġvy k
Ġb it
ĠnÃ¡vr hu
Ġtak ej
M inister
ĠN em
jÃºce j
Ġd Å¯
d ar
E T
ĠS an
ti ve
di lo
pi li
Ġzo stav
hÄ¾ad u
ĠnÄĽ jak
Ġorgani z
ĠDe utsch
S t
Ð ¾
Ġd rob
ĠtrÃ© ner
om ÃŃ
Ġply nu
ĠhÄ¾ad iska
ĠR us
Ġgra f
sk Ã½mi
Ġinve stÃŃ
Ne viem
Ä¾ av
Ã´ Å¾
m r
Äįas Å¥
ĠzÃ¡ hra
Ġs et
Å¡ nÃ©
Ġ ed
Ġsitu Ã¡cia
Äįi te
Ġporov nanÃŃ
Ġse ku
t ing
P ou
ĠVÃ¡ Å¡
Ġw er
ĠbÃ½ va
Ġfaj n
Ġobdob ia
Ġin Ã½m
Ġspe vÃ¡
Ġh Ã¡
mo c
Ġzni Å¾
ch ad
P on
ĠY or
Ġat Äı
Ġtre tÃŃ
Ġnapo kon
ho dy
Ġsitu Ã¡ciu
Le bo
o pis
ÄįnÃ½ mi
Ġso ciali
ĠveÄ¾k Ãº
Ġne hovor
Ġf on
nu s
ĠJe Å¾i
d ne
Ġprin cÃŃ
Ġminul Ã½
Ġminist ra
re z
ĠpÃŃs om
ri la
Ġj ar
Ġvy stav
ĠprÃŃ klad
Ġob jed
Ġb et
v ak
Ã´ Å¾u
ĠkaÅ¾d Ãº
Ġpo su
Ġf u
Ġt ru
Ġzh roma
Ġi sla
Ġmi gran
ĠoÄįak Ã¡
Ġnes Ãº
VeÄ¾ mi
tÃŃ vy
N ed
t iny
Å¾ nej
n ka
lu b
pra vedl
f al
in ka
k an
Ġzi sk
Ġume le
Ġt Ã½mi
en ka
ĠÅ¡pe ciÃ¡lne
ĠvÃ½ hod
ĠkultÃº ry
ĠV ol
I T
se ku
Ġb log
ti ne
ĠniekoÄ¾ kÃ½ch
lie Å¥
Ãº ka
Ġe ine
Ġprisp Ã´sob
ni c
Ġg i
ĠP i
ĠnapÃŃs al
ĠKoÅ¡i ce
ĠpovaÅ¾ uje
ĠV ie
ĠvÅ¡ ade
Ġz lÃ©
la mi
Ġminul Ã©ho
ĠhrÃ¡ Äį
to sti
Ġostat nÃ©
ZÃ¡ roveÅĪ
ĠJ ed
ĠPo li
ĠC on
ĠÅ¡am pi
Ġg ene
Ġu Å¾i
Ġsitu Ã¡cie
te ch
Ġja zd
Ġd rÃ¡
Ġpod rob
ĠÄĮ er
Ġverej nosti
vaj Äįiar
Ġnebez peÄį
Ġcest ou
di v
ÅĪ om
Ġ200 4
Ġkli k
Ġper son
Ġk Ã³
Ġst r
Ġprac uje
m Ã©
ĠvÃ½ni mo
Ã¡ rov
Ġ3 4
R ov
is e
bou t
Ġmysle l
ĠK e
ĠUS D
Ġdve re
ĠS D
Ġjedin Ã½
Ġpravidel ne
kov ia
Ġsez Ã³ne
Ġkter Ã©
Ġma me
Ġjej ich
cov Ã¡
Ġb r
Ġpod vod
Ġdru Å¾
Nap rÃŃklad
Ġob haj
Ġdie l
Ġat d
ĠOS N
stick Ã½ch
ĠnÄĽ co
ti ka
ĠtÃ½Å¾d ÅĪa
p p
ar s
ha Å¥
Å¡ enÃŃ
Ġob Äįas
ĠpouÅ¾i tie
O D
Ġlep Å¡ÃŃ
S K
ĠÅ¾i v
Ġtomu to
Ġs mie
sla n
Ġche mi
ĠÄı aleko
ce ro
pi la
Ġm l
Ġpo chyb
Ġve li
Ð µ
Ġspo d
Ġzo znam
tÃ© ri
Ġregi Ã³ne
Ã³ r
ĠnenÃ¡ vi
lej Å¡ie
Ġodpov eÄı
Ġvy skÃº
Ġs ob
ick Ã©ho
S i
nov i
Ġne by
Ġu dalo
Ġregi on
ĠÅ¾iad ny
ĠprvÃ½ krÃ¡t
Ġpozor nosÅ¥
Ġno s
Z at
Ġf Ã¼r
ĠÄĮe sko
Å¾i v
m ia
Ġk ou
Ġda lo
ĠS er
Ġnajlep Å¡ÃŃ
Ġprodu kt
razi Å¥
ĠÄĮ a
Ġsez Ã³ny
Ġfot ky
mu s
ĠBo h
Ġko na
ĠN E
inÃ¡ r
ĠvÃŃk end
stÃ¡ v
Ġkon com
ĠMi ku
ĠM al
nÃŃ ku
ĠY ou
Ġtabu Ä¾
Ġvzni ku
Ġvy kon
ĠzÃ¡ ru
Ġe ko
il y
nÃŃ ch
Ġfor me
jÃº ca
Ġh re
Ġnebude m
rÃ¡ niÅ¥
se ÅĪ
ĠMo sk
Ġn ur
te x
Ġne spo
T Ã½m
ĠspoluprÃ¡ ci
ĠW il
Ġob cÃŃ
R a
sti ch
sta mi
ist ri
Äįa Å¥
raz ÃŃ
Ġthe ir
Ġce lo
Ġpredstav iÅ¥
Ã³ z
ĠkrÃ¡t ko
Ġ lÃº
o od
Ġk les
Ġ200 5
Ġposlan cov
Ġz ra
ia no
Ġst ran
Ġcent ra
ĠI S
U D
Ġkr v
Ġs Å¥aÅ¾
ĠpoÄį u
Ġza poj
2 2
ĠH ara
ĠH er
Ġp ali
ĠmusÃŃ te
Ġide m
x us
Ġuved enÃ©
Ġnov Ã¡
Ġz loÄį
ol f
SÃº Äįas
Ġposled nÃ©
Ġdiev Äįat
ĠkÃº piÅ¥
Ġnav Å¡tÃŃ
stu pe
ĠÅł tef
Ġhla ve
Ġdvom a
ilo zo
ÃŃ k
Ġre s
Ġak ej
Bo la
Ġpr ov
V e
Ġvlast nej
ci p
Ġni koho
ĠBratisla vy
Ã³ ria
A Å¾
V Å¾dy
Ġkvali tu
Ġpr enÃ¡
ĠprÃŃ sÅ¥
ĠB el
Ġva Å¡ej
Ġroz de
Äį enÃ¡
Ġka pe
mest nan
g al
chod u
Ġhod inu
Ġvy lÃº
od en
Ġne va
P oved
Ġvia no
Ġvod u
Ġtelef Ã³n
ty ch
Ġdosia hnuÅ¥
P S
Ġter m
I L
Ġdom e
Ġsp re
Ġpal ce
ovan Ãº
Ġmal Ã½
ÄĽ t
Ġob o
Ġtak om
Ġre vo
Ġleg isla
I D
V z
Ġcent rÃ¡l
ĠÄį ÃŃn
Ã¡ Å¾
Ġnepo treb
Ġkon Å¡ta
Ġpercen ta
Ġroz lo
ĠdivÃ¡ kov
oog le
Ġori ent
ĠspoloÄį ne
Ġa bout
ĠÅ¾ia da
Ġprote st
Ġli ber
Ġs vÄĽ
tov Ã©ho
Ġod i
ru ba
s al
nej Å¡ia
Ġu h
ĠB en
Ġobra ny
ko la
Ġkor up
nu l
Ġpri ja
Ġpou zi
Ġvyh ov
Ġproduk ty
Ġ15 0
Ġvzdu chu
Ġz nak
Ġpr vÃ¡
re c
le Å¾ÃŃ
ĠAf ri
Ġmateri Ã¡lu
Ġvy ze
s lov
Ġvy stÃºp
Ġnaj skÃ´r
Ġno hy
to p
Ġpe st
Ġrobi t
ĠkonkrÃ© t
B ratisla
Ġvo zi
tion s
Ġdoz ved
Ġspom ÃŃna
Ä¾ ud
al ly
li ny
Ġm anipu
A M
Ġok re
Ġpoliti ci
k i
Ġov lÃ¡d
Ġs lo
Ġbod y
ĠvÃ½sku m
li na
ĠH an
Ġch rÃ¡n
Ġce le
ĠzÃ¡ leÅ¾ito
ĠsÃŃ l
Ġkilomet rov
la nie
Ġpo by
Ġvo liÅ¥
Ġo st
Ġna Å¡li
Ġser vis
len Ã¡
Ġspom ÃŃn
Ġdo kona
ĠÄįi ta
le bo
ri s
ĠS NS
Ġpre hliad
ĠskÃº Å¡
p an
Ġh at
ĠR oz
Ġin teg
Ġh rad
Ġf Ã¡
V Ã¤ÄįÅ¡
ĠI zra
ĠM y
Ġzo zna
ĠEU R
Ġv tip
Ġci en
le y
Ġpre men
Ġkon z
2 3
Ġod delen
ĠÃº vod
Ġre Å¡pe
Ġpre ÄįÃŃta
Ġsie Å¥
Ġ Äİ
Ġspolu prac
ĠK D
Ġre for
Ġmaje tku
Äº b
Ġal koho
n ania
Ġhovor ia
ĠR Ã³
Ġb as
ti me
E C
Ġna riad
en n
Ġzlep Å¡
ra c
po u
Ġpri Å¡la
Ġrod inu
Ġmoment Ã¡lne
lov Ã½
ed e
Ġsvet ovej
ĠzÃ¡ vÃ¤z
Ä½ udia
Ho ci
ud i
Ġchy ba
Ġkor Ãºn
Ġjedno t
Preto Å¾e
j o
Ġspo l
ĠzÃ¡kaz nÃŃkov
Ġre d
c nosÅ¥
Ġspra v
z ovali
av id
Äį nosti
gra m
n enÃ½ch
Ġhor Ãº
Ġi nej
Ġsl ne
A nd
Ġstret nutie
Ġpodnika teÄ¾
N as
ĠvÃ¡Å¡ ho
av Ã©
Ġne jako
Ġma jÃŃ
Ġka paci
ĠodporÃº Äįa
Ġv ply
ĠkÄ¾Ãº Äį
ĠS vet
Ġst Ã¡va
ick Ã¡
rÃ¡ cia
Ġhra nice
ĠH D
r ova
Ġso ft
kÃº nd
Ġa ny
Ġoko l
ĠP red
Ġinterne t
Ġz mien
Ġo ci
po ra
ĠÅ¡tÃ¡ ty
lan ia
Ġvla ni
Ġok res
Ġz ly
Ġcyk li
Ġu tr
Ġzmen e
ÄįÃŃ k
tu m
Ġsta bili
Ġpu sti
ĠzaujÃŃmav Ã©
Ġs ind
ĠdieÅ¥a Å¥a
Ġrodi Äįia
ĠmlÃ¡ de
Ġe mi
min ist
Ġnema la
Ġodpor u
Ġdo j
Ġmoj ich
Ġdruh Ã©
i ca
Ġos lov
tu re
Ġstra ch
Ġfor mÃ¡
Ġti tu
la l
nÃ¡ l
Ġmimor iadne
Ġvz hÄ¾adom
2 1
Ġkedy koÄ¾vek
Ġan alÃ½
ĠLond Ã½
z li
Ġpovin nÃ½
Ġpredsed u
ra m
ĠD om
Ġz jav
Ġdu Å¡e
Ġokam Å¾ite
Ġcent re
or ov
Ġpo pis
gen da
len e
Ġse kÃºnd
Ġ19 5
ze l
Ġproduk tov
z ovanÃ©
Ġo ta
Ġlep sie
tÃ¡ cie
va telia
Ġfil mu
ĠstrÃ¡n ka
Ġz jed
Ġz ho
ĠB A
Ġo pozi
i ma
ran t
Äįa sti
ĠotÃ¡z ka
pre du
Ġod men
ĠÅ¡tÃ¡t nej
p rÃŃ
ĠkonkrÃ© tne
vo de
Ġverej nej
Ġadre su
Ġpracov nÃ½ch
ĠzvlÃ¡ Å¡t
T am
Ġr ych
Å¾ ku
Ġne da
Ġpoduj atia
zi li
Ġsu ch
Ġpriestor u
Ġmar ket
Ġza bi
ka t
Ġvia cero
ĠSmer u
R ad
Ġzariad enie
ru Å¡
Ġzdra vie
Ä¾a de
ĠP er
S me
Ġmo ni
vo li
Ġau s
ĠÅ¡pe ciÃ¡l
Ġpoho de
ĠM on
pÃŃs al
Ġrozhod li
en te
Äįe b
Ġob ran
zna Å¥
Ġpo Äı
Ġpsy cho
Ġ 00
Ġvy stup
ĠÄįi Å¾e
ti ky
ÄįÃŃ t
nÃŃct vo
A l
ĠT en
ĠH am
Ġko p
ĠdÃ´vod ov
x y
ujÃºce ho
ĠpoÄ¾ noho
o f
m enie
Ġhodno t
Ġvset ci
Ġa trak
ĠzaÄįia tkom
Ġodov z
Ġci tli
ĠM aj
ĠÄįas opis
Ġzahrani ÄįÃŃ
Ġi ste
ĠvzÅ¥a hu
Ġs lad
Ġin fo
Ġpre ved
ĠT omÃ¡Å¡
Ġz dÃ¡
ĠpohÄ¾ad u
ur t
Ġdef in
Ġwir d
g it
ĠRu ska
ĠprÃŃ prav
Ġz razu
Ġpla tiÅ¥
Ġvod i
Ã© ria
Ġbude Å¡
Ġs Ã©ri
ĠzaujÃŃm a
Ġthe m
Ġponu ky
ti lo
Ġrado sÅ¥
Ġpri de
Ġne rob
ĠÄ¾uÄı mi
Ġposlan ci
th ing
Ġk le
Ġqu e
tu s
Ġpara me
Ġnem am
Ġprospe ch
ĠSP D
Ġre b
vo daj
Ġc ou
Ġin teri
ĠMich a
Ġinform oval
ĠK ali
raz il
Ġchud ob
Ġlo gi
Ġzas lÃº
b ude
ia ce
ce st
kov om
ĠlÃ¡ tky
ĠvzÅ¥a hy
ĠF er
Ġm is
Ġih ri
ĠA ko
Ġsub jek
Ġprostred ÃŃ
Ġnech cem
r ky
Ġze me
Ġdlh Å¡ie
ĠÄįÃŃ sla
Ġce lÃ¡
Ġof f
ĠprÃŃleÅ¾ito sti
ene c
Ġte bou
Ġod k
Ġd aj
Ġt radÃŃ
Ġpre poj
ĠÄįer v
Ġcel kovo
is lav
Ġ6 4
v Ãº
sk oro
Ġs un
Ġpodpor uje
ĠK rÃ¡
Ġ19 3
Ã´ j
my slu
la tÃŃ
Ġza sa
Spo loÄįnosÅ¥
Ġpl ne
Ġh ov
Ġk now
Ġo c
rob lÃ©
Ġza ved
Ġo ku
Ġp Ãº
Tre ba
Ġvid ÃŃm
h re
Ã¡ Å¡
ĠÅ¾ia kov
ĠP ut
Ġko sto
I I
Äį ujÃº
Ġstarostlivo sti
Ġhodno tu
Ġst ri
st ky
ĠK an
Ġkto ra
V a
st ru
ĠQ u
Ã´leÅ¾i tej
Ġexist en
Ġda jÃº
ĠnÃ¡ kup
ta jÃº
ci Ã¡m
H e
Ġkter Ã½
Ġtr vÃ¡
ia cich
B y
Ġrekon Å¡truk
Ġdo kaz
ĠÄįo ho
Ġpre mie
rÃ¡ r
ĠP ol
Ġnejak Ãº
ĠvÃ½ro by
Ġza sia
ĠNeme cku
S tÃ¡
Ġty pi
Ġdob rÃ¡
ĠÅ¾ ensk
ĠurÄį enÃ©
ro l
U R
Ġsta t
Ġdi k
B A
Ġne mys
ĠG rÃ©
Ġparla mente
Ġf as
tÃŃv na
Ġvy vola
Ġkontro lu
Ġf ra
B e
ĠF C
Ġak Ã½m
Ġsom e
Ġ Ã
Ġmi kro
ĠmÃº ze
Ġf Ã³
od i
ĠnÄĽk do
za lo
Ne bo
Ġod liÅ¡
u f
Ġvhod nÃ½
Ġs ka
Ġsie d
Ġkomis ie
Ġb ur
Ġni Å¾Å¡ie
d lom
di u
s ho
Ä¾a hli
Ġporu Å¡
ĠpÃ¡ Äįi
te ra
Ġvlast nÃ½ch
nÃ¡ Äı
ĠagentÃº ry
Ġinve st
Ġh is
Ġpos ud
ĠmÃ©di Ã¡
Ġmet Ã³
Ġle ho
Ġfor mou
Ġdob r
VÅ¡et ci
Ġvod ou
ĠS pi
Ġposled nej
chÃ¡d z
K de
ĠbezpeÄį nosÅ¥
lo w
Ġpod iel
Ġnad ob
kla da
Ġsp rie
re ÅĪ
Ġin Ã¡
st ou
ct vo
zÃŃ v
c at
Ġalbu m
Ġpla y
Ġprostried ky
st nÃ©
rov al
Ġpre chÃ¡dza
Ġti me
Pe ter
ĠP at
Ġchce Å¡
tro l
Ġvlast nÃŃ
nu tÃ¡
Ġofi ciÃ¡lne
b ar
ĠÅ¡ko la
re t
Ġna h
ĠD en
Ġne treba
Ġu loÅ¾
Ġe ta
Ġv Å¯
Ġneza bud
ĠÃºÄįe ly
Ġbole sti
Ġtr val
Ġza obe
Ġmo ju
ke m
Ġrek ord
Ġstarostlivo sÅ¥
ĠzÃ¡ mer
Ġsta li
Ġneved ia
F i
Ġstred nej
ĠÃº ro
Ġhist ori
ri d
ĠrozpoÄį tu
ĠP la
ĠB al
M no
ĠvyrÃ¡ ba
Ġposled nÃ½
ze mie
7 0
ĠM ad
vo sti
Ġsi lu
, .
k er
Ġtla Äįi
fi ka
Ġskon Äįil
v Ã½m
Ġhovor il
Ġcir kev
Ġh lÃº
Ġprak ticky
Ġtak Ã½m
Ġk ov
Ġh rom
ria n
Ġzodpoved nosÅ¥
Ġa kÃ¡
Ġp it
ĠAnd rej
Ġw ould
ĠÄįlen om
V i
Ġzaj tra
Ġautoma ticky
ĠÅ¾ivot nÃ©ho
ĠZ uz
ĠS Ã½
Ġkr vi
t nÃº
Ġfoto grafi
Ġmie ru
Ġg lob
Ġven ovaÅ¥
Ġrokov ania
ĠpoÅ¾iadav ky
Ġpre hÄ¾ad
Ġkni ha
Ġne tu
m ky
k to
ĠveÄ¾k ej
Ġstre di
l h
Ġz ver
Ġba z
n ovÃ¡
s na
Ġpoz o
to sÅ¥
Ġved enie
ĠÃº ÄįasÅ¥
ova cÃŃ
ĠJo hn
ĠK y
t inu
Ġh omo
Ġp eda
Ġde parte
Ġp ale
ĠB ra
Ġvys lov
ĠpÃ´ Å¾i
ĠÅ¡kol stva
nost iach
Ġno h
Äįka mi
Ġna zna
ĠÃºspe ch
p h
Ġag re
Ġmu Å¾i
Ġvy sky
sk ov
Ġvoli Äįov
org ani
ta r
et y
Ġpri pad
ĠvÃ¤Äį Å¡ie
Ġmie rne
Ġ7 5
dÃŃ me
ĠblÃŃzko sti
Ġobchod u
ĠPar ÃŃ
mu n
ĠA P
Ġ4 00
se xu
Ġpoliti ka
sÅ¥ ah
tÃŃ va
Ġ200 2
ĠvÃ½ro bu
Mar tin
Åķ ÅĪa
Ð ¸
Ġdo ch
ĠnÃ¡ hodou
Ġzdravot nÃŃ
Ġro bil
ĠW in
ĠÅ¾ al
Ġsrd ce
rÃ¡ ciu
Ġv nÃŃma
ol d
tel li
Ġru ku
ra Å¾
Ġ200 3
Ġkon zer
c ÃŃm
ing s
ĠK iska
Ġdoho dy
Ġnemoc nice
Äį nÄĽ
N avy
4 5
Äį len
Ġniektor ÃŃ
ĠÄįia sto
Ġdlh Ã©
ĠÅ¡ta ti
Ġz me
he re
Ġzmlu vu
Ġpia tich
Ġhru b
ĠtakÃ½ to
Ġvoj akov
Ġvozid la
ce la
ĠzÃ¡klad nÃ½ch
c ny
en ci
MÃ¡ me
ni cu
Ġcent rum
V la
Ġ0 1
Ġprek va
s at
Ġiz by
ĠÄįÃŃ t
ĠvÃ½ dav
t var
Ġus por
sta lo
Ġter mÃŃ
ĠtechnolÃ³ gi
ch ovÃ¡
Ġneu ver
ovan Ã½m
teÄ¾ ne
Ġmi ne
Ġsvoj mu
tov i
od er
ĠR i
Ġs or
k ra
ti ku
Ġp Ã¤
Ġroz sahu
ĠS Ãº
Ġod strÃ¡
P Ã¡n
ĠA d
Ġpredpis ov
Ġz iad
Ġz aka
nes ie
Ġdo ty
Ġume l
Ġz mi
Ġzabezpe ÄįiÅ¥
pi ne
Ġci vili
7 8
Ġzh ruba
Ġo Å¡et
ĠzÃ¡klad nej
ĠveÄ¾k Ã½ch
Ġpremi Ã©ra
Ġved eli
Bratisla va
S e
Ġtro Å¡ku
Ġmiesta ch
ĠzÃ¡klad nÃ©
Ġnov om
Ġo pozÃŃ
Ġf ilozo
ĠRu sku
T ÃŃ
rÃ¡ d
Ġs r
Ġne znamen
zi Å¥
vÃŃ ja
ra ku
ĠMed zinÃ¡rod
ĠspoloÄį nÃ©
Ġrodi ne
Ġzd roje
Ġza chy
le ba
Ġmnoh Ã©
Ġsamosp rÃ¡
Ġdi git
Ġhod in
ĠÄįe le
Ġos pravedl
Ġa ky
Ġpre va
ak y
Ġproku rÃ¡
zi m
ĠSt an
Ur Äįite
Ġpre hra
Ġvozi diel
s pi
ĠÅ¡tud entov
ko p
Nik dy
Ġva mi
lia n
ĠK raj
lÃ¡ cia
Ġ Ãģ
ĠB i
Ġsp a
ĠP S
ber t
Ġv an
Ġw ar
ĠÃºÄį tov
L E
pusti Å¥
ĠK ra
Ġmu lti
Ã¡ ka
Ġper fek
Ġ3 8
de k
r Ã¼
Ġpohod l
Ġnie komu
ni u
Äįaj ne
Ġs vÃ©
sle dy
av Ã½
Jed en
C e
L u
Ã¡ me
ĠdomÃ¡ ci
k ovateÄ¾
Ġvi ta
Ġvlast nÃ½
T a
Ġprostried kov
zÃ¡ cii
ra jÃº
Ġbud ovy
Ġvlast nÃº
ovÃ¡ nÃŃ
MÃ´Å¾e te
o na
hod ne
Äį te
j as
ku d
Ġfunk ciu
ĠÃºto ku
Ġne h
Ġkni hu
Ġos vet
Å¾ om
ĠP rÃŃ
ĠP Ã¡
ĠpolÃŃ cie
Ġsvet lo
t va
Ġu da
skÃ© mu
Ġs Ä¾ub
Ġmla dÃŃ
Ġk g
Ġna ro
vi ce
u Å¡
ran d
ne y
Niektor Ã©
nej Å¡ÃŃm
Ġce ly
Ġf in
ĠV iano
ĠA b
Ġk res
Ġelekt r
Ġpravid lÃ¡
M ich
A D
nÃ¡ r
Ġne re
ĠVa Å¡e
no ut
ou s
ĠS T
Navy Å¡e
f le
z ovat
Å¾e l
Ġzi vo
Ġz nie
Ġnedo stat
Ġspo lo
Ġak ti
ni m
Ã¡ tor
Ġboj ov
s lo
te raj
ĠuÄįi teÄ¾
ĠreÅ¡pe kt
tick Ãº
Ġprof es
o de
Ġobla sÅ¥
Ġos ud
Ġtla k
lov Ã½ch
si i
na v
ĠW as
ne l
Ġsitu Ã¡cii
ĠspÃ¡ ja
Ġpo pri
Ġlo p
Ġn ene
nÃŃ ky
Ġvon ku
ÅĻ ed
Ġthe re
Ġtak Ãº
Ġdost Ã¡va
st ÃŃn
ti s
pe v
Ġm Ã½
Å¾ in
ĠSlov ak
ĠodporÃº Äį
Ġkraj inu
wa y
ĠT re
ĠU K
h nutie
dy ch
Ġpam ia
ĠeurÃ³p skych
pe k
ĠbÃ½val Ã½
ujÃºci m
ĠpoÄ¾noho spodÃ¡r
at u
kraj in
Ġhy po
ĠvlÃ¡ du
Ġte pl
Pod ob
Ġbo ja
Ġz ub
Ġb en
Ġnaj hor
ĠpÃ´vod ne
Ġkon cent
ch er
Ġinform ovala
ĠpÅĻ es
ĠSlovÃ¡ kov
a by
Ġtvor ia
Ġpovin nosti
ĠN ie
ĠNÃ¡rod nej
r mi
o st
sled ky
Ġkon anie
Ġ6 3
Ġli gy
Ġpoliti kov
ĠhÄ¾ad aÅ¥
ĠprÃŃ Äį
Ġdob ry
Ġcharak teri
ho da
Tak to
Ġtou to
Ġra n
Ġvysok Ã©
Ġdo da
Ġv al
v Ã¤Å¥
Ġjedno tky
ĠAmer iÄį
Ġostat nÃŃ
be re
Ġtex t
ĠÃºdaj ne
ĠN or
Ġproto Å¾e
z ur
Ġa ng
Ġd istri
tion al
Ġdre v
Ġvy da
Ġkedy si
Ġko nec
Ġf eder
Ġmu Å¾a
er y
Ġmuse la
rov na
ĠtvÃ¡ r
Ġpozi tÃŃvne
Ġne zi
Ġjed lo
Ġmateri Ã¡lov
Ġpolovi ci
Ã³ri u
Ġ ÅĻe
s Ãº
Ġ4 2
Å¯ j
Ġroz die
ÅĪ ovanie
Ġfi riem
Ġtak isto
t mi
ĠC om
Ġpoliti ke
H O
ra te
Ġs lÃ¡
B C
ĠzvÃ½ Å¡enie
ra la
Ã½ vajÃº
Ġmoni tor
ĠchvÃŃ li
Ġpro Äį
Ġmal Ã½ch
Ġpoz rie
ĠF e
Ġpla nÃ©
Ġvie sÅ¥
Ġochra ne
Zat iaÄ¾
Ġdruh Ã¡
Ġs li
me re
Ġktor i
ĠÅ¡tÃº dia
Ġm ake
Ġad minist
Ġban ka
Ġ love
is a
Ġprogra me
ĠÅ¾ele zni
c ro
Ġu vaÅ¾
as a
Ġe li
ĠdÃ´ ver
Ġta ble
ĠprÃŃspe vok
ie va
o Å¡
v Ã©ho
Ġs up
e p
ĠFa cebo
Ġkateg Ã³rii
Ġre cep
D i
Ġvy dr
Ġspom ien
ĠSlovensk Ã¡
P ov
mu ni
kÃ¡ n
s por
Ġmnoh ÃŃ
Ġneza mestnan
ĠbezpeÄį nosti
Ġsled ovaÅ¥
Ġ1 000
Ġne Äı
n s
Ġpred nÃ¡
Ġponu ku
S na
Ġverej nÃ©ho
Ġzru Å¡iÅ¥
z t
ĠÅłp aniel
Ã¡ ciÃŃ
te bo
ĠbudÃº ci
Ġda ta
Ġmoj om
D od
Ġpoliti ku
ĠkaÅ¾ dÃ¡
ĠM c
Ġzvie rat
ĠÅ¡tÃ½ l
ar y
Ġnap Ã¤
ĠzÃŃska la
b t
e ho
z om
Ġvy v
Ġfor m
Ġvy dÃ¡
Ġinterne te
Ġod ha
stick Ã¡
A K
ĠobjednÃ¡ vky
o ra
Ġnech aÅ¥
g Ã³
p Ã¤
ĠnÃ¡zor y
Ġby la
Ġin Å¡tal
ĠÄįas om
Ġob sta
Ġbo ji
pa li
Ġ4 3
Ġred ak
si s
Ġdie la
Ġjazy k
ĠmÃ©di ÃŃ
ved om
ĠB RATISLAVA
ĠzaÄįa lo
ĠK la
K dy
sti ky
Ġwer den
ck er
Ġkoko t
Ġpo ly
m Ãº
Ġli dÃŃ
Z d
Ġza rad
se s
ĠstrÃ¡n ku
Ġbl b
Ġhla sov
ĠvÃ¤Äį Å¡ÃŃ
Ġrozhod la
Ġs ia
ka r
Ġpo ÅĻ
Ġi Å¡lo
ĠFran ti
Ġaktu Ã¡lne
ĠÃº tok
ĠnedÃ¡ vno
Ġod tia
Ġte ho
ĠvaÅ¡i ch
hrÃ¡ va
9 9
ĠnachÃ¡dza jÃº
? .
Ġpo stoj
ĠG ra
ĠlÃ¡ sky
Ġpolitick Ã©
Ġdo tk
s c
ĠT ra
ĠdeÅ¥ om
sp ar
V iem
Ġzdravot nÃŃctva
ĠÅ¡ta di
ĠJ ak
Ġpovin nosÅ¥
Ġv Äįera
ĠÅ¾ l
Ġslobod y
Ġza re
v nÃ©
on al
Ġs lob
ĠÃļ stav
Ġdlhod obo
ĠPet ra
ĠtakÃ½ch to
Ġdo drÅ¾ia
ma z
ĠÄįo raz
Ġvyhra l
ĠE v
h nÃºÅ¥
Ġpod pÃŃ
Ġrovnak Ã©
L i
Ġme hr
Ġho sÅ¥
ĠveÄ¾k Ã½m
ĠsÃºÅ¥a Å¾i
ĠurÄį enÃ½
Ġ5 5
ĠÄįlen ovia
Ã½ b
Ġmiest nosti
ĠprÃŃro dy
Rov nako
kÃ¡ t
Ġt ÅĻeba
Ġpre kÃ¡
Ch cem
v Ã¤Äį
ĠvÃ½sled kov
Ġd Ã¡m
Ġprv Ãº
Ġb Ãº
pa ti
h t
Ã¡r d
ĠKoÅ¡i ciach
ĠÄįer ven
nov Ã©
Ġk nÃŃ
M ali
Ġvlast nosti
ĠP h
Ġrizi ko
to to
r tu
ĠdomÃ¡ cich
ku s
Ġy e
Å¾ia Ä¾
rov Ã©
Ã¡l nou
ko ne
Ġvo de
Ġrad sej
Ġlu xus
Ġsp rÃŃ
ĠlÃ¡ ska
ĠO nd
Ġofi ciÃ¡l
Ġch ut
N ej
f ie
Ġm eda
ĠÃºÄį et
Å¡i m
l or
Ġro kom
Ġpri Å¡lo
2 7
Ġp Ã³
ĠmÃ´Å¾e Å¡
Ġsto li
ĠprÃŃleÅ¾ito sÅ¥
z ol
Ġh Ã¡d
d sia
Ġ3 7
Ġv ad
Ġvy tvÃ¡
Ġstre tÃ¡
P rie
ci l
ul d
Ġpo j
Ġh mo
Ġpl nÃ©
Ġmie r
Ġvo pred
R E
Ġvy ra
ĠkaÅ¾d oden
Ġza ra
Ġim ho
ĠprÃ¡ vom
Äį kÃ¡
st ne
Ġza u
Ġt ich
hod nÃ©
Ġinve sti
Ġnov in
pra cov
ova teÄ¾ov
Ġschop nosÅ¥
Ġg rÃ©
ĠÅ¡p aniel
Ġte p
Ġv rÃ¡t
ĠL en
ĠD ie
Ġza vola
Å¾ ou
Ġdru hu
Ġsku pine
stick Ã©ho
Ġdef ini
ri m
vie dol
Ġha ben
Ġra kov
and er
lo Å¡
ĠvlÃ¡ de
ĠM ilan
ĠJa pon
Ġabsol Ãº
cke ho
Ġzi vot
pi t
ĠnajvÃ¤Äį Å¡ÃŃ
Ġspo Ä¾ahli
Do kon
Ġvy be
Ġh i
rozu mie
s ny
2 6
ber g
ĠP rie
ĠB re
ĠA ngli
ĠÅ¾iad nu
Ġdo sah
ti ci
ĠzÃŃska li
Ġkama rÃ¡
ĠlÃ¡ tok
Ġpolitick Ã½ch
Ġmaxim Ã¡lne
B a
Ġd vak
Ġreb rÃŃ
ĠG Ã³
Ġv sak
Ġkoment Ã¡
Ġtre tie
Spo lu
et r
Ġdipl oma
Ġra du
Ġnebez pe
Ġaktu ali
ov Ã½mi
ĠKD H
Äį nosÅ¥
Po Äįet
ĠmÃŃ t
Ġb odu
ĠÅ¾iad na
ĠTu re
ĠpoÄįÃŃta Äį
Ġvy kona
lÃ¡ ciu
Ġtu to
ĠskÃºsen osÅ¥
ĠÄ¾ ad
Ġwor ld
daj te
ĠÃº va
Ġprojek tov
ĠnÃ¡ stup
Ġkon tra
Ġdo h
ce ra
Ġe v
vyÅ¡ Å¡ÃŃ
Ġob aja
Ġkama rÃ¡t
Ġkvali tnÃ©
Ġslovensk Ã©
Ä¾ aj
re la
Ã´ t
u Å¾i
ĠC D
Ġu chÃ¡dza
ul t
Ġnov Ã½m
Ġvie Å¡
O O
Ġnajd Ã´leÅ¾itej
o c
Ġk rÃ©
Ġma ma
Ġ4 8
ĠW a
nick Ã©
Ġvysok ej
B S
Ġrozu mie
Ġpodmien kach
Ġra stu
Ġfinan ÄįnÃ©
ĠC e
Ġe pi
h m
ĠIn ter
Ġfa Å¡i
Ġsto p
nej sie
ĠTrum p
ĠR y
ĠBan skej
Ġpo siela
g Ã©
J u
Ġdo Äįas
A P
ĠzÃ¡pas u
de li
Ġcer ti
Å¾ by
Ġe very
en tu
Ġf ol
Ġpria zni
Ġhlav nÃ©ho
av Ã¡
Ġob sahu
pri m
Ġk ÅĪa
st nÃ½
Ġdosta toÄįne
Ġse ktor
ĠzÃ¡kon ov
mu m
ĠJu raj
Ġzmen a
ĠN ov
Ġv ale
Ġst ro
u ters
to cne
ĠvÃ¤ÄįÅ¡ inu
stÃºpi li
ar ma
Ġzb ier
Ġpoved at
Ġkte ÅĻÃŃ
ĠvÃ½rob kov
cie ho
Ġo tra
k li
Ġb rÃ¡n
is s
ro w
Ġpre Äį
Ġtr en
ĠBo hu
ĠS ou
Ġpoliti k
ĠhrÃ¡ Äįi
Äįast ejÅ¡ie
pusti l
Å¥ om
Ġkal en
ĠdokÃ¡ Å¾u
Ġtur naj
rg ani
Ġvl h
Ġnee xistuje
Ġz hor
en ul
Ġak tÃŃvne
Ġfak ul
pol ud
ĠdeÅ¥ mi
Ġkonf lik
Ã £
Ġf la
A vÅ¡ak
ĠE l
le du
le ho
va s
Ġriad ne
ĠrÃº k
di s
Ġverej nÃ½ch
Ġkontak t
ĠuskutoÄį nÃŃ
ĠnajvyÅ¡ Å¡ej
Ġdos lova
st vÃŃ
Ġ4 4
Ġv in
Ġverej nosÅ¥
ĠRober t
ÄĮ e
Ġok raj
Ġpar ku
Ġolympi j
on s
ov iet
Ġnaj niÅ¾
Ġna kup
Ġz da
ĠP oz
ĠneprÃŃ jem
Ġnut nÃ©
Ġ Ã´
Å¾ Äı
ĠnÃ¡ ku
Ġpr Ãº
K Ã½m
ul l
Pr vÃ½
ĠÅ¡ tÃŃ
Ġvypl Ã½va
ĠmoÅ¾no stÃŃ
Ġsmr Å¥
ĠvÃŃÅ¥az stvo
Ġde bil
Ġhovor ca
g om
Ġos lobod
Ġko naÅ¥
ce k
Ġzastup iteÄ¾
je te
he l
ĠC or
Ġvide li
Ġtak Ã©ho
Ġponu ke
Ġo no
Ġod vet
ĠzvÃ½ Å¡iÅ¥
ĠobÄį an
Ġukaz uje
r r
sto k
Ġna Å¡iel
ĠP O
Ġ Ã©
Ġm enÃŃ
Ġuda losti
kov al
Ñ Ĥ
Ġ4 6
Ġdo chÃ¡dza
Ġschop nosti
Ġs ran
Ġt rÃ¡v
Ä¾ ovaÅ¥
mati ky
Ġsto ja
lo t
ĠsprÃ¡ ve
K Ãļ
ĠcÃŃ tiÅ¥
Ġtvor ÃŃ
D Ãº
ĠS uper
Ġcharak ter
Ġch tÄĽ
Ġfotograf ie
Ġmili Ã¡rd
Ġu drÅ¾
Ġpo klad
ĠzÃ¡ konom
ent y
Ġa da
Ġko zme
ĠN R
ĠtÃ¡ bor
A T
ti c
Ġspra viÅ¥
Ġspoj enÃ©
nÃŃ Äįka
2 8
Ġbi skup
Ġkomp et
Å¾ ie
Ġuro bili
Ġsy na
Ġin telli
Ġin Ã½mi
Ġzlo Å¾i
Ġna vr
Ġposled nom
nÃ¡ ch
ĠFi ca
teÄ¾ nÃ¡
Ġprogra mov
ĠK or
Ġved enÃŃm
Ġma tka
Ġhist Ã³rii
Ġz rka
Ġpotvrd il
ĠobrÃ¡ z
Ġse x
ĠpÃŃ saÅ¥
Ġop is
ĠkaÅ¾d Ã©mu
s mi
ĠroÄį nÃŃk
Ġkomis ia
Sta ÄįÃŃ
Ġho stÃŃ
Ġi mi
ro po
qu e
Ġproce su
Ġpotreb ujete
Ġved Ä¾a
Ġuply nu
Ġm zdy
ĠO k
tÃŃ vu
Ġod v
Å¡ ovÃ¡
Ġdod nes
Ġspra vodaj
Ġdiev Äįa
Å¡li te
Ġdruh ov
Ġchy by
ili p
ĠN ovÃ¡
ri i
Ġby tov
Ġnorm Ã¡lne
Ġod strÃ¡n
stvÃ¡ ch
Ġnajlep Å¡ÃŃch
Ġnik do
Ã¶ n
ĠvÄĽ t
Ġd ver
Ġp sa
kov ou
Ġdruh Ãº
Ġpreu kÃ¡
ĠSlovÃ¡ ci
3 3
Ġinteli gent
Ġpok les
Ã½ val
Ġvra Å¾
Ġpreu kaz
Bo li
h is
Ġ200 1
n enÃŃm
Ġzhroma Å¾d
Ġpo p
oo oo
ne te
Ġsi ce
Ġdo teraj
rov Ã½ch
Ġpotreb ujÃº
Ġpredaj a
ĠÅ¾iado sti
na t
Ġsan k
ĠdneÅ¡ nej
Ġkontro ly
Ġbi o
um p
kov Ã½m
Ġstre do
Ġne w
Ġvzni kla
S te
ĠpÃ¡ na
Ġzah ÅķÅĪa
ĠplÃ¡ nu
ĠveÄ¾ko sÅ¥
Ġh ard
ĠJÃ¡ na
w ard
p ky
at al
as s
Ġe vid
Ġpre su
Ġnep at
Ġzahrani Äįia
Ġt Ã©mu
Ġstra tÃ©
ist ov
ci Ã¡lny
ĠÄįa st
er i
Ġrozvoj a
Ġc in
h anie
Äį Ã¡k
Ġse st
Ġhud by
Po li
ĠÄĮe sku
Ġh al
Ġpek nÃ©
Ġkateg Ã³rie
Ġno w
ĠPre Å¡ov
b ia
Ġinve stor
ĠÅ¡tud ent
Ġko lko
Ġh es
Ġch cie
Ġprij ÃŃma
ĠknÃŃ h
ha jÃº
Ġb on
Ġsk lo
d le
ĠDP H
S NS
te c
Ġneved el
ĠrÃ½chlo sÅ¥
in s
Ġlite ratÃº
Ġab s
Ġvrch ol
ĠzÃ¡ch ra
c an
d lÃ¡
Ġproku ratÃº
Ġpodoz ri
sla va
ĠI T
Ġvy prac
Ġj av
Ġpra vo
Ġo pi
z an
ĠnÃ¡ hrad
ĠH ol
f in
ĠV ar
Ġsprie vod
R o
Ġf ond
Ġde m
Ġjednotli vÃ©
Ġvy ro
ĠÄįom u
Ka Å¾
Ġky ber
ova Å¾
ko da
Ġb ak
Ġm Ãºd
Ġvyjad ril
Ġi zo
ĠK ol
Ġv tÃ¡
Ġw hen
ĠmÄĽ l
c z
Ġudr Å¾ia
ĠÄıal Å¡iu
J ak
Ġsitu a
in ak
L O
3 4
Ġhor Å¡ie
Ġid Ãº
Ġbo ha
Ġini cia
ĠA j
ĠdestinÃ¡ cii
Ġd alej
2 9
Ġdosta tok
Ġsl n
Ġse mi
Ġpr eru
ĠS N
Ġdra h
Ġz nenÃŃ
Ġdo ba
ĠtÃ½Å¾d ÅĪov
Ġoz broj
r Ã³
on u
ĠÅł e
ĠTren ÄįÃŃ
Ġvla sov
z ou
Ġpaci entov
Ġly Å¾ia
ĠJ i
ĠA F
ca Å¥
Ġli cen
ĠPa vol
s lim
Ġby tu
ĠvÃ½rob ky
Ġfinan ÄįnÃ½ch
ĠpouÅ¾ÃŃ vajÃº
Ġb ri
Ġdvak rÃ¡t
Ġwe re
ĠvÃ½bor u
p ier
men a
ĠÄĮ o
Ġpred ÄºÅ¾
re i
Tie Å¾
ĠtelevÃŃ z
Ġpo roz
ĠtÄĽ ch
Ġro Äįne
Ġp lu
ĠreÅ¾i s
rÃ¡ Å¾a
Ġko ali
Ġsta rÃ©
le kt
Ġpok ry
Ġnaj ne
Slov ensko
vy ch
li te
ÄĮ a
Ġth an
c m
av ej
Ġs nÃ¡Äı
ĠveÄ¾ko sti
E x
ĠvyuÅ¾ÃŃ va
uje Å¡
Ġu dÄĽ
Äį ok
Ġekonomi ky
V tedy
Ġov lÃ¡da
Ġamerick Ã½ch
ĠvÃ½Å¡ ky
pre s
ĠRe uters
Ġmo st
ĠI sla
stro je
h ry
z il
bo l
Ġkata stro
ĠCh ar
ĠZ vo
Ġtri um
J Ã¡
ĠS il
Ġpoku s
ĠH av
Ġverej ne
po ÄįÃŃta
Ġhla vou
Ġb lÃ¡
ĠCh or
. !
sti Å¥
ĠÃºzem ia
cia m
Ġob lie
st v
Ġener giu
Ġmen om
si c
ĠG oogle
Ġnem Ã´Å¾u
Ġ3 9
ĠÅ¡ampi on
ĠE n
Ä¾ ovanie
Ġhlav nÃ©
Ġro bili
b l
Ġa Å¥
uj i
Ġzbra ne
je li
Ġkvali ta
Ġo ur
vÃŃ t
ĠÅ¡Å¥a stie
Ġuni ver
Ġdo ktor
Ġpri blÃŃ
Ġdob rÃº
Ġza kon
ovan y
Ã¡ ci
so ci
sa de
Ġna koÄ¾ko
D ruh
ĠÃºlo hy
Ġved enia
S D
ĠvyÅ¾ad uje
Ġd Ã½ch
Ġra kÃº
Ġokre se
Ġpla st
Ġden nÃŃk
Ġked ze
Ġv se
st rie
S tra
ieÄ¾ om
tÃ¡ cia
Ġpoku d
Ġkampa ÅĪ
ĠÄ¾ud skÃ©
ĠBo ha
dÃ¡ m
Ġpoten ciÃ¡l
Ġpolitick ej
ina mi
ĠZÃ¡ pad
co ch
ĠsociÃ¡l nej
Ġpotra vÃŃn
ĠK r
Ġboj ovaÅ¥
an Ã½m
Ġ6 5
Ġods Ãº
Ġspravodlivo sti
Ġmesiac och
D a
ĠÃºÄįin ky
Ġdo predu
ĠK eÄı
Ġza hy
Å¡te v
ĠvÃ½ko nu
ova cÃŃch
StÃ¡ le
Ġnejak ej
an ou
3 5
k lu
spe Å¡
le zi
Po sled
Ġne ed
ĠÃ¡ ut
Ġpos Ãº
d ent
ĠP Ã¡n
Ġroz sia
Ġno tebo
c uje
Ġo hÄ¾adom
ĠN HL
ĠÄį aj
Ġvy poÄį
Ġprojek ty
Ġpod pred
ĠP u
pe Å¾
S voj
Ġni komu
Po treb
en cov
ĠÅ¾iado sÅ¥
ĠzloÄį in
Ġpro sim
k Ã©ho
Ġorgani za
ĠspoluprÃ¡ cu
Ġno si
Ġg Ã©
m s
Ġle to
ĠSe ver
M in
w or
Ġop Ã½
Ġt m
ĠP r
ĠS E
Ġtrie dy
Ġvoli t
zen ta
lu m
lÃ³ g
ho ne
ĠÅ¾ Ã¡d
ĠzÃ¡ hrad
Ġva Å¡u
ĠvnÃº tri
my sla
I nak
Ġkri min
ĠF o
Ġbi zni
ĠvzdelÃ¡ vania
Å¡ kol
lo Å¾ÃŃ
ĠÃº sme
Ġochor enia
po li
J an
Ġspo n
Ġprv Ã½m
Ġst ru
S tre
Ġcou nt
s vet
Ġho w
rÃ¡ cii
M Ã´j
ĠÄįaka Å¥
Ã¡ ciou
Ġin om
Äįi k
Ġza me
f Ã³
ĠsÃº hlas
ĠproblÃ© mom
Ġrozho du
Ġhla va
ĠSlovensk Ã©ho
Ġnemo hol
Ġzom rel
Ġpracov nÃ©
ra el
Ġrepubli ke
Å¡i ne
Ã£ o
o ni
Ġuzat vor
ĠnemÃ¡ me
Ġdisk ut
Ġo de
Zo znam
ĠsÃºÄįas ne
ick Ãº
Ġarch ite
l Ã©ho
ĠD avid
Ġro py
Ġzak Ãº
s am
cio nali
g et
Ġst u
ka ze
vi den
ĠlÃŃ d
Dob re
ĠT er
ĠvrÃ¡ til
Ġse e
I M
Ġple Å¥
Ġi ta
Ġth ink
ĠabsolÃº tne
Ġkon cep
por Ãº
ĠorganizÃ¡ cia
Ġna f
Ġchod iÅ¥
Ġd anÃŃ
ce t
ĠvÃ½ni m
Ġot ca
Ġspo sob
do p
Ġsun t
Ġfut bali
Ñ ģ
ĠÄį ud
Ġak ciÃŃ
T eda
Ġqu am
S kÃº
ĠPo pra
Ġpos chod
ĠMi roslav
ĠO n
Ġkom for
Ġd vor
Ġo tvÃ¡ra
Ġpotre bu
ĠÅ¡ko lu
je b
Ġdosia hol
Ġpov r
Ġt var
ĠzÃ¡pas ov
Ġob jem
ÃŃ Å¡e
sti cky
Å¾ ÃŃm
Ġde vÃ¤Å¥
Å¡ko d
va teÄ¾a
Ġhy d
u Äį
ĠÅ¡tÃ¡ tneho
ĠS rb
Ġkraj i
Ġzatia l
c on
Ġdizaj n
Ġk lÃ¡
Ġvy zna
Ġamerick Ã½
tÃŃ ve
Ġmag is
Ġpou kaz
ĠnedokÃ¡ Å¾e
ee ee
te daj
Ġte sne
Ġcir kvi
Ġpe rea
Ġvale at
Ġintelli genda
Ġp lus
Ġzdra via
O p
ĠÄ¾ Ãºto
Ġdo ta
Ġsta rÃ¡
Ġak e
Ġ lÃ©
Ġna raz
Ġtoho to
Å¾ al
Ġpredpo klad
Ġkom bin
ĠBabi Å¡
vie sÅ¥
Ġna dÃ¡
Ġru ke
ĠnapÃŃ saÅ¥
Ġz vÃ¤z
Ġpoz ad
Ġpren os
kol vek
ĠaplikÃ¡ cie
Å¡Å¥a stie
Ġpra xi
Ġpodpor y
ĠÄ¾ud skÃ½ch
Ġpi v
VÃ¤ÄįÅ¡ ina
ĠnemÃ¡ te
ĠdÃº fam
ĠÄįa stÃŃ
ĠZ o
Ġsu rov
z ÃŃn
ko sÅ¥
Ġna ÅĪ
Ġin Ãº
Ġu krajin
Ġci t
Ġh aj
ĠG i
Ġneuver iteÄ¾
Ġamerick ej
ĠvÃ½ stup
Ġsp ad
hra ni
Ġhra l
ĠA t
p Ãº
B ud
Ġvy tia
sk or
vid ÃŃm
ĠU Å¾
ĠD ub
Ġslob odu
Å ĺ
Ġi gn
Ġdro g
k Ã³
T i
Ġlo k
ĠdÃ¡ t
Ġbli Å¾Å¡ie
van Ã½ch
Ġne r
ĠL ad
ĠzÃ¡ko ny
ovan om
Ġroz delen
g r
Ġkvali fikÃ¡
en ce
ĠÅ¾i dov
Ġnepo da
at y
Ġcie st
tick Ã½m
ĠCh ri
Å¾ te
Ġtech niky
Ġute Äįen
Ġdo jem
od y
Ġkdy by
Ġre Ã¡lne
ĠskutoÄį nosÅ¥
Pon Ãºka
ĠÅ¾i jÃº
Ġp il
ĠS vÃ¤
Ġst anovi
ĠC ha
p ka
ĠsystÃ© mov
Ġvy pla
Ġposti hnut
ĠP C
Ġm ene
ĠSpoj enÃ½ch
nov ej
ĠÅ¡ta rt
Ġvy tr
ĠC an
l Ã½m
7 5
Ġpo le
Ġo le
ĠJ ana
ĠI raku
ĠD r
Ġj de
Ġin to
ku l
Ġobla stiach
Ġpre chod
Ġz vÃ¤
9 5
rÃ½ va
Å¾ nÃ¡
ĠslÃº Å¾i
Ġvyrob enÃ©
Ġo hÄ¾adu
la ri
ĠÄıalÅ¡ie ho
ĠzÃ¡pas y
Ġada p
Ġrekla mÃ¡
Ġna sp
Ġ1 20
ĠÅł vÃ©d
znÃ¡ m
Ġdre va
Ġpo Å¾i
Ġza ob
Ġbe en
Ġra si
Ġser ver
Ġnep red
ĠSa S
ko t
Za uj
Äį Ãº
Ġchy bu
ro ku
ĠJ E
Ġpo bo
ĠÄı akujem
Ġjednotli v
ĠMar tina
Ġposla nec
dÃŃ te
Ġz de
K ed
v na
Ġasi st
ĠPut in
Ġvoj ne
Ġne rie
ca use
en s
ĠnÃ¡ by
Ġsch on
Ġod va
Ġso li
ct va
Ġkon ÄįÃŃ
ĠvÃ½sled kom
ĠDeutsch land
or it
p ut
Ġnik de
ĠM as
Ġw h
ĠÅ¡tÃ¡ te
Ġobsta rÃ¡
Ġvyu Äį
F A
Ġty py
Ġpri pade
Ġ4 1
Ġja pon
Ġmo ti
Ġsrd ca
y a
ĠbÃ½val Ã©ho
mÃ½Å¡ Ä¾a
Äį al
Ġpotrav iny
Ġo zaj
ĠzÃ¡ pis
Ġvy lep
ĠsluÅ¾ bu
ĠÄįist o
Ġskup ÃŃn
D Ã¡
Ġu spo
lÃŃ te
st in
ar ov
Ġstav by
Ġvita mÃŃ
ĠÅ¡ko da
z nak
lÃŃ Å¡
Dokon ca
Ġ lov
O bec
ĠSM E
vÃ½ mi
Ġdemokra cie
la li
Ġrekla m
Ġstra sne
Nem Ã´Å¾e
Ġtoh le
f ia
Ġak Ã½ch
Ġtre tej
Ġpostav iÅ¥
Ġpr ud
Ġmal Ã¡
Ġmie ry
Ġpre vod
f ul
Ġad d
Ġpred Äįas
ĠnÃ¡boÅ¾ ensk
Ġod chÃ¡dza
tÃ¡ Å¾
Ġc ol
ĠspoluprÃ¡ ce
ĠnÃ¡klad ov
Ġschop nÃ½
ĠnemÃ´Å¾e m
j Å¡ÃŃ
ĠarmÃ¡ dy
va jte
tÃŃv nu
ĠG o
Ġve k
ĠPra ha
Ġj si
Ġneza uj
Ġpr om
ĠK ovÃ¡
ĠC ent
Ġnaj vÃ½
Ġk av
Äį mi
Ġtak z
Ġde via
Ġvy hodno
mo l
Ġpom en
Ġzran enia
Ġrokov anÃŃ
Å¡ an
ĠspoloÄį nostÃŃ
Ġ6 2
ie sto
toÄį nÃ½
jÃº cu
Ġver u
ro ÄįnÃ©ho
ĠT ri
Ġkli entov
Ġh li
st ka
Ġs chod
Ġsad z
Ġna ci
Ġka tolÃŃ
Ġkra ja
Ġo ÄįÃŃ
Ġ25 0
ĠÄįÃŃ taÅ¥
t nÃ½m
Ġdr Å¾ÃŃ
Ġnechce l
ĠÃºra dy
c na
Ġfan ta
Ġs Ã©rie
u te
ĠD ra
ĠBratisla v
Ġli fe
Ġdi d
ĠW or
Ġpredstav iteÄ¾
Ġdva dsaÅ¥
li ka
k en
ĠpoÅĻ Ã¡d
ak ujeme
Ġsil nÃ½
Ġtak a
Ġobraz ov
Ġpriestor och
ĠstÃ¡ Å¥
Ġva cs
ĠI nd
ĠMa rek
Ġmen Å¡ie
Ġ6 00
Ġpl no
Ġg ita
D om
Ġva Å¡a
re li
Ġb le
Ġroz por
Ġporad ÃŃ
Ġskup inu
Ġpl nÃ½
Ð ½
ĠPra he
Ġpriestor y
ĠWas hing
a c
Ġhomo sexu
Ġob avy
ĠvÅ¯ bec
Ġposkyt nÃºÅ¥
Ġtoh toro
ĠvÃ½ bu
ĠpÃ¡ s
Ġkar ty
ĠÃº c
sp ÄĽ
Ġm ld
Ġvod iÄį
Ġvz rÃ¡
ĠÃº Äįasti
so lu
Ġpo plat
Ġprij ÃŃm
ĠzvyÅ¡ uje
Ġu Å¡et
ĠtechnolÃ³ gie
Ġru kÃ¡ch
ZÃ¡ klad
Ġh m
Ä¾ ou
b et
N av
Ġprij at
P rav
Äįi st
Ġpracov nÃŃkov
de mi
ĠpokraÄį uje
ĠnÃ¡ dej
. ?
Ġop Ã¤
Ġte Äı
ĠNeme cka
w it
ĠzvÃŃ Å¥a
Ä¾ ujÃº
Ġspra cÃº
Å¾ ka
Ġjednozna Äįne
ĠbudÃº cnosÅ¥
k tu
ĠskÃºsen o
ĠzÃ¡ vaÅ¾
Ġv loÅ¾
Ġsk ry
i j
Ġo pera
Ġmarket ing
Ġosob u
ĠgÃ³ lov
Ġst vor
vo z
ty m
Ġz bie
Ġver zia
Roz hod
od a
ĠprevÃ¡dz ky
Ġsoft vÃ©
Å½ i
ĠvyuÅ¾ÃŃ vaÅ¥
ĠoznÃ¡ mil
Ġsch Ã´d
po k
ĠminÃº te
Ġzisti Å¥
ĠAnd re
ĠkandidÃ¡ tov
Pred stav
ĠB ro
Ġsho uld
Ġbi cyk
Ġme ta
Ġz riad
l n
w o
Ġdis cip
g es
Äį anov
Ġterm ÃŃn
Ġpo byt
Ġseku n
Ġkonzer va
Ġkapi tÃ¡
S u
Ġsna Å¾ia
Ġza mie
nd er
Ġoprav du
Ġkro ky
g s
Ġjed nÃ¡
ni s
H ej
ĠpoznÃ¡ m
Ġba ck
ĠGÃ³ ly
la m
vi m
A C
ĠS al
Ġsc enÃ¡
Ġvi diteÄ¾
P roblÃ©
Ġzvy Äįajne
Ġlo Äı
Ġdo l
Ġu l
Ġnad Å¡
Ġnasled ov
Ġkr Ãº
S R
Ġo pe
Ġuz nÃ¡
Ġpre pad
ru p
rov ania
z ovanie
H la
Ġst ovky
Ġni jak
Ġbie ly
at h
an s
Ġk voli
Ñ Ģ
ĠroÄį nÃŃka
l ky
ĠdÃ´ stoj
Ġod kiaÄ¾
Ġdoho du
ĠM in
Ġpoz d
je v
Ġpriprav enÃ½
Ġdan n
ĠdokÃ¡ zal
ĠÄ½ ub
ĠvÅ¡etk Ã©ho
ĠsÃºÄįas nej
Ġkni he
ĠvzÅ¥ah ov
jÃº com
ĠvÃ½ tvar
Ġod stra
Ġnech al
P om
ra ch
ĠV as
z mi
ĠmyslÃŃ te
ĠplÃ¡n uje
Ġza tvor
ent Ã¡lne
Ġkon anÃŃ
ĠmanaÅ¾ Ã©r
ĠfanÃºÅ¡i kov
Ġnaj kraj
ĠkandidÃ¡ t
O P
nÃŃct ve
Ġle gen
ĠprÃŃ pravu
il d
Ġv nÃŃm
ĠN ÄĽ
Ġs h
ĠK Ã³
ĠA s
len Ã½ch
ĠB ud
C ieÄ¾om
Ġp ne
Ġrozhod nÃºÅ¥
ĠD ol
Ġe l
ĠtrÃ©ne ra
Jed no
Ġ201 9
lÃŃ na
G B
Ġsp Ã½
Ġsil nÃ©
Ġod de
Ġho tov
Ġhrom ad
Ġs nÃŃm
Ġmoze s
S a
Ġpo ria
nut Ã½ch
Ġzd arma
ĠprÃ¡ c
Ġtvoj a
mÃ½Å¡ Ä¾
Ġhlav nej
Ġkur z
Ġmu zi
Ġe mo
ĠvÃ½sku mu
ĠÅ¡peci f
Ġb ul
K u
ĠnÃ¡ hra
om u
Ġs f
p il
per cent
Niek edy
Ġdie lo
Ġg al
mer ia
Ġu menia
Ġc love
tÃ¡ ciu
kov e
Ġpripra viÅ¥
Ġvr cho
Len Å¾e
Ġp et
bo li
Ġspo le
Ġs nÃŃ
Ġpolicaj ti
ti vne
ĠvÅ¡etk Ã½mi
Ġspotrebi teÄ¾
ed i
k Ã½mi
Ġmesia ca
ĠA ng
Äįi ne
ĠTe le
Ġzne uÅ¾ÃŃ
ĠÄįo skoro
Ġov lÃ¡
ĠÅ¾ enu
ho du
Ġslov ensko
Ġh rie
Ġpi ci
men Ã¡
Ġhro zÃŃ
Ġti cho
ni Äįka
Ġroz Å¡i
ĠvÅ¡eobec ne
ĠprÃŃ pravy
Ġs ing
Ġvide la
Ġhrd in
Ġpo bre
Ġvar ian
Ġf Ä¾a
Ġdo klad
bo k
ĠB ur
t na
vateÄ¾ om
Ġkan n
Ġver ÃŃm
Jed nodu
Ã ¨
Ġta to
zÃŃ vne
z ovanÃ½
Ġru ka
uje s
ĠÃºÄįast nÃŃkov
Ġon ly
ĠÅ¡ko lÃ¡ch
Ġgo od
Ġpri dÃ¡
Ġjed inÃ¡
ĠÃºspeÅ¡ ne
Ġla vi
Ġposla l
Ġhlav nÃ½
Ġkon tex
Ġh nus
Ġmo zem
est er
ĠA m
ĠÄıal Å¡ÃŃm
gu e
Ġvz nika
r s
Ġ end
Ġnapo sledy
Ġmili Ã³ny
ĠvlÃ¡ k
kov anÃ©
Ġa gen
Ġnevie te
Ġmo no
Ġnech a
Ġneznamen Ã¡
Ġjazy ka
med z
Ġber ie
ĠnÃ¡ rok
Ġdo wn
ĠÃº zemie
I V
ĠkrÃ¡t ky
ĠprÃŃpad ov
ĠdokÃ¡ zali
f y
Ġlie Äįi
Ġtele s
ku jÃº
ce lo
ĠpoÄįu Å¥
ĠM or
ĠA ir
ĠslÃ¡v nost
Ġde bat
ĠVeÄ¾ kej
Ġa mer
Ġpoved ali
ĠRich ard
Å¡i lo
Ġstani ce
ĠtÃ© ma
tel ne
ĠzaÄįia tok
ĠÅ¡ko dy
O sob
Å¾a la
Ġbat Ã©rie
Ġce los
nu tiu
Ġstra v
Ġpri d
ĠNeme cko
ÄįÃŃ me
Ġpod arÃŃ
ĠnaÅ¡i m
Ġma il
ĠpoÄı ak
Ġinter pre
Ġa ber
va ti
Ġdal Å¡ÃŃ
rov Ã½
Inform ovala
Ġbez p
Ġten is
ĠÄįlov ÄĽk
Ġdob ro
Ġre le
Ġod vod
Ã¡ Ã¡
Ġmys lia
ĠnÃ¡ mest
Ġza lo
vateÄ¾ stvo
rou nd
ĠM en
Ġru Å¾
ĠÄįo si
di te
Ġw ell
am p
ĠÄĮe skej
Ġtelef on
t t
ĠhospodÃ¡r stva
Ġhodno ta
Ġli kvi
Ġadminist ra
Ġorg Ã¡n
ĠmÃ¤ k
m lu
g ant
ne me
Ġvlast nÃ©ho
ĠdomÃ¡ cnosti
Ġefek t
ĠÄįe skÃ½
ĠreÅ¾i m
ĠHara bin
Ġte s
Ġbl bo
Ġdob rej
ĠÅ¡tÃ¡t nych
Ġdesia tky
oz nÃ¡
Ġse l
ak t
Ġ198 9
ma Å¥
Ġturna ji
sky t
ĠextrÃ© mi
Ġsa me
Ġdokona le
Ġchce s
Ġstoro ÄįÃŃ
sch e
ĠtÃ© my
ĠrÃ½ch le
ĠV Å¡et
Ġslovensk Ã¡
Ġm ena
Ġc ene
ovan i
Ġpod le
hla d
Ġza sla
Ġzapla tiÅ¥
Ġro ÄįnÃŃ
mi la
Ġverej nÃ©
Ġlie ky
Ġkom i
ĠHo tel
v ke
Ġstre tne
ali ty
Ġnadob ud
ra s
Ġob a
u er
ĠnÃ¡zor u
Ġsa k
tu gal
Ġdemon Å¡t
ĠA p
Ġign or
te ru
Ġh el
Ġba to
Ġsme re
Ġza bra
Ġza pÃ¡
Ã¡ no
Ġskon Äįila
Ġamerick Ã©ho
Ġt or
lÃŃ cia
Ġakti vÃŃt
me l
Ġus er
Ġnef ung
Ġsa y
Ġuniverzi ty
Ġp Ã¡d
Ġne t
O B
N iÄį
Ġhud bu
Ġpri ori
a st
Ġsp rostred
Ġlo l
Ġre cen
Ġpre ven
Ġvysok Ã½
Ġexper im
ho j
ĠzÃ¡ zra
ĠnÃ¡ro da
Ġf av
Ġdo ko
Ġhote la
bu s
Ġbe h
Ġli dÃ©
ĠÄįer st
Ġubyt ovanie
x a
Ġdokon al
nick ej
Ġ8 00
er ie
ĠvÃ½voj a
Ġiz rael
Ġs he
do ws
Ġrovnak Ã½
Ġodo hra
bo ra
Ġmaje tok
Ġpou kÃ¡
Ġhod inÃ¡ch
Ġslova mi
Ġkomu nika
k edy
ĠpozÃŃ cie
ĠDan ko
ri ch
Ġstar Ã½ch
Ġrepubli ka
Ġpri jaÅ¥
ĠvyhÄ¾ad Ã¡
Ġko t
Naj lep
ĠÅ¡i kov
ha li
ĠG al
Ġd la
Ġvz hÄ¾ad
da y
nu li
ĠE d
Ġexist ujÃº
Ġpri mera
Å¡ ok
Ġju ho
k de
Ġsp ÄºÅĪa
Ġpropa g
ĠS to
Ġkli ent
Ġna hrÃ¡
Ġporov nÃ¡
Ġzop Ã¡r
Ġzlo dej
Ġra stÃº
Ã¡lny mi
ĠobÄį ania
Ġo kami
Ġsu mu
st rÃ¡l
il la
Ġw ant
Naj vÃ¤Äį
I K
Ġhote lov
ĠagentÃº ru
Ġfar ba
w ar
Ġpo za
Ġr Ã³m
Ġporia dok
Ġkom er
Ġozna Äį
ed om
kla daÅ¥
Ġpa pier
ĠBystri ci
ÅĪ te
T ri
bÃŃ ja
ĠneÄı aleko
Ġn ud
Ġp ed
ÅĪ Ã¡k
Ġva c
201 7
ĠVladi mÃŃr
ĠdomÃ¡ ce
ĠLip tov
ĠÅł vajÄįiar
Ġsm art
Ġw o
Ġprezident om
ÅĪa mi
Ġmimor iad
ĠD zur
ĠtlaÄį ovej
Ġchcie Å¥
Ġkonec ne
Ġob div
ĠreÅ¾i mu
or ge
Ġpo zera
ĠprÃŃ du
Ġb iel
ĠzÃ¡ sah
for ma
Ġnev z
lo p
Ġne kon
ga in
Ġvhod nÃ¡
lÃ¡ Å¡Å¥
Ġlo g
ĠznÃŃ Å¾iÅ¥
ĠS om
Ġr oman
Ġpria teÄ¾ov
K rÃ¡
ich ni
Ġfon du
ĠS ie
Ġf rek
Ġkri tÃ©ri
Ġp ut
Ġzo h
ĠP res
ĠÄ¾ah kÃ©
v nej
zi la
Ġta ne
Ġau tÃ¡
ensk Ã©ho
spar ent
Ġtro cha
Ġhodno te
ĠsprÃ¡v ny
Ġprv ky
pusti li
zÃ¡ jom
Ġky seli
Minister stvo
Ġautor i
ĠÅ¡Ã© fa
ĠI ng
Ġpo de
Ġodpov eda
ĠvÅ¡ ichni
ĠtvÃ¡ re
Ġvy mys
he m
M at
Ġzak lada
ĠpÃŃs m
Å¡ in
Ġ5 4
Ġprav di
Ġkor u
ĠS la
Ġv tedaj
Ġnevi del
Ġhud ba
Ġzdravot nej
ĠdÃ¡va Å¥
Ġm Ã³d
d aka
M il
ĠorgÃ¡ nov
Ġpolovi cu
Ġzak Ã¡
S p
ĠÃºÄįel om
ĠspoloÄįnosÅ¥ ou
Ġd vanÃ¡
ĠpozÃŃ ciu
z te
ĠÅ¾iad en
Ġpi vo
Ġdost anÃº
ze ÅĪ
vÃ¡ ch
Ġde si
Ġtr end
hÃ¡ ÅĪa
ĠpoisÅ¥ov ne
ujÃº ca
c tion
Äį ovÃ¡
ĠukÃ¡ zaÅ¥
ÄĽ l
Ġhlav nÃ½ch
ĠdesaÅ¥ ro
ĠvrÃ¡ ti
Ġvy volÃ¡
ia Å¥
livo sÅ¥
Ġuk rad
ĠnÃ¡ me
Ġs vad
Ġpred loÅ¾
uda pe
raj u
sch en
Ġarch i
ĠopÃ¤ tov
Ġk Ã³d
tu r
Ġo pra
Ġak ciu
Ġho tel
Na Å¡e
ĠnÃ¡rod nÃ©ho
a f
Ġkte rÃ¡
Ġstra Å¡ne
spo ÅĪ
Äİal Å¡ie
Ġobjav ili
ĠR ud
bu z
Ã¡l om
ÄįnÃ© mu
Ġe ven
P at
du m
les s
Ġna hodou
V ÃŃ
ĠR oman
ĠkomunikÃ¡ cie
Ġzo stane
nov Ã½ch
ĠMar k
Ġpov od
ĠBystri ca
Ġau te
lÃŃ me
ĠmyÅ¡lien ky
Ġsta bil
ĠvoÄ¾ bami
ĠukÃ¡ Å¾e
sky mi
Ġob chode
Ġnemoc nici
ĠveÄ¾ kou
Ġza po
ĠvÃ¤Äį Å¡iu
am er
Ġdy nami
Ġpos lu
cov ej
ru jÃº
ĠzÃ¡uj mu
Ġpre ver
b la
Ġnepoda rilo
Ġhlav nÃ½m
Ġpreto ze
ĠF B
formÃ¡ cie
r enÃŃ
ĠmÄĽ li
Ġrozhovor e
Å¾ enie
va c
Ġin y
Ġpri bud
Ġnaj ÄįastejÅ¡ie
Ã© rom
Ġpra jem
ĠsÃº bo
ĠkÃº sok
R ob
Ġob vyk
rÃ¡ ni
ĠmoÅ¾nosÅ¥ ou
Ġsta ci
Ġpar ti
Ġsta rÃ½
Ġak cept
Ġproble mati
Ġhovor kyÅĪa
Ġmed ia
Ġeu ra
Ġz hodno
Tak Ã©
ÄĮ as
Ġpre jsÅ¥
rov anÃ©
ĠÃº drÅ¾
Ġne rv
ĠvÃŃ c
Ġroz o
Ġt edy
ti ce
nov Ã½
Ġma sÃŃ
Ġvysok Ãº
b Ã¡r
SÃºÄįas Å¥ou
Ġzobraz uje
i cky
ro ÄįnÃ¡
Ġad vo
di ot
Ġviacer Ã©
NÃ¡ sled
O Z
vÃ¡ r
tÃŃvne ho
Ġpovr chu
Ġpozem ku
Ġkoncer t
lÃ¡ k
6 4
rob il
Ġnap ri
Ġpotreb ujem
Ġmaji teÄ¾
Ġpravi diel
Ã© f
Ġvra vÃŃ
ĠrÃ½ch lejÅ¡ie
Ġpreva Å¾ne
Ġo stÃ¡va
Ġrevo lÃº
Ġpre mÃ¡
n iny
I ba
ĠG ro
ĠKo Äįne
Ġto t
Ġob Ã½va
Ġh Äºb
C ena
Ġfil me
pov eÄı
Ġods Ãºd
ĠSD KÃļ
ĠG ar
ve st
Ġosob nosti
Ġobchod nÃ½ch
ĠznÃŃÅ¾ enie
ĠÅ¾ivot nÃ©
N ad
y er
Ġdob ÅĻe
Ġobet ÃŃ
to s
g ovia
Ġnez men
ĠV an
Ġproduk tu
ĠurÄį enÃ¡
Ġaku rÃ¡t
ĠvÃ½Å¡ ka
rÃ¡ ba
Ġs Ã½
Ġriadi teÄ¾a
ĠprÃŃj mov
ĠzÃ¡vis losti
sel f
Ġkampa ne
ĠzÃ¡ leÅ¾ÃŃ
Ġpriestor ov
Ġvo lÃ¡
Nik to
Ġk rad
ĠstrÃ¡n kach
Ġ Ã¼
ĠnajvÃ¤Äį Å¡ie
ko lo
Ġautobu s
W e
ĠÅ¡ ir
ĠÅ¡ta r
Ġodmie t
Ġvsetky ch
Ġf ree
Ġpre Å¾ÃŃ
Ġrezer v
ve c
Ġsp lÃ¡
Ġli be
Ġpek nÃ½
S y
ĠH y
Ġpoby tu
Ġpov iem
Ġh im
Ġzbra nÃŃ
Ġom noho
Ġvzni kol
en osÅ¥
ha ha
Ġodmie ta
Ġzv Ã¤Äį
Ġpred be
ĠsystÃ© mom
ĠvykonÃ¡ va
ci s
ĠnÃ¡j om
ni Äįky
ĠnajvÃ¤Äį Å¡ÃŃch
len ÃŃm
ĠG er
Ġt l
Ġtrest nÃ©
Ġs Å¥ah
Å¡t ud
Ġpoduj atÃŃ
Ġzvu k
rÅ¾ al
Ġinterne tu
Äį kovÃ¡
ĠsprÃ¡ vanie
kov iÄį
Ġma fi
od poved
hne Äı
ĠIzra el
Ġmie re
k ing
Ġsp ie
vie te
Ġnorm al
Ġspo ÄįÃŃ
ĠÄıalÅ¡ÃŃ mi
Äįa mi
ĠCi ty
ĠMa g
Ġ199 8
Ġnapri klad
Ġskve lÃ©
kÃ¡ Å¡
de la
Ġdostup nÃ©
Ġza o
ĠlÃ¡ sku
pad lo
Ġale rg
ĠJeÅ¾i Å¡
Ġdruh Ã½m
Ġver iÅ¥
la c
Ġu Ä¾ah
Ġvysvet Ä¾uje
Ġem Ã³
ĠÅ½ili na
ĠÃºlo h
Äį na
ĠstÃ¡ t
ĠSlovensk Ã½
Ġfil my
Ġak Ã©ho
Ġpo sto
Ġpri stup
Ġple ti
Ġ7 6
ĠR ob
ĠH it
Ġspra vil
Ġdop ÄºÅĪa
Ġd ne
ĠveÄ¾ vy
zd vi
Ġsho w
Ġeu roz
MÃ¡ te
z ovala
Ġkam en
ĠzÃ¡ch ran
Ġmen iÅ¥
Ġse ve
ĠC H
h ÃŃ
ĠkrÃ¡ Ä¾
ĠvzdelÃ¡ va
Ġ4 9
8 4
pe z
lo st
D Ã´vod
Ä ĩ
Ġom y
Ġobsah om
ĠpohÃ¡ ra
hnut Ã©
Ġs Ã³
ta ri
Ġr om
Poz ri
Å¾ nÃ½
Ġponu ka
st ej
Å¡ tÃ¡
Ġ20 20
ĠsystÃ© me
omÃŃ r
Ġte pel
P R
Ġpohy bu
Ġre Å¥az
Ġod seku
stÃºp enie
Ġza m
ar ch
ĠÄ½ ud
ta h
U J
Ġk ym
s sen
Ġg ym
Ġbole sÅ¥
ĠZ d
Ġpo ro
ĠA NO
ĠnÃ¡ rast
Ġdlh oro
ĠB ie
Ġvi zu
Ġinf ra
ĠT our
Ġza drÅ¾
Ġk as
Ġpod niku
Ġprov in
Ġoko lia
Ġsvet la
nost iam
ĠP ie
do x
Ġpod pora
Ġin ÃŃ
l s
tov Ãº
Ġte ore
Ġfung ovaÅ¥
ĠponÃºka jÃº
Ġves mÃŃ
Ġnesk oro
Niektor ÃŃ
L o
f fe
Ġfinan Äįnej
ĠÃº sil
ĠMinister stva
m am
pl n
Ġfor my
Ġjazy ku
Ġvply vom
Ġin fek
ĠO r
Ġpo pred
Ġje stli
Nas ledu
Ġi muni
Å¡ta rt
Ġne Å¡Å¥a
Ġvzde la
Jed in
z di
Ġvzdu ch
ĠnÃ¡rod nej
D A
ĠÄįia s
Ġodtia Ä¾
ĠprÃŃspe v
DÃº fam
ĠPre Å¡
Ġw enn
Cel Ã½
Ġven uje
lÃ¡ cii
Ġak om
Ġved iet
vÄĽ t
ĠdÄĽ ti
ĠzdÃ´raz nil
ĠÅ¡tÃ¡ toch
Ġdo py
Y ou
Ġnes chop
Ġj ÃŃ
ĠzabezpeÄį enie
Ġob ed
Ġli d
Ġsob ot
Ã¡l ni
en ne
Ġk vap
ĠM E
Ġpre Å¾i
ĠpÃ´sob il
Ġpoz er
Ġ199 9
ĠmlÃ¡de Å¾
ov ÃŃ
dÄĽ t
j ad
Ġkla m
Ġco ok
ĠÄıal Å¡ej
Ġpredpo kladÃ¡
ĠprÃŃ s
Ġnedosta tok
Ġm er
Ġ19 0
ĠÄĮe ch
Å¡e m
ov ci
ĠmoÅ¾ nÃ¡
Ġc lo
Ġs eni
Ġdisku sie
ĠcÃŃ ti
Ã³ri ÃŃ
Ġme zi
Ġmili Ã³n
Ġudr Å¾aÅ¥
Ġodov zd
ĠC el
Ġnemo hli
Ġrozlo hu
Äį ina
Ġba b
Ġza stre
Ġob jekt
Ġmest Ã¡ch
I P
ĠJ as
ja ci
Ġre por
tÃŃv nym
stÃºpi la
d or
pro duk
Ġnejak Ã¡
ĠZuz ana
ĠsÃº stav
ĠÃº spor
bur g
p ne
Ġvyh rÃ¡
nick Ã½ch
P ar
Ġi lu
Ġtr valo
ĠstrÃ¡ ca
Ġn Ãºd
Poved al
Ġnemo Å¾no
Å¾i t
ĠminÃº ty
Å¡ enia
Ġnajne skÃ´r
ĠC y
Ġod d
ĠvyÅ¡ Å¡ÃŃ
Ġa na
Z na
ĠK li
ĠYor k
Ġpoko Å¾ku
ĠU N
u ri
Ġide Ã¡lne
ĠD et
ĠvÃ½ konom
Ġuved enÃ½ch
Ġte Å¡ÃŃ
Ġtake to
ĠO s
Ġfar bu
ĠbÃ¡ b
Ã¡ la
Naj vyÅ¡Å¡ÃŃ
ciÃ¡l na
Ġb ro
ĠstrÃ¡ nok
Äİ akujem
Ġtal ent
Ġskon ÄįÃŃ
hla sÃŃm
van jeli
x x
Ġby li
Ġoko lie
ĠrieÅ¡ enÃŃ
j ÃŃm
Ã´ jde
ĠveÄ¾ kom
ĠTo to
ĠvÅ¡ im
ĠÄĮa pu
ĠSlovak ia
Ġde mok
Ġseptem bri
Ġt rom
ta jte
tu ri
Ġoble Äįenie
li kt
p lÃ¡
ĠbudÃº ceho
Ġspoj enie
Ġhy gi
ĠpÃ¡ cha
Ġtvr do
ĠD Ã¡
Ġzastav iÅ¥
ĠukÃ¡ zal
ĠfrancÃºz ska
ni kom
Na opak
Bo hu
Ġmlad Ã½
Äįi t
Ġka meÅĪ
Vie Å¡
Ġzbor u
Ġne vin
ĠÄįlen skÃ½ch
zie b
Ġtu re
Ġza mys
Ġha p
Ġodmie tol
Ġkonferen cii
bez peÄį
Ġvytvor enie
ĠN ad
Ġzd vi
Ġpri daÅ¥
lia da
ĠT ru
Ġodbor nÃŃkov
Ġcest Ã¡ch
ĠÅ¡por tu
logick Ã©
Ġm Ã³
Ã³ nom
Ġto le
Ġtra ja
Vie te
ĠÄįiasto Äįne
ĠÃºva hy
Ð¾ Ð
Ġskve lÃ½
ĠvyuÅ¾i tie
Ne za
Ġle ta
Ġ4 7
Ġpov z
Ġzak lad
Ġs enÃ¡
ĠM H
Ġpredstavi telia
desia t
Ġod ÃŃsÅ¥
M us
Ġpracov al
Ġf it
Ġatmosf Ã©ru
Ġvych ut
vo bod
Ġp Å¯
Ġpar kov
Ġzauj im
Ġc ak
ĠS p
ĠS L
Ġpoze raÅ¥
Ġgener Ã¡cie
Ġro ck
Ġd am
ĠkrÃŃ zy
3 6
Ġza c
5 5
Ġstre tol
Vz hÄ¾adom
pra vou
chÃ¡d zal
i re
Ġto lko
v nych
g on
ĠÃº st
Ġradi k
Ġko lÃ¡
ĠP al
Ġu verej
N i
in da
ĠbeÅ¾ nÃ©
ÅĻ eb
D r
M A
Ġsa mov
ĠD aniel
ĠzÃ¡ ber
Ġtvor bu
Å¡ al
r ku
Ġvy nÃ¡
Ġc la
Ġf le
ĠnÃ¡vÅ¡tev nÃŃkov
Ġokam Å¾i
Ġa ud
Ġsprac ovanie
Ġfutbal ovej
Ġo slav
Å¡i ch
Ã¡n ky
Ġund er
Ġs on
Ġkup ujÃºci
ka jÃº
Ġzisti li
nu lo
Ġmen u
tÃŃ n
Ġla m
Ġza Å¥aÅ¾
Ġzak Ã¡z
Ġjedin Ã©
nÃŃ ho
Ġcie le
is h
Ġpre be
mysle l
ĠI N
Ġpo znamen
Ġtele fo
Ġu Äįeb
Ġteplo ty
ĠvÃ½ch ode
Ġh av
ĠB r
ĠobyvateÄ¾ stva
Ġre Äį
ĠprÃŃ stroj
ĠvÃ½ber u
ĠÄįo koÄ¾vek
ĠEurÃ³p skeho
Ġve ciach
gi i
Ġo ther
Ġsu m
Ġmest skej
B RATISLAVA
ovacie ho
ĠrÃ´z nymi
ĠO K
Ġg ar
Ġnasledu jÃºcich
ĠÅ¡ie stich
si ÃŃ
Å¡e obec
Ġko ord
rÃ¡ ti
Ġkontak tu
Ġskup in
Ġpot la
ĠorgÃ¡ ny
ket y
Poz rite
ĠprÃŃjem nÃ©
Ġvyso kÃ¡
ĠzÃ¡ zna
ĠF ra
Ġne ro
Ġg re
z den
Ġda nej
Ġvi dim
Ġtvr dia
Ġe viden
ĠD ar
Ne po
Äį iny
Ġned ovo
Ġst rÃ¡v
Ġpor tÃ¡
Z DS
Ġu ver
v ent
p lej
Ġst Ã¡l
Ġrie Å¡i
z mom
ĠK am
Ġreali ty
b as
Ġza pad
in Å¡tal
ĠznÃ¡ ma
Ġod stup
ĠJ ar
Ġz ber
t he
Ä¾a ch
ha la
sti ka
Ġinteli gen
k r
Ã¡ tu
zÃ¡ ciou
r ini
Ġk Åķ
ka la
Ġzmie r
Ġza to
ĠsystÃ© my
Ġos ved
ĠB udape
Ġne rozumie
Ġm enÃ¡
Ġnez as
Ġte ku
Ġpozo stÃ¡va
Å¡ nÃ½
ĠnemusÃŃ te
Ġvy na
ĠzÃ¡ pal
f en
Ġmet ropo
Ġjen om
Å¡tru ktÃº
ne cha
Ġsymbo li
Ġjin ak
Ġma mi
z la
Ġzodpoved nosti
Ġdie se
Ġbude s
Ġmo ji
ĠzabezpeÄį uje
Ġdu e
Ġmar ci
Ġpra x
zky ch
Ġdipl om
ĠmedzinÃ¡rod nej
ĠumoÅ¾ nÃŃ
Ġex ter
Ġpripom ien
le te
Ġso ll
19 9
Ne skÃ´r
Ġkur va
Ġmys lieÅ¥
Ġma xi
Ġpotreb ovaÅ¥
ĠnajvÃ¤Äį Å¡ÃŃm
Ġs ur
Ġbon us
Na koniec
Ġk ys
Ġnede Ä¾
201 5
cov Ã½ch
Ġosla b
Ġvyber ie
Ġsk rÃ¡t
ĠE P
t enÃ©
Ġrepre zenta
Ġpla ty
po ch
Ġobsah ujÃº
Pre sne
kÃ¡ ri
bu l
O ba
ĠsÃº stre
Ġodkaz y
c Å¯
J en
Ġsud cov
Ġrezer vÃ¡
Ġsk rat
Ġv Äıa
Ġti p
Ġvy t
Ġm ob
Ġnav zÃ¡jom
ĠvÃ¤Äį Å¡ine
men ej
Ġzmlu va
Ġ Å¤
Ġprek ro
Ġw Ã¤
Ġzod poveda
Ġwa y
ĠI gor
l ho
u re
Ġme ga
Ġza plat
ick Ã½m
Ġpo jde
Ġnemo ze
Ġopatr enÃŃ
Ġpostav y
Ġne tra
Ġstra teg
Ġbom b
Å¡ o
Ġi Å¡li
Ġnee xist
Ġvla j
ĠHD P
T ra
Ġdiva del
lu e
Ġpre prav
Ġpria my
Ġzamest na
ĠC O
ĠbÃ¡ s
ck Ã½mi
ĠA dam
Ġna ch
ĠvykonÃ¡ vaÅ¥
Ġhist Ã³rie
and ar
go g
Ġchod ÃŃ
Ġnau ÄįiÅ¥
Ġkandi d
ĠBe z
Ġvyd anie
ĠV ys
Ġpostav enie
pÃŃ na
Ġhvie zd
ĠÄĮesko slovensk
ĠGa b
Ġz organi
wa re
k ne
Ġh and
Ġtex tom
Ġklik nite
Ġbaz Ã©
ti g
lÃŃ ka
Ġver ziu
Ġkomp li
Ġna Å¡la
Ġre z
Ġpriestor e
Ġvla sti
ĠÄįlÃ¡n ky
C O
Ġfar ieb
Ġma tky
Å¡ enÃ©
Ġsk ri
Ġab solu
Ġpr u
ĠzÃ¡Å¾i tok
ĠvÃ½ lu
Ġhra li
k in
ĠtvÃ¡ ri
rÃ¡ ch
Ġal le
ĠSM ER
V last
ke Äı
Ġpov er
u ra
ob y
Ġvi rtu
ĠsÃºÄįas Å¥
sti tu
Ġzauj ima
Ġcel kovej
Ġdovolen ku
ĠL and
A merick
Ġstre tli
Ġfir me
Ġvyze raÅ¥
Å¡ par
men o
Ġdo es
Ġvysok Ã½ch
for e
Ġsi la
ĠL an
ist an
Ã³ mov
ov cov
Ġsie ti
ĠkrÃ¡s ny
Ġst ov
ch Ã½
Ġdo zor
Ġply n
Ġsk Ã³
Ġsyste m
p anie
Ġg ot
g nosti
ova teÄ¾a
Ġto o
Ġdoko py
Ġvozid lo
Ġob u
D as
ĠE S
Ġa gain
Ġnep la
Ġvytvor ili
Ġos ad
razi li
Ġwh ich
ve ra
ĠÅ¾ en
el d
ĠÄįe skej
ĠEurÃ³p ska
Ġkapi tali
S pom
ta ch
ĠtelevÃŃ zie
Ġza hr
Ġvie s
Ġz p
Ġtvor be
Ġfestival u
ĠmedzinÃ¡rod nÃ½ch
Ġroz k
Ġk lad
ĠL ED
z z
ĠzvÃ¤ zu
ĠzaÄį nÃº
Å¾a lo
Ġte pla
ĠprÃŃro de
Ġjanu Ã¡ri
Ġ5 6
D ru
Ġzisti l
Ġpriprav enÃ©
pl Ã½va
Ġnorm alne
Ġja zdy
sk et
Ġvi ce
ĠmateriÃ¡l y
Ġg an
Ġzlep Å¡enie
Ġz rovna
K edy
M ala
Ġpri vÃŃ
Ġdo stat
Äįka Å¥
ĠnavÅ¡tÃŃ viÅ¥
Jed na
P Ã´vod
Ġ5 1
Ġstaro sti
Ġslovensk u
ĠprÃŃspe vku
Ġde s
Pre zident
ĠF ar
Ġ6 1
Ġ5 3
nia ch
Ġod er
ĠsÃŃ dli
Ġju h
Ġkonz ul
Ġst rÃ¡Å¾
ni kÃ¡
Ġslovensk om
ĠW al
Ġskon ÄįenÃŃ
Ġje seÅĪ
ensk Ã©
Ġlo ok
Ġsku sen
h ly
zi te
ĠSlov an
ĠFrancÃºz sku
Ġfrek ven
Ġp sov
ĠdÃ´ raz
g ur
ĠvÃ½ hÄ¾ad
ĠMo ra
Ġplo chy
ĠnÃ¡v rat
se re
ĠuÄįi teÄ¾ov
Ġbe i
en ku
Ġpred a
Ġsti mu
ĠA T
Ġpok ro
Ġsp ro
Ġnejak u
ne viem
Ġsez Ã³nu
ran ti
z Ãº
Ġth en
Ġmoz gu
Ġne kone
Ġnevyhnut nÃ©
Ġz lÃ½
et u
Ġpoci ty
ĠÃºtoÄį nÃŃk
Ġmen Å¡ÃŃ
Ġoko li
ra du
ĠH en
z do
Na po
ĠpouÅ¾ÃŃ vanie
ĠprÃŃ kaz
O ni
Ġman u
ĠvyskÃº Å¡aÅ¥
Ġin Å¡pe
ĠmÃ¡ ji
Ġnez v
ĠtÃ½mi to
ĠmnoÅ¾ stva
Ġpodstat ne
Ġap art
ĠvÃ½ cvi
Ġangli Äį
Ġf urt
enia ch
N uÅ¾
i sta
ĠHo land
Ġpocho piÅ¥
ĠtÃº Å¾
Ġvy ku
Ġhla sy
ĠodstrÃ¡ niÅ¥
ĠvyhlÃ¡s enÃŃ
Ġ5 2
us h
me sa
Ġpok ial
Ġodpoved e
Ġhl b
Ġchlap ci
Ġmo ra
Ġzla to
ĠC ir
ĠdÃ´ very
ĠvÃ½ hody
Ġve se
Ġi Å¡iel
Å¾i vot
tok rÃ¡t
Ġpla tia
Ġded iÄį
nej Å¡iu
mo z
Ġmiest nych
ÃŃ d
Ġchla pec
Ġpotreb ujeme
Ġaku rat
Ġ5 7
Ġide me
ĠMicha el
ĠnegatÃŃ vne
Ġtak u
Ġob al
Ġved ela
ĠB ul
Ġc ant
Ġspre vÃ¡dza
Ġmod lit
Ġnep oved
Ġzi me
Ġosob e
Ne me
Ġc y
Ġozna Äįil
N ovÃ½
Ġdo ne
st anÃº
Ġh nutia
Ġ9 5
Ġ Ãį
oro Äįne
Ġka p
Ġtakej to
ta rÃŃ
Ġspra vi
gn Ã³
Äįe ky
Ġlo de
Ġvoj na
Ġne ut
ĠÄıal Å¡ia
Ġochra na
Ġobrov skÃ©
mÃ¡ n
tÃº ry
Ġprac ujÃº
Mich al
Ġtvor by
Ã¡n ku
Ġspo treb
ĠskÃº s
pu stÃŃ
Ġpre jde
ĠO by
j an
Ġzo staÅ¥
Ġjed la
Ġpaci ent
Ġzby toÄį
ĠE r
Ġhlav nÄĽ
it Ã©
Ġka zde
ĠmyslÃŃ Å¡
Ġdostane te
Ġobchod nÃ©
lov al
Ġchorob y
Ġum enie
Ġnov iny
Ġsta tu
ka s
Ġsemi finÃ¡le
Ġd ych
1 00
Ġpo polud
ĠakÃ© koÄ¾vek
Tak tieÅ¾
Ġpat ri
b ÄĽ
Ġnaj star
ĠNit ra
ĠnÃ¡vÅ¡te vu
Ġpra chy
ba va
Ġfir mu
H od
Ġtrium f
V D
201 6
Ġi hneÄı
Ġpriesku m
vie dli
ot h
ch ou
Ġnapl no
ĠpoÄįas ie
enÃº Å¥
Äİ alej
ĠpÃ´ de
ĠMaÄıar sku
M ne
Ġnemu sia
Ġprogra my
i ru
Ġkompet en
Ġb raÅ¥
ro id
Ġinfra Å¡truktÃº
ĠskÃºseno stÃŃ
ĠmÃ¤ so
Ġpropa gan
Ġpodpor iÅ¥
U z
Ġmo tiv
Ġsp Ã¡ch
ĠpÃ´ vodu
be hy
ĠÄıal Å¡om
ĠM A
Ġ8 5
rÃŃ k
Ġpol Äįas
b lo
man n
ĠeurÃ³p skej
ĠÄĮ ier
Ġju ni
ĠÄįlove ku
Ġz lÃº
ĠSpi Å¡
Ġneu ro
Ġod poÄį
Ġk lud
b ak
ĠzdruÅ¾ enia
Ġt k
Ġ18 0
Ġve cer
Ġpo lie
K Y
Ġod chod
Ġre spek
ĠÄįaka jÃº
Ġfor ma
ĠA S
Ġalkoho lu
ĠFranti Å¡ek
Pou Å¾ÃŃ
Ġstup ÅĪov
ve Äı
nÃ¡ m
Ġu ÄįiÅ¥
Ġp ies
Ġra stie
Ġz ria
Å¾i lo
NÃ¡sled ne
KaÅ¾ dÃ¡
k m
pri mne
lie t
Äįia tku
Ġneskor Å¡ÃŃch
Ġturna ja
Ġkor ek
Ġne skutoÄį
Ġvysvet liÅ¥
ĠR ed
Äį el
ĠÅ¡tÃºdi um
mi r
ja li
nick Ã¡
l Å¾
ĠprÃ¡ vne
Ġre Äįi
ĠT h
Ġved y
ĠT al
Ġdospe lÃ½ch
Ġuspor iad
ĠvyuÅ¾ÃŃ vajÃº
ĠznÃ¡my ch
Ġvel ky
Ġvol by
C i
Ġu sil
c am
Ġvyjad renia
Ġnem aju
Ġstej nÄĽ
ĠkancelÃ¡ rie
Ġne sti
Ã §
ĠzÃ¡uj me
tak ze
ĠdievÄįat Ã¡
Ġako si
Ġprete kov
Na Å¡a
Ġpra xe
Ġne ce
ĠÅ½ e
ĠP el
Ġv or
Ġokol nostÃŃ
Ġdosia hla
Ġpod aÅ¥
j anie
ca li
Ġposky tne
l ka
Ġja sky
Ġdosia hli
Ã½ch od
Ġne Äįak
Ġkapi to
My sle
ÅĪ o
Ġve ter
rom is
Ã¡r ne
Ġgra fi
Ġdob rod
t enÃ½
Ġvy Å¾ia
Ġt ried
ent ÃŃ
ĠÅ¾ up
ĠvÃ½stav by
e ur
Ġpar k
Ġne leg
Ġspu sti
H ne
cu s
Ġvyjad riÅ¥
Äį kÃ¡ch
Ġsamo tnÃ½
Ġ5 8
Ġmysle la
ri ty
d ÅĪ
Ġza ist
Ġpriprav uje
g res
t ny
Ġv Äįe
Ġpri mi
Ġsamostat ne
ĠarmÃ¡ da
Ġslov en
Ġrekla ma
Ġkon zu
Ġke ine
Ġzdravot nÃ©
Ġdecem bri
Ġoku lia
Ġob je
Ġodi Å¡iel
ov er
Ġnes pra
ĠJo se
ber ie
Ġpomo hol
Mus ÃŃm
Ġpoved anÃ©
Ġi P
ĠÅ¡ et
ĠsÃº stred
nick Ã½
Ë ĩ
Ġako ze
Ġdohod li
ho p
Ġsto le
Ġzem ÄĽ
Ġprete ky
Ġweb ovej
Ġbe cause
Ġdu chu
ka mu
p rie
Ã¡va m
ĠK ub
Ġcount ry
ko ny
en ut
Ġtran sparent
Ġkvali te
ĠnajbliÅ¾ Å¡ÃŃch
Ġd akujem
I m
v aniu
ĠkrÃŃ Å¾
ĠÅ¡at y
ta s
Ġobjav il
ĠchrÃ¡ ni
Ġkandi dat
ch no
ĠSta r
ĠnÃ¡ poj
ĠÄįÃŃ ta
Ġz rÃ¡Å¾
Ġmigran tov
Ġneva dÃŃ
ĠrozprÃ¡ vaÅ¥
Ġnie kam
Ġlieta dla
pa rÃ¡
Ġdo po
ĠV ik
se Ä¾
x t
Ġarchite ktÃº
Ġmode ly
zi j
Ġpred vo
MusÃŃ me
z ar
Ġpopla tok
m ani
ĠS par
ĠÅłtef an
ĠsluÅ¾ ba
tick om
D u
Ã¡l nÄĽ
ĠponÃºka me
Ġpr vy
ovÃ© mu
Ġdom y
N ov
ĠnÃ¡ro ÄįnÃ©
Ġpoist enie
ĠchÃ½ba Å¥
Po stup
st on
ĠYor ku
ĠZ la
Ġsna Å¾il
ĠÅ¡ o
ĠH lav
Ġr Ã©
Ġtla ku
kÃ¡ rov
Ġblo gu
ĠÄ¾ avi
e ro
ĠzaÄįÃŃna jÃº
Ġodo sla
Ġo Äįami
ro Å¡
vÃ¡ m
Ġch ari
ĠdÃ´chod ku
ĠzÃ¡vis ÃŃ
Ġnesta lo
Ġvy vin
ĠMÃ¡ ria
ĠF u
Ġpr Ãºd
Ġkam o
Ġad res
Po lÃŃcia
Ġpracov nej
ĠvÃ½ Å¾i
ĠnÃ¡vr hy
Ġpolicaj tov
te ho
Ġla h
ĠorganizÃ¡ ciÃŃ
ĠÃºrov ne
ĠÅ¡por t
Äįia ch
me m
Ġtex tu
lo hy
Ġdob ra
Ġpre kona
? ,
ĠÅł i
Ġra ÅĪaj
ko sti
Pr vÃ©
ly n
vÃ¡ ra
Ġkar tu
Ġvra Å¾dy
Ġli ve
c ova
ĠprÃŃ buz
Ġnep om
ĠNit re
spe kt
Ġu spe
Ġprie z
dob y
Ġpom a
4 8
Ġhovor ÃŃm
mi li
ma tickÃ©
ĠdÃ´leÅ¾i tÃ½
Ġpopu lÃ¡r
ĠchrÃ¡ niÅ¥
ĠMinister stvo
Ġme to
ĠprÃŃ znak
Ġnebude te
cov Ã½
3 2
Ġnovem bri
ĠAn na
Ġko Å¾e
Ġchod ia
ĠrozpoÄį et
Ġuro bila
Ġstar Å¡ÃŃ
M an
Ġmode lov
Ġc ould
ĠPav el
ĠP ale
Ġpo ky
v ÃŃm
Ġpla ti
Ġm lu
ri ka
Äį ene
ĠveÄ¾k Ã©ho
ĠotÃ¡z ok
Ġrezor tu
Ġprirodz ene
Ġmi x
ĠÅ½ i
Ġop tim
ĠkoalÃŃ cie
ĠH al
Ġd ajte
ensk ej
te t
Ġpre skÃº
Ġpolovi ca
PonÃºka me
logi cky
Ġdovo liÅ¥
ick om
Ġspis ovateÄ¾
k Å¯
Ġmu sim
Å¾ nosÅ¥
Ġko l
ĠO t
C I
Ġdeparte mente
ĠBla ck
Ġrozhod nutÃŃ
klad ne
rati on
si lo
Ġod hod
Å¡t an
nÃ¡ sÅ¥
ĠO pen
Ġa soci
Ġsne h
Ġdr Å¾aÅ¥
Ġspe v
s chop
Ġhum ani
ĠoÄįakÃ¡ vania
Ġok ru
Ġisto tu
Ġmode lu
Ġmi k
Ġpovz bud
la du
Ġs ra
Ġregist ra
re di
Åł t
ĠT or
Ġuli ce
Ġvybra li
Ġpod ne
ĠP ek
Ġnaj m
ĠChor vÃ¡t
Ġgener Ã¡lny
pi lo
Mo ja
Ġko lie
Ġvie dol
ĠÅ¾ia ci
ĠS oro
Ġefek tÃŃvne
Ġpodie Ä¾a
ĠÅ¡tÃ¡t ny
Ġdre vo
Ġnoh avi
ÃŃ sk
ĠA nge
Ġpredstavi teÄ¾ov
Ġsna Å¾iÅ¥
Ġpomo hli
Ġrela tÃŃvne
ĠvÃ½Å¡ ku
Ġved Ä¾aj
Ġhrani cu
K Ãº
m t
to b
rÃ¡l ne
ĠUni verzi
ia na
Ġmedzi ro
ĠÅ¡p in
Äį Ã¡
Ġza tk
D an
Ġmo zu
Ġle Å¾ÃŃ
Ġinform ovaÅ¥
ĠR ady
Ġu c
Ġin ci
ĠvÃ½rob cov
ĠvÃ½ poÄį
Ġmili on
O T
Ġdo pravu
pa la
Ġmiest om
Ġstrie bor
k ri
V lÃ¡da
ĠÅ¡t raj
ĠvÃ½ bere
Ġne Äį
ĠA li
Ġl t
B an
sk Ã¡ch
Å¾ ad
C E
Ġkon Ã¡
Ġnebude me
U P
ĠC ol
Ġreprezent an
jÃºci mi
ĠO f
Ġp enÃŃ
Ġty ka
Ġpre feren
P an
Ġnema lo
Ġst Ã´l
ÅĻ it
Ġal s
ĠpÃ´sob ia
in te
znÃ¡ mej
Ġo tro
ra tu
ĠprÃŃ behu
hla sim
Ġne kom
Ġco de
ĠvÃ½ro be
ĠvyhlÃ¡ senie
Ġvysvet lil
c nost
Ġpokoj ne
Ġasi sten
U N
Ġvy tla
Ġk Ã´
Ġ8 9
ĠvÅ¡ech ny
Ġnez mysel
Ġpre Å¡iel
ĠJa roslav
Ġdov tedy
AA AA
Ġ6 6
r h
Ġso l
A no
Ġzdra vÃŃ
ĠprÃŃ prave
Ġo tÃ¡
ĠKot leba
Ã¡ na
Ġko Å¡i
Ġtak Ãºto
ĠJak ub
Ġkli mati
me t
ĠdÄĽ lat
ob chod
Ġdu fam
Ġre al
Ġroz po
Ġp s
Å¡i t
Ġun s
Ġpo chod
ĠpouÅ¾i tia
kol ko
Ġbe Å¾ne
zo g
Ġkus ov
lÃŃ ne
ha mi
ĠÄįast ejÅ¡ie
Ġzare gist
Au tor
mi Ã©r
ta in
ĠPoÄ¾ sku
Ġlin k
Ġri sk
Ġpre ci
ÅĪ ujem
d ni
ĠurÄįi tÃ©
Ġaka dÃ©
ĠVys ok
ĠÅ¡tÃ¡ tne
Ġvid no
re v
ĠG ru
pe s
Ak Ã©
Ġje sÅ¥
Ġvlast nÃ½m
rov anÃ½
ĠÄįe sko
Ġkr ku
ĠvÃŃ na
Ġsvie ti
ĠnÃ¡ sko
Ġmi mov
D Ã´leÅ¾i
ĠS im
Ġdosta lo
Ġw hi
Ġpov e
ÄĮ ÃŃm
z kej
Ġoby vatelia
bi o
Ġob id
Ġde fi
ĠvoÄ¾ nÃ½
Ġpr eni
I t
Ġpriesku mu
Ġde kla
Ġzop ak
D R
ĠUni ted
s Ã¡
Ġnej sou
d il
Ġtro sku
M I
Ġz hod
Ġdiva dlo
Ġsved om
ĠzÃ¡uj my
ĠnesÃº hla
Ġc u
Ġge o
st la
Ġte l
Ġspokoj nÃ½
ĠmÃ© dia
Ġa rab
Ġru kou
ĠPet r
ĠchvÃŃ le
Ġw in
zi ÃŃ
to Å¾e
Ġcerti fikÃ¡
Ġst eny
O h
Naj viac
ĠprÃ¡ cou
Ġnaj a
Ġvy zdvi
Ġnep ov
ca st
ba ch
nejÅ¡ie ho
ĠMari Ã¡n
ĠBar celo
Ġarchi tek
Ġwie der
Ġd lou
Z e
Å¡ tÃŃv
ĠÃ¼ ber
Ġst Äº
Ġstre l
ĠEuro pe
w al
ĠBla ha
Ġne vÃ½
ĠS V
Ġpre tr
Ġnaj ob
ĠÅ¡tud enti
Ġci vil
ke by
Ġvzni kÃ¡
f Ã³n
Ġbizni s
Ġvy sla
Ġru skej
Ġschop nÃŃ
Ġpripra vili
Ġstret nÃºÅ¥
Chce l
Ġsam Ã©
Ġza meria
Ġlud om
ĠW ar
3 7
kÃ¡ Å¾e
Ġk Ä¾ud
ĠvzdelÃ¡ vanie
ĠÄ¾ah Å¡ie
Ġreak cie
Ġnie Äįom
ĠB BC
va le
Ġje b
Ġhovor i
ovan ou
ÄĮ ÃŃ
Ġskla da
Ġhod nÄĽ
Ġby te
ĠÄįo ko
Ġim mer
Ġli mit
ĠZ u
Ġposte le
Ġv ul
Ġbie le
ĠRu mun
Ġodpad u
zv lÃ¡Å¡Å¥
ĠT ran
ĠP RO
Ġs vi
ĠUkraj ine
V eÄ¾a
Ġb ron
ĠinvestÃŃ cie
Ġroz lÃº
ĠhÄ¾ad Ã¡
Ġregi Ã³nu
Ġz ani
ensk Ã½
Ġobrov skÃ½
ĠT Ã¡
ĠroÄįnÃŃ ku
Ġzdra vÃ©
Ġza sp
w an
Ġpri vati
ĠjÃº ni
Ġnap lÃ¡n
Ġpracov nÃ©ho
Ġkonferen cie
H a
201 4
Ġhlbo ko
ĠgÃ³ ly
Ġdal si
ar u
Ġnie t
Ġo to
ĠtÃŃ to
Ġ9 9
T Ãºto
rie s
N am
cov Ã©
ĠÅ¡i ro
b ru
Ġroz sah
ova Äį
Ġpod Ã¡
Po kud
Ġpartne rov
ĠBor is
Ġpriz nal
ĠJa ck
nu tej
Ġnevie me
en osti
ĠWin dows
sku m
ĠsÃº pera
ĠV oj
ĠÃºlo hou
Ġri ght
ĠVÃ¡ c
m Ã½
j me
ru b
ra na
ĠD O
Ġre zi
pro du
K ri
ĠinformÃ¡ ciu
ĠdomÃ¡ ceho
Ġzi sku
po koj
Ġt ho
ĠM es
Ġvy dal
Ġnajlep sie
ro ÄįnÃ©
ĠnajniÅ¾ Å¡ÃŃ
Ġmoz ne
H A
Ġsu my
ÄĮa sto
ĠÅ¡ ia
Ġposled nÃº
Ġpoc ti
Ġi ra
Ġre spo
Ġko pec
lov Ã©ho
Ġh it
ĠMi cro
olÃ³ gie
Ġsed ad
Ġpolovi ce
Ġnaz Ã½va
Ġko stol
Ġmu ch
Ġdav no
ĠprÃŃ stav
Ġte Å¡iÅ¥
Ġdar ÃŃ
la la
ch at
i ter
Ġv s
ĠpomÃ¡ha jÃº
Ġnapad lo
Ġamerick Ã©
ĠpreÄįÃŃta Å¥
Ġr ÃŃm
Ġdr Å¾i
ĠtechnolÃ³gi ÃŃ
no t
Ġpl nej
ĠÄĮÃŃ ne
Ġzdra vÃ½
ĠÃº sta
ova r
len ej
ĠlekÃ¡ ra
Ġvo jaci
De ti
Ġprofes or
Ġkole ga
ĠnajvyÅ¡ Å¡ÃŃ
ĠV il
ĠDu naj
Ġi diot
eny ch
Ġsp rch
bo rat
I f
8 8
ĠE gy
ĠÄįe skÃ½ch
Ġnom in
ĠnehnuteÄ¾ nosti
Ġman dÃ¡
ĠPod Ä¾a
Ġ7 00
Ġpr uÅ¾
ĠÅ¡ko dli
Ġpon del
Ġiz be
ru ng
ĠÅ¾ia Ä¾
Ġsp at
ĠprÃŃrod nÃ©
Ġsobot ÅĪaj
ĠlekÃ¡ rov
Ġvzde lanie
Ġturi stov
Ġ0 9
Ġva zne
M aj
Ġpo cu
ĠkombinÃ¡ cii
Ġzby toÄįne
Ġnez o
Ġnap Ã¡
Ġhod ÃŃ
id ov
Ne mÃ¡
Podob ne
Ġdo prava
Ġpodob nÃ½
ĠS h
Ġtvor i
Ġde leg
ĠL et
Ġjednoduch Ã½
Ġ0 2
Ġvyrie Å¡iÅ¥
ovan Ã½mi
Ġpre lom
Ġak cii
Ġne chod
ĠspÃ´sob uje
Ġthe se
ĠpenÃŃ ze
ĠÃº pravy
Ġjed enÃ¡
y e
ĠprimÃ¡ tor
ĠvÃ½rob cu
Hla vne
Ġu rov
Ġktor u
Ġnov o
ĠÅ¡tÃº die
Å¡ to
Ġva Å¡om
b Ã¡n
Ġkra bi
Ġv nu
Ġs mo
e urÃ³p
Ġklu be
Ġstre de
ĠK Ãº
E urÃ³p
Ä ļ
ĠUni ver
Ġdis plej
201 3
B O
ĠpoloÅ¾ enÃ½
Ġstra ty
Ġtre Å¥om
0 9
ĠWil lia
ĠKo s
Ġpopla tky
Ġf al
bra l
ĠVa Å¡ej
Ġrele van
NÃ¡ Å¡
U M
Ġo li
ĠÅ¾ alo
Ġzmen il
ĠA rg
ĠbezpeÄįnost nÃ©
Ġbran kÃ¡r
Ä¾a va
Ġhum or
Ġtak ÃŃ
Ġoce Ä¾
0 5
Ġrekla my
ĠzvlÃ¡ Å¡Å¥
ĠinÅ¡titÃº cie
Ġpr il
Ġprinie sÅ¥
ĠtakÃ½m to
Ġli sty
Ġve zme
Ġmi g
Ġa stro
ĠVer ba
ĠoktÃ³ bri
Ġzab rÃ¡niÅ¥
le ty
Ġist ej
Ġotvor enÃ©
vÃŃ jaÅ¥
Ġurob ÃŃ
ĠII I
Hne Äı
S ku
T ro
ĠzÃ¡ siel
Ġpos Ã¡d
Ã½ n
Ġmedi cÃŃ
ĠP en
Ã¡l ky
Ġfunk cii
Ġpri nesie
Ġpria m
Ġzu by
Ġodo hral
Ġdo dala
Ġpracov nÃ½
ĠponÃºk nuÅ¥
Ġvoli Äį
Ġpoh Ã¡r
Ġobla stÃŃ
Ġtr vaÅ¥
Ġst la
Ġsu ma
Ġp ul
Å¾ ovat
Ġal so
Å¡ ina
Naj prv
4 9
Ġsed ÃŃ
Ġt ry
ĠrÃ½ch losti
Ġzjav ne
Ġvybav enie
ĠaprÃŃ li
ĠAn to
t kami
Ġvoli Äįi
Ġist Ã¡
Ġvoj nu
Ġza sah
Ġpam Ã¤Å¥
Ġdata bÃ¡
Ġs eda
tu Ã¡lne
ĠvÅ¡ech no
Ġstre s
ĠzvyÅ¡ ok
ĠodporÃºÄįa me
ovo Ä¾
w as
Å¡ uje
Ġkance lÃ¡r
ne mu
po zor
ĠPav la
Ġhla vi
ĠAu strÃ¡
g ment
Nasledu jÃºci
Ġmest om
ÄįÃŃ te
ĠÅ¡tÃ¡ tom
Ġrevo lu
ch i
ĠW i
il u
ĠÅĻ ek
Ġfar be
Ã© Ã©
Ġprie myslu
ĠvÃ½nim kou
ĠR od
f on
Ġzjed nodu
kÃ¡ zal
Ġkon tin
ĠchvÃŃ Ä¾
ĠzloÅ¾ ky
Ġuniver z
ĠnÃ¡vÅ¡te vy
E K
Ġchy stÃ¡
Ġdokument y
Ġpren aj
gi on
ba le
ĠpoÅ¾ia daÅ¥
F ir
pe ÅĪ
m p
Ġvzdialen osÅ¥
til l
L a
O rgani
ĠhrÃ¡ Äįom
Ġmaj ster
Ġfot ku
ĠmnoÅ¾ stvom
ĠBan skÃ¡
rie b
Ġzob ud
Ġu sad
ĠnovinÃ¡ rov
Ġmlie ko
Ġpredme tom
ĠvnÃº tro
k nite
Ġsp ek
Ver ÃŃm
ĠplÃ¡ ny
Ġvra cia
ĠÅ¡ a
ĠdomÃ¡ cej
Ġt at
ĠvÅ¡et kom
Ġos vie
Kdy Å¾
ĠK ur
ĠproblÃ© mu
Ġpom al
Ġkuchy n
Ġbohu Å¾iaÄ¾
A F
Ġnarod il
Ġnav Å¡tev
Ġzach rÃ¡
Ġsne hu
nov al
Ġpra ce
Ġvyho tov
den ÃŃm
Ġra no
ĠpoÅ¾iadav iek
Ġzamestnan ci
Ġs oviet
Ġdc Ã©ra
Å¾ nÃ½ch
Po k
Ġz ma
3 8
Ġbiel kov
Pro sÃŃm
ĠO DS
Ġtech ni
Ġdefini tÃŃvne
Ġh ar
n in
av ÃŃ
Slovensk Ã½
z ovanÃ½ch
Ġzbav iÅ¥
Ġma y
Ġle sk
Ġvyhra Å¥
ĠÄįist Ã½
lie k
Ġde pre
Ġplo d
Ġka me
ĠN Ã³r
ĠRu Å¾om
Ġma Ä¾
ĠsprÃŃ stup
Ġdlh Ã½
Ġh ome
Ġpra Å¾
S T
ĠprÃŃrod nÃ½ch
Ġpri s
Ġnarod en
ĠA merick
ma la
Ġvyhra li
men e
Äį ali
Ġpre klad
Ġch ala
Ġma st
ĠÃº prim
ĠK ry
ĠRÃ³ mov
ova cej
M om
R I
am o
Ġli mi
ro Äįnej
Ġwe be
Ġzbra ÅĪ
Ġna vi
li vÃ©
Ġma lej
ĠÃºÄį tu
Ġfebru Ã¡ri
Ġdosta toÄį
Ġaka demi
Ġpri padne
ad er
ober Ã¡
Ġtechnick Ã©
Ġneme ckej
Ġzdroj om
Ġo ka
Ġter Ã©
Ġhodno tenie
Ġver zie
Ġza bav
Ġelektr iny
ĠmusÃŃ Å¡
so ft
Ġpartne ra
Ġur Ã½ch
Ġkonf likt
Ġdvoj i
or t
ĠV ide
Ġper i
vÃŃ c
ĠViano ce
Ġfi rem
Ġh armo
Ġnasp Ã¤Å¥
Ġlin ky
Ġzlep Å¡iÅ¥
Ġv aj
4 4
ĠÃºto ky
ĠtÃ© me
ÅĻej mÄĽ
hod nÃ½
Ġ Å¥ah
Ġskla m
Ġo Äįkov
Ġpredstav ujÃº
Jo zef
Ġch vil
men ta
F o
ĠvÃŃ ce
Ġinterne tovej
J as
zi ou
ĠÅ¡tÃ½ le
ĠF ÃŃn
b rÃ¡
Ġvybra l
Ġodbor nej
Ġexperim ent
Ġci m
no prÃ¡v
ĠÅ¡ pat
vi del
ĠsÃºÅ¥a Å¾ia
Å¾ er
Ġne vÃŃ
ko liv
jde te
ky ne
Ġen vi
Ġpoko Å¾ky
ĠP ot
iru rg
Ġpovo lenie
DÃ´vod om
ber Ã¡
Ġ199 0
Ġdom ova
ĠMa c
Ġv Äįas
Ġf ran
tivi ty
Ġvytvor il
Ġrast lin
ĠÅ¡ vÃ©d
ĠsluÅ¾ ob
z ovanÃ¡
Ġhlav nom
nosÅ¥ ami
j al
ĠMa la
Ġpresved ÄįenÃ½
de le
spo dÃ¡
ĠÅ¾ il
Ġport Ã¡l
ĠpredÃ¡va jÃºci
Ġok ien
li i
Ġdesia tich
Ġproce se
ĠlyÅ¾ia r
Ġprie be
cie k
Ġob vod
rov e
Ġse stra
Ġtla Äįov
onal d
Ġpar ty
k re
Ġho teli
ur ch
ĠspÃ´sob iÅ¥
Ġlie kov
Ġpne u
ko hol
ske mu
Ġpoze mok
Ġuz nes
Ġzviera tÃ¡
Ġnejak Ã©ho
ĠkÃºp nej
ĠÄį inu
ĠI s
Ġformu lÃ¡
ÄįÃŃ tal
Ġin Å¾in
Ġostat nÃ½mi
Ġden nÃŃka
and ra
Pred po
Ġrobo t
ĠtÃ½ka jÃºce
Ġpoku tu
Ãº ra
ĠukÃ¡ zali
to lÃ³
Ġpria telia
Ġce lu
Ġkom pon
Ġob slu
ĠpÃ´ rod
Ġzapla tÃŃ
f ar
Ġnech cÃº
Ġak tiv
Ġzem ia
Ġsl nie
Ġminul om
6 5
Ġg ro
Å¡ ali
Ġmo zog
Ġv cera
ĠGe orge
lia r
Ġener gi
Ġf re
Ġre fle
ĠtrÃ©ning u
M ed
ĠdÃ¡ tum
ÅĪ ovali
ĠzÃ¡pas och
Ġmoz nost
Ġreprezent Ã¡cie
ĠzÃ¡stup ca
Ġkuchy ne
ĠC he
Å¡a jÃº
Ġh ova
Ġvz iaÅ¥
ĠT hom
Ġotvor iÅ¥
Ġz ve
Ġtam oj
ĠdÄºÅ¾ ka
b Ã¡m
ĠE va
Ġak cia
ĠAp ple
Ġpla tob
Ġdoho de
Ġpo stre
ri c
ĠdÃº fa
Ġne vo
Ġnov y
re r
Ġz Ä¾av
Ġako Å¾e
Ġv is
by stri
el t
Ġte Å¡ÃŃm
ĠÄįas y
! .
Ġadap tÃ©
Ġsto ji
Ġvyhov uje
Ġrozpor e
Ġdro gy
ĠÅ¡portov Ã©
Ġdo poru
Ġna hrad
Ġd ri
Ġm ud
Ġnajlep Å¡ÃŃm
Ã© m
ĠKri st
Ġtu ne
Ġdia gnosti
ĠzniÅ¾ uje
c ovaÅ¥
Ġnene ch
ĠB rit
Ġdver ÃŃ
ujÃº cej
Ġroz pad
Ġsve tel
Ġplat by
ĠzÃ¡ slu
Ġspu st
Ġadd ed
3 1
ĠuÅ¾ÃŃ vateÄ¾
ÃŃ r
Ġok nÃ¡
Ġfol k
ĠÃº nia
Ġprev z
mÃ½Å¡ Ä¾aÅ¥
li lo
Ġne vÃ¡
Ġvidie t
ĠbÃ½ vanie
Ġo znam
Ġc ar
Ġne men
Ġho dine
Ġp ana
ĠpouÅ¾i tÃ©
L I
Ġzmen ÃŃ
ĠvÃ½dav ky
ĠvÃ½stav bu
k rÃ©
Ġnep ro
Ġpora diÅ¥
ĠÄ½ u
Ġnepo chop
Ġna r
Ġplat for
ĠuteÄįen cov
Ġde l
rÃº b
ĠzaujÃŃmav Ã½
ĠmedzinÃ¡rod nÃ©
Ä¾Ãºb enej
Ġvy ma
ĠU n
Ġsvet ovÃ½ch
t nom
h na
stÃ© m
Ġvie d
Ġmom ente
prÃ¡ va
ĠrÃ½ch ly
Ġod dych
z ej
3 9
va tel
enÃ© mu
Ġlieta dlo
O K
ĠvÃ½rob ca
ĠslÃº Å¾iÅ¥
Ġprin ies
ĠpÅĻÃŃ pad
Ġpi lo
trov er
Ġspon zor
sia Ä¾
at Ã½
p ak
tÃº ra
Ġjedin Ã½m
Ġisla m
ĠÅ¾e lez
ni ciach
Ġ6 7
ÃŃ de
te p
ĠMat oviÄį
P la
M E
g Ã¡r
Ġsou d
Ġkor un
Ġposla Å¥
Ko ne
ĠsÃº de
Ġop ti
Ġsamo tnÃ©
Ġdo lu
a ne
Å¡e vi
Ġzozna me
leg rini
S vet
Ġpre stÃŃ
ĠMiku lÃ¡Å¡
Ġclove ka
ĠOk res
Ġna jÃº
Ġpred oÅ¡
Ġko st
Ġobe te
ĠBel gi
Ġvel ke
Ġnaz Ã½
Ġod ber
Ġrie sit
ĠH el
ĠW C
ĠÅ¡an ce
Ġne sie
sti ku
Ġe vanjeli
Ġstanov isko
Ġzna Äįka
Ġposla ne
Ġje mne
ĠextrÃ© mne
ÅĪ oval
Ġkro kom
sko bystri
Ġmag ne
ĠpÃ¡ peÅ¾
Ġu nav
ĠÃºÄįin ok
Ġvy Äįer
ĠÃºstav u
ĠFrancÃºz ska
ĠfrancÃºz sky
Ġt ÃŃme
Ġovo cie
raj te
Ġna je
Ġod ob
Ġak ci
Ġtrest nÃ©ho
Ġprie mere
Ġsp r
ĠoznÃ¡ menie
Ġdar Äįek
Mno hÃŃ
Ġvy jde
Ġstup ÅĪa
Ġo re
Ġz iadne
ĠÄįe skÃ©ho
da mi
Ġ199 7
Ġga ran
ĠHotel s
Ġbe st
Ġpripoj enie
Ġhovor ili
p ed
ĠpomÃ¡ha Å¥
Ġz al
Ġfunk ciÃŃ
ĠÅ¾ivo ÄįÃŃ
Ġk Ã¶n
ĠvÃ½ hrad
ĠZ A
Ġelekt rÃ¡
ĠFrancÃºz sko
Ġma ri
Ġda ÅĪov
Ġvozid lÃ¡
ĠÄĮ T
ĠÅ¡ est
ĠdÃ´ vody
ĠvÃ¤z enia
Ġstra til
Ġstra chu
Ġpou ze
Ġdov oz
lo ha
Ġzozna mu
Ġpodpred sed
Ġpartne rom
Ġudalo sÅ¥
Ġu va
ro slava
hra dy
Ġnom inÃ¡
Ġsp Ã¤
Äįa la
via z
ĠIn di
Ġjedno tka
Ġupo koj
0 1
TV S
ĠLondÃ½ ne
Ġvia cej
Od porÃº
Ġho stia
Ġdru hou
C D
V ide
Ġkomu nik
Ġfotografi ÃŃ
ĠoznÃ¡mi la
Ġpred platnÃ©
Ma jÃº
s z
ĠBritÃ¡ nii
r ovateÄ¾
ĠA no
ber te
me ho
bur gu
Ġdr Å¾ia
p enie
ĠumoÅ¾ ÅĪujÃº
E E
Ġob li
ĠprokurÃ¡ tor
Ġbru t
Ġnedo stane
ĠÃº zko
ĠzÃ¡ vi
ĠzvÃ½ Å¡il
di me
Ġkvali tnÃ½
Ġjaz de
ĠdÃ´leÅ¾i tÃ¡
ĠO P
Ġal les
ĠL es
Ġman y
ĠdÃ¡ tu
ĠJ ur
Ġw here
an ge
Ġroz li
Ġz ur
Å¾i m
Ġvie tor
Ġu my
Äį ul
v last
Ġhere c
Ġn Ãº
Ġho j
Ġpreh liada
O na
nÃŃ cky
Ġzmlu v
Ġner vy
Ġh no
ĠK at
tor e
Ġsied mi
Ġp sÃŃ
Ġpolitick Ã½
Ġba by
lep Å¡ÃŃ
ĠzÃ¡ k
vad saÅ¥
Ġla borat
Ġo stane
Ġle sa
Ġpredaj i
Ġch cu
ĠdÃ¡ ta
ĠÃºspe chu
Ne bude
Ġ9 00
ĠM it
ĠsÃºhla su
Ġod stav
f it
Ġbud ov
Ġru skÃ©ho
fi k
Ġnaj rÃ½ch
ĠnÃ¡ ra
ĠM est
A r
Ġd ÅĪom
Ġsig nÃ¡
teÄ¾ nÃ½ch
ĠM et
ĠI rÃ¡
Ġ5 9
ĠpoÄį te
Ġod tie
Ġfor um
Ġzd ie
Ġfoto a
ĠO kamu
Ġtu sim
ĠT H
Ġneme ckÃ½
ĠcÃŃ tim
Ġindividu Ã¡lne
ĠB M
as y
r enÃ©
ĠTrenÄįÃŃ n
ĠdÃ¡va jÃº
ba Å¥
ĠvÃ½bor ne
e ste
f unk
R od
ĠUkraj iny
Ġsna he
Ġposky tujÃº
kÃ¡ ra
ĠC la
Ġde zin
b ier
Ġpoduj atie
Ġk s
ĠrÃ¡ dio
ĠP on
at ch
Ġsu ver
Ġteplo ta
Ġang aÅ¾
sto p
Ãº k
T his
P omo
ri end
Ġmoti vÃ¡
Ġtakom to
A b
ĠprevÃ¡dz ku
end er
ĠGa Å¡par
Ġpoist enia
Ġhmot nosÅ¥
N et
lov Ãº
8 5
ĠT op
ĠS O
pÃŃ saÅ¥
Ġdiva dla
kov anÃ½
Ġpla n
Äİal Å¡ÃŃ
d va
z enÃŃ
ĠM ila
to graf
ĠA g
Ġc ase
ĠnÃ¡ stroje
ĠH i
Ġneved eli
Ġsva dob
Ġv daka
Ġdeparte mentu
Ġroz sud
Ġrast liny
ĠmetÃ³ dy
ĠpouÅ¾i tÃŃm
Ġrod inou
d Ãº
Ġspo znÃ¡
Ġdva dsia
pi ci
Ġteho ten
O fi
Ġnepo z
ĠsÃº boj
D Ã´
z ujem
C a
tÃº r
Ġt up
ĠnapÃŃs anÃ©
ho st
Ġkontak ty
Ġauto ra
Ġfa cebo
Ġnap ro
Ġroz p
lov iÄį
ĠpovaÅ¾ ujÃº
ĠParÃŃ Å¾i
m no
Ne mu
Ġza bil
ĠpÃ´ dy
ĠZem an
di um
Ġpre kon
r ovali
Ġcud zin
ro nt
ĠÄĮÃŃ ny
Pr vÃ¡
ĠH ra
U T
ĠsÃŃ dlom
po treb
Ġsna Å¾ili
E Z
k rat
Ġbe ing
Slovensk Ã¡
Ġvybav enÃ©
Ġto tal
Ġtvoje j
h ren
id er
Ġskon Äįili
ĠAmeri ke
ĠprÃŃpad y
P Ã¡
ĠT A
Ġprete koch
Ġprv kov
Tak Ã½
ĠslÃº Å¾ia
Ġdistri bÃº
ĠnÃ¡j du
Ġzi sÅ¥
T vr
Ġustanov enia
Ġvy lie
Ġspolu pracov
Ġda y
do sÅ¥
Ġpopu li
Ġoper Ã¡
ĠEv ro
N ovÃ©
ĠNe ch
ĠpÃ´sob iÅ¥
u ro
ma te
Ġn on
Ġinten zÃŃv
Ġse in
ĠzÃ¡uj mov
Ġye ars
ĠOby vateÄ¾stvo
Ġlo ng
Ġu zi
m as
ĠÃº seku
Ġfutbal ovÃ½
ĠdÃ´vod om
Ġkli enta
Äį enÃ½ch
Ġpeda gÃ³
Ġnejak a
ovÃ½ch od
ĠpozÃŃ cii
Ġchu ti
K vali
ĠkonÅ¡ta toval
Ġtva re
Ġvyrob enÃ½
Ġpozor nosti
Ġci s
Ġrie ky
S P
ÅĪ an
Ġkapi tÃ¡n
Ġdal sie
Ġstar Å¡ÃŃch
Ġrast lÃŃn
m l
vie dla
ĠI D
ĠL in
Ġvyso kou
Ġopak ovane
Ġvysok Ã½m
Ġme ra
Ġza stÃ¡
an ce
Ġumiest nenie
ĠlieÄį bu
Ġdie ta
Ġdis pon
ĠnÃ¡me stÃŃ
Åł Ã©f
Ġal kohol
po Ä¾
Ġdob rÃ½ch
ĠÅ¾ivo tom
Ġvide a
hl t
li ve
Ġpro fi
F or
Ġuspo koj
Ġreprezent ant
ĠIvan a
Ġriad enia
v ov
Ġjednot iek
dr en
Ġhov no
Ġwor k
Ġza cia
ne rg
Ġd Ã¡l
ĠPra hy
Ġmlie ka
Ġty zden
ĠM od
ĠvlÃ¡d ne
z am
ĠkrÃ¡t ke
ĠdÄĽ lÃ¡
Ġ199 6
Ġko lik
ĠFacebo oku
Ġdokument ov
Ġposte Ä¾
Ġsln ko
Ġpodpor ovaÅ¥
Z dÃ¡
Ġkraj in
Ġnaj sil
Ġto ale
ĠSlov Ã¡k
ĠzÃ¡kaz nÃŃkom
tul ujem
Ġpredvo leb
ĠD anie
Ġcelos vet
Ġpoho n
ĠJ en
ĠkaÅ¾d Ã½m
ĠvÃ½lu Äįne
Ġvzdialen osti
ĠreÅ¾is Ã©r
Ġkdy z
Ġmesa Äįne
O tÃ¡z
teÄ¾ nosÅ¥
ĠV Ã½chod
ĠVÃ¡Å¡ ho
Ġpoz rite
Å¡ÃŃ k
ĠoÄįakÃ¡va Å¥
ĠprÃŃspe vky
Ġd aleko
Ġmal Ã©ho
Ġ199 2
c ar
hr n
ĠpoisÅ¥ov ÅĪa
Ġne st
ĠMa x
Ġnepo zna
Po Å¡lite
Ġrobi la
Ð° Ð
Ġb lok
Ġb ilan
Ġpri ve
ck s
Ġ199 3
Ġv rati
ÄĮ lovek
ĠtisÃŃ ce
ov ka
Ġna ra
Ġkosto la
ĠS ed
Ġver y
f fer
ĠPrie vid
ia da
vo lu
nej si
Ġkan ad
ĠÅ¡ of
Ġzd r
ĠB razÃŃ
Ġpri dal
ĠrÃ¡ m
la k
Ġist om
ĠP ok
gre sÃŃ
Ġneved ela
Ġho land
ĠdneÅ¡ nÃ©ho
N ovÃ¡
w in
Ġno de
Ġhod inky
Ġaugu ste
Ġkape ly
K E
Ġu pev
ĠAf D
Ġekonomi ka
T omÃ¡Å¡
VÃ½ sledky
Ġtra gÃ©
lo Å¾ili
ĠsÃºvis ÃŃ
Jednodu cho
H Ä¾ad
ĠprÃŃsluÅ¡ nÃŃkov
Ġarch ÃŃ
Ġzabud ol
Ġpale stÃŃn
ĠH us
livo sti
Å¥ u
po s
ĠmedzinÃ¡rod nÃ©ho
Ġprinie sol
ĠprichÃ¡dza jÃº
ĠvidÃŃ me
Ġmal Ãº
Ġpren as
Ġd ak
Ġvy boj
ĠobÄį anom
ĠrozprÃ¡ va
ĠvÃ½sled ku
ĠL y
Ġtak ych
Ġpo to
Ġbud ove
Ġt et
r enÃŃm
ÃŁ ÃŁ
Na chÃ¡dza
Ġfa loÅ¡
Ġpocho pi
Ġpla tit
ĠprÃŃtom nosÅ¥
Ġnemo hla
ĠzaloÅ¾ enÃ¡
Ġdo daÅ¥
tra s
Ġdistri bu
Ġty zd
Ġmoder ni
Ġstra nou
ĠpÃŃs al
Ġto tali
Ġprie beh
Ġpsych ia
Ġnepria teÄ¾
Ġdobrod ruÅ¾
ĠlÃŃ der
ÄĮ len
ĠWor ld
ĠF re
n ene
Ġten den
rad il
ĠF ilip
Ġprost ÄĽ
Ġna poj
ĠD on
Ãº ce
Ġs ci
ĠprÃŃ behy
U nd
stick Ã½m
Ġdvom i
mÃ¡ r
ĠniekoÄ¾ kÃ½mi
C ÃŃ
O be
ĠpohÄ¾ad Ã¡
Ġdoho da
ĠpredchÃ¡dza jÃºcich
Ġje mu
Ġm enia
ĠÄįa ro
Ġ6 8
il m
ĠÄĮ ÃŃna
ĠrÃ¡ di
ĠU r
l uje
Ġdu el
Ġ199 5
ov ce
Ġa vi
ĠRakÃº sku
logick Ã½ch
Ġprisp ie
ĠlÃ¡ ske
Ġba sket
den Ã½ch
4 6
Ġup rostred
Ġosob nÃ½
p et
ent ne
Ġpubli kÃ¡
Ġako u
ran Å¾
ĠÅ½ili ne
ĠMat ovi
Ġs Ã¡
Ġth ing
ĠdÃ´ver u
Ġstred nÃ½ch
ĠZvo len
Ġdemok rati
ĠpamÃ¤ ti
Ġfra je
Ġaf ri
O J
hy b
pla tok
ĠÅ¡Å¥a stia
D en
Å¾ nÃ©ho
ze fa
Ġin ova
slan ci
Ġin ych
Ġne ve
ĠS tu
Ġkor y
Ġv ak
Ġefek tÃŃv
Ġskve le
ron ment
ĠtÃ½Å¾d ni
Ġzd an
ĠspoÄįÃŃ va
Ġo str
tor s
ĠpoÄįas ia
ur d
k va
ĠlÃ¡ ka
ko nec
Ġsna ha
Ġbo h
ĠFacebo ok
Ġna se
Ġbo x
Ġpoza stav
rav ÃŃm
pred nost
ĠzdruÅ¾ enie
Ġod po
Ġreag oval
Ġnespo koj
Ġz rÃ½ch
Mi mo
Ġporoz prÃ¡
Ġpr vot
mi Å¥
Ġnak rÃº
po dla
ĠE m
Ġkre atÃŃ
ĠÅ¡tÃºdi u
Ġce lou
h ovÃ¡
Ġu to
ĠobrÃ¡ zky
Ġstu peÅĪ
le ra
ĠnapÃŃ sala
ĠmÃ¡ j
nÄĽ jÅ¡ÃŃ
h len
Ġmesia ci
Ġpred Ã¡
Ġprav dy
Ġnastav iÅ¥
stick Ãº
ĠHar ry
tu Ä¾
Ġdi vÃŃ
H ra
h uje
Ġdlh Ãº
ĠV am
y y
Å¡ el
Ġoddelen ia
ĠG rÃ¼
ĠR om
Ġk atal
N I
Ġiz ba
ÅĻ ÃŃm
ĠDP A
V Ã¡
Ġci ze
ĠÄįlen a
ar iad
ja kou
Ġnepo znÃ¡
ÅĪ ovania
Ġktor ych
or ie
Ġnefung uje
ĠhlÃº po
Ġme stÃ¡
Ġzvo lili
ĠpoÄįÃº vaÅ¥
ky m
ĠPa u
Ġok na
i sku
ĠlekÃ¡ ri
Sam ot
Ġbla ho
u ni
Ġpodnik ania
Ġb ene
ck rÃ¡t
Ġfot ka
Ġdobr Ã½m
ĠV Åł
Ġdosia hne
ried ka
Ġzd ob
ko li
Ġhvie zdy
ĠkÃº pi
Ġvojensk ej
ĠV Y
c anie
ĠW est
ĠN ovÃ©
ĠskÃº Å¡ky
Ġvysoko Å¡kol
Ġm ori
Ġprij al
pis u
ĠB iel
Ġzmlu ve
Ġporov na
ĠÅ¾ivo ty
Ġse bav
ĠvyÅ¡et rova
Ġnesmie rne
ĠnemÃ´Å¾e me
Ġdas s
ĠN ovÃ½
Ġtento raz
ĠÅ¡tud ij
ĠvÃ½chod nej
ĠdÃ¡ vky
Ġhra nici
ĠkrÃ© m
Ġdi Ã©
Ġban da
rou gh
Ġp ena
Ġdvoj nÃ¡sob
ou n
ĠpÃ´vod nÃ©ho
Ġcvi Äįenia
Ġspoluprac ovaÅ¥
Ġb in
ujÃºce mu
ani m
ĠÄįist Ã©
x it
Me sto
Ġpr Å¯
Ġlikvi dÃ¡
Jed nÃ½m
ĠR TVS
Ã¡n k
ĠAmeri ky
Ġve Äįera
Ġnav Å¡tÃŃv
me c
mi u
Ġdemokra cia
Ġvyz val
Ġk ec
Ġne pra
Åł tÃ¡t
Ġnah rÃ¡v
Ġka mi
ĠTen to
ĠhrÃ¡ Äįa
ĠvÃ½ zna
Ġod hal
Ġorgani zmu
ĠodporÃºÄį am
Ã¡ nov
Ġcin tor
78 7
ich t
Ġgener Ã¡lneho
Ġautor ov
ĠUS B
Ġc ier
x id
Ġpotvrd enie
Ġpren o
Ġupozor nil
ĠV in
ba j
Ġhypo tÃ©
Ġ199 4
Nam iesto
Ġa zy
Ġza ro
Ġu d
te le
Ġpod pÃŃsal
Ġspo chyb
Ġpal Ã¡
ĠnovinÃ¡ r
ĠA na
m ana
Ġsta rej
Ġkalen dÃ¡
Ġproduk cie
ĠI P
ĠT ro
Ġpochop il
ĠÃºÅ¾as nÃ©
ĠM Åł
mys l
ob raziÅ¥
ĠMe sto
ĠÃºpl nÄĽ
Ġw hy
7 6
Ġsm Ãº
em ent
DD DD
Ġoper Ã¡cie
jÃºce mu
Ġam bÃŃ
ĠÅ¡tvrÅ¥ finÃ¡le
kla dajÃº
Ġdisku sia
ĠAmer ic
Ġpre chÃ¡d
Ġmil ujem
ĠBo Å¾ie
ĠÅ¡ ka
pÃ¤ tÃŃ
Ġbun ky
Ġobvyk le
bi lo
Ġex e
ve ta
Ġpe vne
ĠvyÅ¡ Å¡ia
Ġnepria zni
Ġzaobe raÅ¥
ĠÅ¡ vajÄįiar
ord s
Ġvy Å¡iel
Ġrovnak om
v rat
ĠÄį re
ĠP ak
Ġbezp rostred
Ġzo s
Ġkon cov
Ġsa id
mys lÃŃm
ĠsÃºbor y
Ġpri zna
ĠBo Å¾e
z lo
ĠFran k
Ġje be
Ġkup it
Ġzo stali
Ġob oznÃ¡
ĠIn terna
enÃ¡ ch
ĠzÃºÄįast nili
du jÃº
ĠL it
di k
Ġstre Ä¾
sla nec
Ġpos ed
Ġakej koÄ¾vek
ud ob
Ġparame tre
ja la
ĠotÃ¡z ke
bo ch
ĠvÃ½ let
ĠnÃ¡m or
ĠMiku lÃ¡
ĠA ni
Ġrekla mu
ĠÄįier ne
i sk
Ġposled nÃ©ho
ĠzÃŃska te
Ġbun iek
ĠvÃ½stav y
n eniu
Ġnech ali
Ġzob raÅ¥
Ġb ed
j du
Ġmil ov
G a
Ġza ned
Ġdom inan
Ġe kon
Ġspra vit
te st
Ġna ru
ĠtÃŃm ov
Ġb Ã¡nk
ĠvÃ½ro ba
Ġnep res
ĠKa tarÃŃ
tov om
ĠKo Å¡ÃŃ
Ġs till
Ġvykona Å¥
Ġroz be
k vali
ĠvedÃº ci
ĠMa y
Ġro p
Ġbez plat
Ġci ga
Ġrob ÃŃm
Ġhor iz
Ġpohyb uje
Ġfle xi
Ġoch ut
Ġkra sne
Ġben zÃŃ
Ġd Å¾
Ġvla k
Ġtvoj u
po tom
M S
Åł pe
Ġnesp rÃ¡
Ġs lep
ĠG or
Ġne tr
Ġdoz adu
ĠkandidÃ¡ ta
ĠBritÃ¡ nie
Ġpre pust
Ġs vin
ĠmanÅ¾el ka
Na ozaj
B uÄı
b s
Ġl Ã´Å¾
Ġpo pro
Ġzo stal
lov anÃ©
Ġko li
Ġter or
Ġ Ä¾a
rov Ã©ho
sto ch
B Ã½val
Ġneme ckÃ©ho
Ġved ci
Ġobvin enia
Ġpredstav ÃŃ
dÄĽ l
Ġi hr
Ġob vi
Ġrefor my
Ġza pÃŃs
ĠL ÃŃ
pis y
Ġpodob nÃ½ch
Ġoh lÃ¡
ĠvÃ½z vy
Ġk va
kov ania
pu l
Ġprie stran
ĠsÃºÄįas nÃ©ho
Pri tom
ĠzÃ¡kaz nÃŃka
Ġuni kÃ¡t
Ġdisku siu
ĠnÃ¡sled ky
Ġim ple
ĠtrÃ© n
K la
O ch
Ġrov novÃ¡
ĠA C
Ġole ja
ska mi
ĠdÃ´ jde
lov om
Ġde ve
Cel kovo
ĠL os
Ġdom in
Ġmin ut
Ġreag ovaÅ¥
ĠKu cia
ĠPoÄ¾ ska
pro ti
Ġextra li
ĠbezpeÄįnost nÃ½ch
Ġo Äį
Ġnaj de
ĠvytvÃ¡ raÅ¥
ovan a
lÃ¡ rne
Ġpot rieb
ste l
ĠvyhlÃ¡s enia
Ġsub jekt
g ani
ĠodstrÃ¡n enie
Ġobo ha
nan Ã½
ÃŃ cia
Ġdet skÃ©
Ġvyjad renie
c ak
sled kom
ĠurÄįi tÄĽ
ĠtabuÄ¾ ky
Å¾ uje
Ġstani ci
nej Å¡ou
ĠprevÃ¡dz kovateÄ¾
Ġru skÃ½
Ġs kom
ĠE C
ĠA rt
ĠnehnuteÄ¾ nostÃŃ
ĠB et
Ġroz h
ĠvÃ¤Äį Å¡ia
Ġnaj znÃ¡mej
isti Å¥
ĠMi klo
ĠM F
ĠÃº prava
Ġdopln ky
Ġrespek tÃŃve
ĠnajvÃ¤Äį Å¡ou
Ġvi dia
ĠjÃº li
Ġu chy
Mom entÃ¡lne
Ġna stup
ĠpredÃ¡va jÃºceho
Ġna bud
Pred platnÃ©
Ġzodpoved Ã¡
ĠTrna va
Å¡ nÃ¡
ud o
O stat
Ġsmu tnÃ©
Ġkonk re
ci li
er ne
ĠOb chod
Ġgu Ä¾
Ġhra nÃŃc
ĠT U
Ã³ noch
Ġkon ver
Ġdre se
za ch
Ġdob rom
ĠS lobod
Ġod Ã´vod
Ġno siÅ¥
Ġstrom y
Ġka bel
Ġpredme ty
ĠP rav
rej mo
ĠÃį r
F a
Ġan je
wa ys
Ġli trov
znÃ¡ va
Ġmi ch
ĠprÃŃj my
ĠN ik
i ka
Ġpok r
P etr
Ġa ro
ci k
Ġm ra
Ġpodpor ou
mati cky
klo p
ĠzvlÃ¡Å¡t ne
Ġklub ov
Ġod z
ĠD nes
Ġmiest nosÅ¥
S c
Ġ Å
H or
ProblÃ© m
Ġbi g
Ġklud ne
f aj
Ġj ist
Ġma tra
Ġnebud u
Ġvoj ak
Ġostat nÃ½m
ĠH od
Ġodbor nÃ©
Ġju hu
Ġsku s
d an
Ġ8 787
ĠrieÅ¡ enÃŃm
ĠvÃ¤ÄįÅ¡ iny
P ria
Ġzla ta
ĠvÃŃ Å¥a
z sie
B la
Ġdetail y
D va
Ġkontro lou
Ġnepo cho
Ġnov ou
ĠnajvyÅ¡ Å¡ie
Ġagre sÃŃ
fi kovaÅ¥
ĠopozÃŃ cie
Ġvedom ie
Ġseve ro
Ġposlan ca
aaaa aaaa
Ġb il
Ġ15 00
ĠBru se
ĠTrna ve
Ġihri sku
ĠMan ch
Ġvyda vateÄ¾
Ġfutbal ovÃ©ho
uu uu
Dob rÃ½
Ġza biÅ¥
MÃ´Å¾e m
ho n
kaz y
Ġrozhod ovaÅ¥
ĠnaÅ¡i mi
Ġkli ma
Ġsvet ovÃ©ho
ĠN et
Ġm ent
201 2
The y
Ġvie dli
Ġvy hlas
Ġnajob Ä¾Ãºbenej
vis ko
ĠK Äį
Ġfeder Ã¡cie
ova telia
Ġpo jednÃ¡
Ġcel kovÃ©ho
Ġvla ÅĪaj
Ġhy dra
ĠovlÃ¡d anie
n Ã´t
Ġkari Ã©ru
daj u
Ġ13 0
ĠKoÅ¡ÃŃ c
Ġodbor nÃ½ch
mi x
loÅ¾ enÃ©
Ġt im
Ġvide Ã¡
H rÃ¡
ro ni
lÃŃ c
Ġver ÃŃ
Ġni jako
Ġna da
Ġodbor nÃŃci
Å¡ le
g el
u be
ĠB ol
Ġjednoduch Ã¡
Ġbal k
ĠLad islav
ho spodÃ¡r
Ġpo hor
Ned Ã¡
he it
ĠÃºÄįin nosÅ¥
ĠÃº stred
ÃŃ ÃŃ
Ġargument y
Å¡ enÃŃm
Ġje sen
ĠznÃ¡ m
ĠnÃ¡rod ov
Ġca sto
lej Å¡ÃŃ
ÃŃ ne
Ġochor enÃŃ
k dy
re Å¡
Ġodovz dÃ¡
Ġz vÃ¡
Ġbe lie
moz no
Ġmo tora
Ġpis e
Ġodbor u
h ania
i telia
Ã¡ dy
ii ii
ĠvoÄ¾ ba
Å¡a la
J Ã¡n
ĠR E
Ġkvali tnÃ½ch
ĠpÃ´sob enia
ĠJi ÅĻÃŃ
Pro ti
Ġul tra
ku m
Ġrovnak ej
Ġveli teÄ¾
Ġvyh nÃºÅ¥
ĠvÃŃ no
Ġuvedom iÅ¥
Ġelekt rom
p ani
ensk Ã¡
Ġpre fer
Ġodpoveda Å¥
Ġpred Äº
Ġnajbli Å¾Å¡ie
ĠPe zin
Ġpod nikov
U B
sÃŃ te
Ġnebezpe ÄįnÃ©
Ġro dÃ¡
Ġseku nd
Ġdom nie
Ġrov nom
Ġme m
ene s
t ovanie
Ġchy b
Ġvy hod
Ġdobr Ã©ho
Ġpos lÃº
Ġz mes
hÃ¡ j
Ġop timi
so na
ĠpokraÄį oval
Ġkalen dÃ¡r
Ġmiest nej
Ġkul tu
Ġ199 1
Ġcuk ru
ĠZ Åł
Ġv sade
Ġreferen dum
ov ho
Ġde ba
Ġudalo stÃŃ
ĠV ÃŃ
g ed
Ġb ÄĽ
is ia
w ood
Ġpr ovo
ovateÄ¾ om
Ġp av
nÃŃkov i
Ġsest ry
Ġprav ej
Ġta x
ĠprÃŃstup u
ĠspÃ´sob il
ĠH ZDS
ti kov
Ġli t
ĠotÃ¡z kou
ĠK re
Ġca st
4 7
Druh Ã½
ku r
ĠSpo loÄįnosÅ¥
ĠvyÅ¡ Å¡iu
Ġcud zÃŃ
Ġele gant
S ed
ĠMi lo
ĠzÃ¡stup covia
ĠH on
Ġvy pu
Ġde ment
Ġve te
Ġpod Ã¡va
Ġcas u
Ġpodnika teÄ¾ov
nÃŃ cke
ch Ã¡r
Ġfi x
ĠvidÃŃ te
K ni
Ġverej nom
Ġvybe raÅ¥
Ġpl nÃ¡
Ġsed ieÅ¥
Ġcom e
ĠK op
ĠM ur
ĠÄ¾ud skej
ĠprÃ¡v nych
Ġpostav ili
SS R
Ġ Ä¾ade
8 9
Ġpredme tov
ĠnajvÃ½ znam
TakÃ© to
Ġsymbo l
Ġtretie ho
ĠS me
Ġg es
UD r
as h
ĠdneÅ¡ nom
ã ģ
ek Ãº
Ġpo ob
Ġpotrav in
Ġodv tedy
Ġpod pÃŃs
ĠprÃ¡vom o
Ã¡l ka
Ġnav Å¾dy
Ġok no
Ġbie li
ĠPie Å¡Å¥
Ġsrd ci
Ġaf ter
Ġb ub
Ġele gan
Ġbor del
Ġpr sia
Ġsk al
zia l
Ġu zna
t nou
Nech cem
Ġpo pre
up ujÃºci
A d
Ġgo ing
ra Å¾d
ĠR im
si de
li p
bu lan
ĠuÅ¾ÃŃ vaÅ¥
ko ra
ĠpoÄį tom
Niek to
Ġrela x
Ġsto py
stia m
Ġhmot nosti
ĠdÃ´kaz y
lÃ¡ tor
Ġo je
ĠmÃ©di Ã¡ch
nej Å¡ej
U L
Ġje t
ĠS lu
ĠMer kel
Ġak tÃŃv
K am
Ġgym nÃ¡
vo st
si ve
ĠJu ho
tov o
Ġpredsed om
at Ã¡
Ġpo bav
Ġcharak teru
ĠGab rie
ĠeurÃ³p ske
bo ha
Ġvyp lÃ¡
ĠMaÄıar ska
Ġiz bu
Ġnato Ä¾ko
Ġpod klad
Pred seda
Ġka li
Ġ7 7
Ġcyk lo
ĠMaj strov
Ġpre p
Ġtr p
Ġfar ma
l ovaÅ¥
Ã Ħ
N Y
ĠPreÅ¡ ove
Ġin ovÃ¡
ĠvÃ½ Å¾iv
Ġpolitick Ã©ho
Ġbie la
Ġukaz ujÃº
ĠS ky
Ġparlament nÃ½ch
Ġd res
Ġotvor ene
D vadsaÅ¥
Ġoz dob
Ġ11 0
nie sol
qu a
I van
ĠPor tugal
ĠvÃŃ ru
Ġinte lek
Ġin c
Ġne sto
ĠpÃ¤ tnÃ¡
Ġpolitick Ã¡
ĠM P
rej mÃ©
ĠzÃ¡ znam
y o
ĠSt red
or m
Ġsi lou
Ġrozdie ly
ĠK Ã¡
Å¯ sob
ĠÅ¡ per
ĠkultÃº rne
len Ã©ho
Ġpar kova
Ġsig nÃ¡l
lov o
ĠÅ¡t andar
ĠprÃŃtom nosti
ĠMe Äįia
Ko Ä¾ko
zi s
ĠbeÅ¾ nÃ½ch
Ġte raj
D omÃ¡
Ġskon Å¡ta
ĠKri sta
inÃ¡ cia
Ġpres il
tie s
ĠÄįlen mi
Ġza vÃ¡dza
Ġza t
teÄ¾ nÃº
Ġj j
z ene
Ġm odu
Ġhvie zda
Ġpolitick Ãº
Ġo hla
ĠSpoj enÃ©
Spo loÄį
bÃº da
ĠmÃ¤ sa
ĠJo zefa
Å¡ enÃ½
Ġh rob
Ġobmedz enia
Ġex klu
t ko
pod stat
Ġli g
Ġinte rak
Ġsla bo
Ġzru Å¡enie
ĠÃ´ smi
se a
Ġkau ze
z ujeme
u zi
Ġpaci enta
Ġhlu pÃ¡
Ġkon ÃŃ
Ġs rb
Ġpo znam
ĠB ob
S ch
Ġuvie sÅ¥
Ġdo padne
Ġkri Å¾ovat
Ġpre j
ĠobjednÃ¡ vku
Ġob jas
Ġmo slim
P ek
ĠSlov in
ĠF l
ĠprÃŃ prava
Ġpoz dra
Ġmoder nÃ©
Ġnep omo
Ġt hou
b ina
ĠspoloÄį nÃ©ho
Ġver zii
Ġsamosp rÃ¡v
Ġpodpor ujÃº
Ġcest ujÃºcich
Nie Äįo
ry ch
Ġtole ran
Ġspom edzi
ĠSM K
Ġbud ova
ĠbÃ¡ ze
r or
ĠRober ta
Ġbron z
Ġkari Ã©ry
Ġna kÃº
ĠlÃŃ stky
Ġob zvlÃ¡Å¡Å¥
Fi co
Ġodva hu
Ġu prednost
Ġnapis al
ĠVa Å¡ich
ĠznÃ¡ sil
Ġch vÃ¡
Ġt ovÃ¡
t w
Ġo Äįiach
Ġmoj im
Ġtvrd il
Å Ħ
sla ne
P av
Ġsna Å¾ÃŃm
Ġzach rÃ¡niÅ¥
Ġnech Ã½ba
en zÃŃ
ĠMe xi
Ġe go
jed nodu
ĠD is
ÃŃ cie
ĠTalian sku
ho to
ĠÅ¡Å¥ast nÃ½
ĠzastupiteÄ¾ stva
ktor y
ĠzÃ¡stup cov
200 8
IN G
Ġlokali te
bu ch
ĠnÃŃ zke
ct s
ĠvÃ¤z by
Ġnad mer
Ġnahra diÅ¥
ĠP P
jÃº c
Ġpod zem
cov al
Ġnove ly
ĠpomÃ´ Å¾u
Ġupozor ÅĪuje
6 7
et hing
Ġnep latÃŃ
Ġ16 0
Ġrozhod uje
ĠfÃ¡ ze
Ġrado sti
bri d
Ġrod ÃŃn
Ġc or
ĠMar ia
klad anie
ĠP rÃ¡
Ġbav l
Ġi dio
g no
ĠtÃŃm y
ĠsÃºÄįas nÃ½
ĠÅł im
ĠP l
ĠscÃ© ny
Ġli ga
Ġch at
for d
ĠMa tej
ĠpouÅ¾ÃŃ vania
ĠEurÃ³ pa
ĠT ie
Ġsko da
Ġk lob
ĠprÃŃj mu
ĠprÃŃjem ne
Ġhod nÃ´t
Ġza z
Ġur ÄįiÅ¥
Ġo hÄ¾ad
Ġf ru
ĠhÄ¾ad ajÃº
Ġk ilo
eda la
ĠMo rav
Å¡ iny
Ġvz al
Ġdohod nÃºÅ¥
Tak ze
Ġch irurg
Ġdov od
Ġostrov e
ĠIsla m
Ġkontak tovaÅ¥
Ġfor e
Ġpo jem
Ġslovensk y
Ġmedziro Äįne
Ä¾ ovania
Ġtop Ã¡nky
Ġpo stava
C est
n enej
tÃ½ Å¾d
Ġuli ciach
ĠS Z
ste m
Ġhra du
ĠzvÃ¤Äį Å¡a
ĠzamestnÃ¡ vateÄ¾
ĠobÄ¾Ãºb enÃ©
ĠSÃ½ rii
Ġne dal
nÃŃ ckej
ĠkrÃ¡s na
Åł koda
ci pli
ĠstÃŃ ha
Ġtex ty
Ġmo to
ĠM ys
Ġvy vÃ¡Å¾
k anie
Mo je
ĠorgÃ¡ nu
mys ly
Ġt v
Ġzd ro
Ġpon or
Ġde kor
ĠpÃ½ ta
Ġwor ks
p ria
bi m
Ġpostav il
Ġobjek tov
Ġvyrob enÃ¡
ĠkaÅ¾d oroÄįne
Ġkvet y
ĠS ha
ĠvoÄ¾ ne
Ġto n
ĠkomunikÃ¡ ciu
zi lo
ĠF I
Ġpredstav u
nu ty
Ġde tek
Ġstra nÃ¡ch
B er
ĠF la
poved al
ĠÄįlÃ¡n kov
ss on
Ġpresved ÄįiÅ¥
Ġhra jÃº
Ġpoliti cky
nÃŃ Äįky
Äįe ka
la jÃŃ
ple x
ĠL ou
ĠÄįa stiach
ĠaplikÃ¡ ciu
T S
ĠK to
vajÃº ce
Ġlieta diel
ty ri
sk al
Ġm rt
ĠvyÅ¡et rovanie
Ġmys lis
z anie
Ġtradi Äįne
ĠÅ¾iad nom
Ġotvor il
va mi
J ana
ĠvlÃ¡d ou
Ġzna Äįku
Ġnetra di
Ġmon tÃ¡Å¾
rov anÃŃ
Ġvo zÃŃ
Ġtitu lu
Ġeuroz Ã³ny
Ġpovin nostÃŃ
Ġnejak om
ĠÄįita teÄ¾
ĠS lo
C hla
Ġo wn
Ġdo stav
Ġsku te
Ġho lo
Ġleho te
Ġz rÃº
ĠD J
Ġvy lu
Ġuved enÃ½
Ġslovensk ÃŃ
Ġtm av
Ġelektronick ej
Ġinten zi
Ġsp aÅ¥
ĠVa mi
Ã© rou
rov anÃ¡
ĠR os
ca la
ok ej
201 1
Ġkone Äįnom
Ġri ch
Ġpr Ã©
Ġpotvr dila
z kom
si dent
Ġkvali tnej
ĠKi sku
Ġkomuni ty
ĠtÃŃm om
sk lad
Ġodpoved al
Ġhodnot enia
u nd
ĠD Ã¡n
Ġseri Ã¡lu
Ġa lian
st nÃ¡
Ġtele komu
r ovala
ri u
Ġch rÃŃ
Ġpos un
Ġhu bu
si me
Ġply nov
ĠD E
Ġnemu seli
ĠvÃ½rob ku
ĠobrÃ¡z ok
s or
lov anie
sÃŃ me
Ġobchod y
Ġinten zÃŃvne
Ġpodoz renie
Ġla st
Ġna inÅ¡tal
ĠzÃ¡hra dy
Ġver ia
Ġtla kom
ÄĽ nÃŃ
ĠdomÃ¡ c
li st
zÃ¡ pad
h ut
Ġvy po
Ġpod al
ĠSN P
ĠvÃ½ber om
Ak Ã½
ĠInterna tional
0 4
ĠLi gy
Ġalbu mu
loÅ¾ il
Ġprekvap enie
ĠPet rÅ¾al
Ġnaja vo
Ġnezamestnan osti
Ġpes ni
Ġpre bud
u e
ĠB B
Ġcel kovÃ½
Ġper spek
in der
ĠC al
Ġw an
nie sÅ¥
Ġasist ent
Ġprenas led
Ġtr pez
ĠvytvÃ¡ra jÃº
Ġpam Ã¤t
ĠvÃ½ro Äįia
Ġsp i
Ġroz hlas
Bude m
Ġstar Å¡ie
k g
Ġna Äįas
M ilan
Ġroz hla
ĠeurÃ³p skeho
an Ã½mi
ĠÃļ radu
ĠÄįas Å¥ou
Ġposte li
S to
Ġpriprav enÃ¡
ĠBru seli
Ġbo jÃŃ
ĠzvÃ½ Å¡i
Ġu mie
Ġs Ä¾Ãº
lo d
ĠsÃºÄįas nÃ½ch
Ġpre pÃ¡
Ġuli ca
ĠÅ¡ko du
Ġnezi sk
Ġru skÃ½ch
ĠvÃ½ko ny
ĠsÃ½ r
Ġrezor t
Ġz Ä¾
Ġst enu
ĠÅ¡ up
ĠH ou
la Å¥
Ra z
Ġpovin nÃ©
Ġdi vo
Ġkonflik tu
Ġtvoj ho
ĠvyhÄ¾ad Ã¡va
mati ka
Ġprodu cent
Ġd anÃ©
ĠE in
ment s
Ġrek rea
Ġreali zovaÅ¥
razi la
Ãº Å¥
Ġoce le
Ġvy vÃŃja
ĠvrÃ¡ tili
T er
Ġstar Ã©ho
Ġob cas
nu te
6 6
A spoÅĪ
g ener
l b
Ġnich ts
Ġadre sa
Ġma rg
raz y
Ġosobit nÃ©ho
van Ã©ho
ĠT r
Ġreali ta
Ġorgani zmus
lie ha
kaz uje
Ġleti sku
Ġvy hrad
hne m
Ġznamen a
F rancÃºz
Ġzabud nÃºÅ¥
Ġudr Å¾a
sti l
ĠE K
Ġzob ral
ĠpovaÅ¾ ovaÅ¥
Ġde mo
Ġhist Ã³riu
ĠplÃ¡ ne
Ġna cionali
ĠWashing ton
ĠkÄ¾Ãº Äįov
f ra
Ġh asi
ĠD eÅĪ
Ġna bi
ĠvnÃºtor nÃ©
Ġmr te
ĠsÃºvis iace
ĠlÃŃ dra
ia mi
G ra
Ġmi en
Ġch ro
Ġz um
Äįo ch
Ġcie Ä¾a
Ġbl ud
TÃ½m to
Ġi Å¡la
ÃŃ nu
Ġpotreb oval
Od bor
Ġznamen aÅ¥
Ġpre hrÃ¡
ĠS pe
Ġspom enut
Ġrozmer y
desia tych
Ġobjav ila
Ġmine rÃ¡l
loÅ¾ enie
Ġfyzi ckej
Ġob Å¾al
ĠÃº nii
ĠakÃ½ch koÄ¾vek
Ġozna Äįenie
lo h
Ġnepo uÅ¾ÃŃ
ĠÄįier na
ĠÃºspeÅ¡ nÃ½
Ġtla Äįia
Ġmimov lÃ¡d
Ġtho se
ĠkrÃ¡ Ä¾a
ĠPopra d
Ġna Å¡ou
Ġod chode
z kou
Ġvych ovÃ¡
Ġmajstrov stvÃ¡ch
Ġstrom ov
Ġm Ã¼
prÃ¡ vy
Ġorgani zuje
ĠL aj
Ġmuse lo
Ġpriez visko
Ġi ma
Ġvo lan
dop Ã¡d
am u
de t
ĠzÃ¡kaz nÃŃk
y ne
to c
ĠSlovensk om
Å¾ en
Ġra j
Ġkomu nÃ¡l
ĠMad rid
ÃŃm avÃ©
Ġfak ty
ĠMosk va
Ġzodpoved nÃ½
j j
NÃ¡ vrh
Ġkonz um
ĠÄįlove kom
ĠKa ro
ĠbÃ¡ Å¥
Ġspra vne
Å¾ ok
Ġtre stu
Äį ovi
ĠÃº der
ĠM ir
Ġu se
omÃ¡ ha
Ġd nu
ĠZ den
Ġpostav enÃ½
Ġprij atie
ĠK S
ĠS chu
ĠprÃ¡v ny
Ġne be
ĠnapÃ¤ tie
MÃ´Å¾e me
ĠC ho
ĠÅ¡ Å¥
b ro
Ġnem as
Ġne cÃŃ
Ġded iny
Ġpozrie t
ĠskÃ³ re
Äį no
Ġcud zie
Ġves mÃŃr
Ġvi dÄĽt
Ġpredstav il
Ġsp Ã¡nku
ĠzÃºÄįast niÅ¥
W as
Ġn Ãºt
Ġta kou
Ġmoj ou
D al
Ġuvie dli
Ġhum an
ĠduÅ¡e v
ia k
Äį nÃŃk
Ġam bulan
ĠnÃŃ zky
Ġum Ã½va
re o
Ġna me
Ġza ve
ĠZe me
Ġpotvr dili
P er
bo Å¡
Ġh rat
ÅĪ ujeme
ĠÅł a
ĠvÃ¤Äį Å¡ej
Ġbi cy
ov ku
Ġbo ku
Ġnem Å¯Å¾e
Ġinde x
ÃŃs al
Ġpom e
Ġuvi dÃŃme
Ġpl nenie
te da
ĠÃºto kov
il le
ĠextrÃ© m
Ġsta raÅ¥
Ġvy m
Ġdru he
ĠM ali
ĠsprÃ¡v nu
ĠreklamÃ¡ cie
Ġzasad nutÃŃ
rÃ¡ z
Ġvznik li
ĠnÃ¡by tok
mys lim
ĠA ll
ĠV es
Ġri ti
nÃ¡ h
ĠskutoÄį nÃ©
Ġmi r
ĠrÃ¡ na
hod in
Å¾ enÃ©
Ġ0 3
ĠJeÅ¾i Å¡a
Ġposkyt ovaÅ¥
ĠnÃŃ zko
Ġne te
Ġboj uje
Ġkon cu
Ġdopo siaÄ¾
Ġf enom
ce ss
ĠtÃ© mou
Ġsil ne
Ã¡ kovÃ¡
Ġsor ry
si te
Ġpos ad
ĠÃļ rad
Ġle se
le ct
ĠÅ¡t r
Ġzi ma
ĠbrÃ¡ niÅ¥
Ġslovensk Ã½m
n ku
ve ho
Ġjed Ã¡l
Ġprak tickÃ©
lÃº v
Ġzvo liÅ¥
ĠBul har
Ġtak ovÃ©
ĠMo st
Ġk var
ĠÃºra de
Ġpre stup
Ġsom ething
ĠskutoÄį nÃ½
C ez
ĠÄįas och
Ġleti sko
Ġbe fore
Ġpok le
Ġdie lne
ĠÃº se
ent s
Ġji Å¾
vo sÅ¥ou
Ġjas nÃ½
ĠAnge les
Ġsor ti
Ġd ani
Ġnez odpoved
ĠÅ¡portov Ã½ch
ĠG od
vie d
Ġza Å¾ÃŃ
Ġz lat
ĠDu Å¡an
Ġskve lÃº
ĠtelevÃŃ zia
Ġly Å¾
ĠnÃ¡sko k
ĠvlÃ¡d nej
I ts
I G
ĠdaÅĪ ovÃ½ch
Ġka z
ĠsÃºbor ov
Ġrych lo
Ġpre sÅ¥ah
ĠT am
Ġfir st
ĠA c
ĠukÃ¡ zalo
Ġsou nd
ĠH C
Ġpo wer
Ġdo sky
Ġod volÃ¡
Ġli ge
Ġposled nÃ¡
Ġne prav
Ġklasi ckÃ©
ĠnedeÄ¾ ÅĪaj
Ġdopl nil
Ġroz tr
Ġstani ca
Ġko sti
Ġnesp rÃ¡v
Ġka bi
Ġvyhra la
Ġroz vÃŃja
Ġplo cha
Ġry by
Ġnejak Ã½m
Ġprojek te
ĠtechnolÃ³ gia
ĠneÃº spe
c ania
he he
4 2
ĠA M
ĠÅ¡tÃ½ lu
ĠvÃ½znam nÃ©
Ġpod anÃŃ
ĠRu si
Vy plÃ½va
Ġty pov
ze s
Ġu rÃ¡Å¾
Ġkup ujÃºceho
D E
Ġpozna Å¥
Ġpoc as
hra du
ĠklÃ¡ ves
Ġnep Ã¡Äįi
Ġvla s
Ġzm lÃºv
v ing
Ġfilozo f
ĠreÅ¡tau rÃ¡
ĠN O
ĠrÃ½chlo sÅ¥ou
ĠR ÃŃm
lo hu
ĠJ es
Ġzmen ila
0 6
as u
ÅĪ ho
ĠD ia
Äį anie
Ãº r
p ku
Ġd anÃ½
J i
Ġkomuni sti
Ġobraz u
Ġpri p
Ġmaj stra
Ġnaj st
Ġvy dÃ¡va
Ġmaxi mum
Ġstra tu
ĠdÃ´chod ok
Ġkles ol
Ġz bo
ĠvÃ½ poved
Ġpie sne
ÅĪ ovÃ¡
ĠpriateÄ¾ om
Ġne rov
ĠspÃ´sob y
Ġso cial
Ġutr pe
Ġvy sti
ĠÅ¾al Ãº
C eny
Ġr omÃ¡
Ġocen enie
ĠsprÃ¡ vania
P ani
ti ke
Ġnen as
ĠAfri ky
Ġte sty
Ġkuchy ni
Ġenvi ronment
Ġvie ry
ĠO Z
Ġrodin nÃ½ch
ĠKot leb
Ã¼ ck
Ġdi vad
Ġovo cia
Ġvysvet lenie
Oba ja
Ġ196 8
T C
Ġge ht
Ġned Ã´
rozu mi
Ġko Å¾u
la ment
ĠÅ¾i li
Ġein en
ĠÅ¾ivot nosÅ¥
la dÃ¡
Ġ ent
Ġzdravot nÃ½ch
ĠmÅķt vych
Ã³ t
Ġkom ory
Ġna Äįo
Ġtro ji
Ġt ma
Ġrok ovaÅ¥
Ġmet Ã³d
olÃ³ g
ĠspoloÄį nej
Ġfolk lÃ³
si ty
kov y
ĠpoznÃ¡ me
T r
Ġabsol Ãºt
Ġre me
Ne u
Ġkro ku
Ġimi gran
Ġsekun dy
Ġg r
ĠsÃ©ri u
ĠAu to
Ġh rn
ĠS he
Ġlie k
Ġria diÅ¥
Ġnemu sel
Ġdopl nenÃŃ
Ġpred aÅ¥
pra vo
ick e
tÃ¡ cii
Ġde b
ĠL Ã¡
ĠzÃ¡pad nej
Ġobjav ÃŃ
Ġneu vedom
Ġdc Ã©r
Å½ iad
Ġsta tus
Ġdesia tok
Ġm eni
ĠtermÃŃ ne
ĠpoÅ¾ia r
ĠNÄĽ me
c ing
ĠW eb
t ke
S lovÃ¡
ĠvÃŃk en
Ġtrie de
z on
ĠÅ¡tvr tÃ½
Ġskon ÄįiÅ¥
ĠPoÄ¾ sko
ĠuÅ¾ÃŃ vateÄ¾ov
rum p
Bude me
200 3
Ġpoch vÃ¡
Ġpor no
st ian
Ġma le
Ġva ri
Ġpre vie
Ġnarod enia
vi ta
Ġmu ss
ĠÅ¡ lo
200 9
ĠS TV
V O
ĠbrÃ¡ ny
vi te
Ġ7 2
Ġpo Ä¾ov
ĠnÃ¡vÅ¡te ve
hnut Ã½
ĠdodÃ¡ vky
ĠS ag
ĠpoÅ¾iad al
Ġovplyv niÅ¥
ĠTO P
Ġplat nosti
Ġu tie
Ġpod niky
Ġpotreb nÃ½
ova com
ĠnÃ¡ de
Ġz vaÅ¾
ĠÅ¡ la
c eni
Äį eniu
K Ã¡
fa reb
Ġbav ÃŃ
ĠniekoÄ¾ko krÃ¡t
Ġma de
Ġma py
Ġkoment Ã¡r
Ġpr vou
ran ge
Ġven ti
Ã¡ rom
Pa ne
Pre s
Ġv stupe
Ġst an
Ġpro sp
Ġry t
Ðµ Ð
Chce me
ger s
ĠÄ¾ud skÃ©ho
ĠPa ul
ĠprenÃ¡ jom
Äį ej
Ġkom Ã©
Ġnezauj ÃŃma
ĠkÃº sky
ÅĪ ovÃ©
gh ts
Ġsem inÃ¡
ĠBruse lu
Ġke in
dÃ¡va jÃºci
bra li
ĠzloÅ¾ enie
Ġreak cia
ĠstÃº pa
Ġza oberÃ¡
Ġjazy kov
Ġstaveb nÃ©
se la
ĠdÃ´leÅ¾i tej
mo na
Ġzab rÃ¡
ĠZÃ¡ klad
ĠÅ¾iv nost
ĠcentrÃ¡l nej
ca jÃº
Ġmo sli
to st
si ness
fi ce
ĠdomÃ¡ com
Ġdej ÃŃn
Ġjed neho
ĠkÃºp il
ĠLu kÃ¡Å¡
st vy
Ġzo skup
Ġprija li
na m
ĠPoli tik
Ġn y
lo he
p te
Ġfav ori
Ġoko lit
mi te
Ġzre ali
Ġhap pen
Ġfinan cie
ÅĪa Å¥
Ġsk r
Ġsch va
Ġweb ovÃ½ch
ĠakÃ©ho koÄ¾vek
Ġdovolen ky
Ġnariad enia
m aj
Ġautomobil ov
Ġdosia hnutie
Ġob oj
ĠscÃ© ne
Ġzo hÄ¾ad
Ġvice pre
Ġh rÃºb
Ġven oval
Ġi zieb
Ãº Å¡
Ġby ty
ĠliteratÃº ry
Ãº ru
Ġosob ou
ĠMer ke
C ho
ĠM M
ĠÄ¾ ub
ĠneznÃ¡ my
Ġdisk rim
Ġopti mali
Äį kom
re dit
Ġvyjad ruje
ĠzÃ¡ loÅ¾
Ġpeda gog
Ġsud ca
pla tÃŃ
sa lo
Ġna iv
Ġre cept
ĠlieÄį by
f ÃŃ
I O
Ġcest nej
ff en
pad Ã¡
Ġdet skej
ĠsamosprÃ¡ vy
Ġoh ni
ĠO ne
Ġstaro sta
ÅĪ ovanÃŃ
Ġdo sahuje
ĠV el
Ġskon trol
Ġamerick Ã¡
ĠprÃŃjem nÃ½
Å¾ nom
ĠtakÃ¡ to
Ġvstup u
ĠMa te
ĠsÃºbo ji
ĠBudape Å¡ti
Ġobsah ovaÅ¥
Ġnech y
Ġod ve
ĠÅ¾ Ã¡n
Ġnepoved al
v ra
jÃŃ cÃŃ
Ġokru hu
g Ã©n
Ġtech nika
Ġsp la
Ġjednoduch Å¡ie
E xistuje
Ġimple ment
Ġrodi Äįom
Ġkari Ã©re
Ġpre Å¡li
Ġbe l
Ġkonku r
s in
vi lo
Ġchod it
ĠsluÅ¾ bÃ¡ch
Ġkli entom
qu ot
Ġpev nÃ©
Ġvedom osti
0 7
ÅĻ enÃŃ
ine r
Ġjed nak
Ġtr pÃŃ
ĠinÅ¡titÃº ciÃŃ
ĠÄ½ SNS
cha ri
teÄ¾ nou
ĠkrÃŃ za
Ġnastav enie
ĠL ie
ĠLondÃ½ n
Ġsvia tky
ĠvÃ½men u
ĠA si
o ky
S uper
Ġnepo chyb
ĠnemÃ¡ Å¡
Ġa po
ĠtabuÄ¾ ke
ĠvÃ½dav kov
pe Ä¾
ĠspÃ´sob enÃ©
Ġzivo ta
ĠK rem
Ġnastav enia
Ġv klad
Ġvy stre
Ġod bo
Ġhvie zdi
Ġtechnick Ã½ch
Ġfunk cion
Ġlo di
Jed nou
ĠMark ÃŃ
rad Å¡ej
Ġzd ieÄ¾
Ġi du
Ġmysle li
in du
ĠpokraÄį ovanie
ĠakÃ½ koÄ¾vek
Ġko pÃŃ
Ġsl nka
Å ®
Ġspravodlivo sÅ¥
hi p
ĠSa int
se arch
Ġfyzi cky
Ġu hra
Ġmeta boli
Ġ6 9
Ġnajnov Å¡ie
ĠkoalÃŃ cia
ni cou
Pro jekt
Ġpre Å¾iÅ¥
ĠÃº na
Ġodmen y
Ġstre daj
Ġhistor ickÃ©
ĠpÃ´Å¾i Äįky
Ġspra vili
Ġre c
ĠvÃ¤Äį Å¡ÃŃch
ĠD VD
ĠzÃ¡hra de
Ġjuni or
ĠVa Å¡u
ĠG ot
na d
ti ca
Ġzach ra
Ġma ga
Ġza nech
Ġukon ÄįenÃŃ
P amÃ¤
Ġpriazni v
ĠE ur
tick e
ĠÅ¡ al
ĠÄį l
Ġporu Å¡enie
Ru sko
ĠÅł t
Ġzamera nÃ©
ĠV ed
Ġpodstat nÃ©
rie dok
ĠdaÅĪ ovÃ©
Ġkur zu
ĠsprÃ¡v nej
ĠP ara
T R
K U
Ġz hr
ĠmÄĽ la
Ġpozi tÃŃvny
sÅ¥ an
ĠAlex ander
Ġvy strie
Ġdo tia
Ġpri jem
ĠÅ½ili n
ĠC up
Ġprofesion Ã¡lne
Ġv ajÃŃ
Ġka mera
ĠO rgani
ĠopozÃŃ cia
Ġh nutie
ko s
ro nika
Ġne stre
Ġz ku
Ġbo ok
Ã©ri i
Ġzabezpe ÄįÃŃ
ĠT es
Ġse vere
Ã¡ kov
ĠO p
Ġex ekÃº
Ġmen Å¡ÃŃch
Ġvybra nÃ½ch
Ġo toÄį
Å¥ah uje
ĠspoluprÃ¡ ca
ĠÅ¡pi Äį
c ovanie
Ä¾ te
B ar
Ġnor my
E s
Ġde utsch
Ġnapis at
Ġskusen osti
m Ã¡m
te la
ĠN ed
ĠnÃ¡rod nÃ©
Ġli dem
Ġinform ovali
Ġmini mali
Ġdo hovor
Ġlep Å¡iu
lÃ¡ va
Ġfi gu
ĠK ana
8 6
0 2
Äİal Å¡ÃŃm
rÃ¡ tiÅ¥
Ġmin d
Ġoli gar
Ġfinan ÄįnÃº
ĠÄįe skÃ©
ĠtÃ½Å¾d ÅĪoch
ku ment
ĠprimÃ¡ tora
le bu
Ġap li
Å¡ nÃ½ch
Ġposchod ÃŃ
bi Å¡
Ġpotvrd zuje
Nie len
Ġzby toÄįnÃ©
kup ina
en ca
tam ÃŃn
Ġkomp romis
Ġza isÅ¥
Ġnedo stal
b is
Ġvy bera
Ġne zna
Ġzaznamen al
an ka
Ġu blÃŃ
T om
Ġun sere
ĠprÃŃklad om
Ġdruh Ã½ch
Ġekonom ickÃ©
Ġsklad by
Ġz ba
Ġh lo
Ġzna Äįiek
Ġtra p
u li
ĠsprÃ¡vne ho
Ġpred chod
Mi roslav
ĠÃļ nie
ĠÄįist enie
ĠGro up
Äįak Ã¡va
Ġu ch
Ġdisku sii
Ġzaznamen ali
Ã¼ n
ĠvÃ½ bav
ĠvoÄ¾ nÃ©ho
ĠtlaÄįi dlo
Ġkomfor t
Ġtr hy
ĠmnoÅ¾ stve
Ġbezpe ÄįnÃ©
Ġnesp om
ĠlÃŃ st
Ġobran ca
Ġtym to
li vÃ½
Ã¡ nu
Ġcvi Äįenie
Ġtran sak
p in
Ġsta Äįilo
Ġre ally
Ġa ch
Ġpri h
ĠR Ã¡
at her
ĠPoli caj
ĠO rb
Ġsna hu
ĠkrÃ¡tko dob
Ġproti v
Ġobchod nej
ĠÄįÃŃt anie
Ġpl nom
ie rov
ĠnÃ¡ro Äįnej
Ġb ad
Ġhan ba
ĠÄį Ã¡
ĠNaj vyÅ¡
fikÃ¡ cie
ova cia
Ġsamo tnÃ©ho
ĠkÃ¡ vu
Po Äı
Ġschop nÃ©
Ġfunk cia
ĠzÃŃsk anie
ĠprÃ¡v ÄĽ
ov ern
Ġhes lo
Ġchlap cov
Ġhi gh
Ġne por
T rÃ©
Ġmy Å¡
Ġnesta ÄįÃŃ
ĠsociÃ¡lne ho
Ġvys pe
Ġstia hnuÅ¥
ĠdÃ¡ me
Ġz lÃ¡
Å¡ ajte
ter nÃ©
j mu
logick Ã½
R Ã½ch
Ġnastav iteÄ¾
Ġpl s
Ġokulia re
die Å¥
log y
ĠpouÅ¾i tÃŃ
Ġcook ies
Ġpla ne
tÃŃ k
ĠvÃ½ no
Ġpostup u
Ġsank cie
bor ne
ĠS S
Ġbi ologick
Ġprak ti
Ġnemo Å¾nÃ©
Zd roj
Ġg t
vo ra
Ġmal om
lik vid
ĠkultÃº ru
Ġst roje
ĠmuÅ¾ stvo
pozÃŃ cia
ku ji
Ġapart mÃ¡
Ġobchod nÃ©ho
f an
ĠvÅ¡ em
Ġna Å¡ÃŃ
Ġzo znÃ¡
ĠH la
Ġdu cha
ot vor
ĠÄįin nostÃŃ
h ajte
Min ul
ka tolÃŃ
Ġschop nÃ¡
ĠnÃ¡rod nÃ½ch
Ġsamov raÅ¾
Ġne stane
Ġhy per
ĠÅ¾ivo to
Ġpohodl nÃ©
Ġspravi dla
n Ã³
ĠÅ¡an ca
prÃ¡ vne
Ġprav Ã½
ĠzÃ¡leÅ¾ito sÅ¥
s ung
Ġk Ã¡d
ÄĽ j
Ġvia ckrÃ¡t
pre to
Ġned od
ĠZÃ¡ kon
ĠÃºsme v
In formÃ¡cie
Å¾ÃŃ me
Ġu pl
ĠanalÃ½ zy
P et
Ġdl hu
ÄĽ ji
Ned o
pa rÃ¡t
Ġcent rÃ¡
teÄ¾ nÃ½m
Ã¤ d
A V
Ġekonomi ku
tÃ½ ka
Ġba ri
Ġmini mum
ĠzÃ¡leÅ¾ito sti
Pro gram
ĠDu na
Ġovo c
Ġokol nosti
Ġpl nÃº
Ġp Ä¾Ãº
Ġprac ovat
Ġspolu Å¾ia
ĠÅł K
SS D
Ġchla pi
ĠVladi mÃŃ
ĠVol ks
nu la
ĠrobÃŃ Å¡
ĠEv rop
st nÃ½ch
ou nd
ĠminÃº tu
Ġnavrh uje
ste in
Ġa ne
Ġvy daÅ¥
Ġfot iek
do sti
Ġpoznamen al
Ġslovensk Ãº
ĠVeÄ¾ kÃ¡
Ġpo lia
Ġd ub
Ġne ud
Ġz jazd
Ġe ver
ĠtakÃ©ho to
Ġ14 0
Ġba re
ĠvÃ½ko ne
z n
Ġrodin nÃ½
ĠpoÄį ul
m ÃŃn
zaj u
Ġma in
ĠnÃ¡ pis
Z as
Ġdopy t
Ġangli cky
ce u
Ġspomien ky
ja z
ĠoprÃ¡v nenÃ½
Ġzach ovÃ¡
mie r
Å¡ tÃ¡t
Ġsk rom
Ġroz bi
Ġpriprav enÃŃ
Ã³ g
v kou
Ġspokoj nÃŃ
W hat
Ġe gy
ĠnÃ¡by tku
Ġmiest neho
Ġpres nÃ©
Ġciga re
ĠkultÃºr nych
Ġmater skej
b ov
Ġz riedka
Bud Ãº
Ġvide u
mi s
ĠpÃ¡d om
ÄĮ O
ĠlÃ¡ skou
Ġvymen iÅ¥
e v
i ro
Ġj ich
ĠspoloÄį nÃ½
ĠhÄ¾ad Ã¡te
pa ra
Ġfond ov
Ġkon al
Ġga me
Ġpapie ra
Ġzahy nulo
Ġobra nu
ĠMaÄıar sko
ĠvÃ½ro Äįie
ĠzÃ¡ vod
Ġh alu
Ġf asi
Ġpodpor e
Ġvznik lo
Ġnevi dÃŃ
ĠAF P
ĠstÃ¡ la
P u
ĠB lo
L ie
h ej
Ġpa pu
ĠÅ¥aÅ¾ Å¡ie
4 3
Ġg ri
Ġprinie sla
st s
Ãº Äįast
ĠkrÃ¡t kom
lo l
Ġpod ot
ĠF inan
ĠÅ¡ kÃ¡
Ġk lÃ¡Å¡
ĠpriateÄ¾ mi
Ġstav bu
ĠTalian ska
ZÃ¡ kon
wa gen
ji la
Ġop latÃŃ
Ġza rÃ¡ba
ĠM ol
Ġhroz ne
st and
ĠsÃŃ dlo
Ġre ci
E J
Ġfinan Äįne
ĠÄįak al
Ġh ip
Ġobchod ov
P or
7 7
ĠÃº pravu
Ġz Ã³ny
Ġsta vaÅ¥
Ġp se
h h
Å¡ enÃ¡
Ġzisti la
ĠRu skom
Ġje di
ĠÃºstav y
Ġsta te
Po zor
Ġmal Ã½m
ĠnÃ¡stroj ov
Ġsk len
ĠÄįier nej
ĠK al
Ġprost riedok
pla tne
ĠÄ¾ av
Ġpoz Ã½va
ĠsÃºkrom nÃ½ch
Ġprirod zen
ĠÅ¡ ou
Ġci bu
Ġk van
ĠP as
Ġuplat niÅ¥
Ġota zka
Ġriad enie
ĠPel legrini
ĠpÅĻes nÄĽ
Ġpopu lÃ¡cie
Chce te
l Ã¤
ene zu
ĠprincÃŃ p
Ġvypad Ã¡
ĠnÃ¡sil ia
je den
Ġprehra li
Ġtre tia
Ġho spi
Ġsil nÃ¡
Ġminist rom
Ġa lo
ĠnÃ¡jde me
ti kÃ¡
Ġpi cov
Ġk W
Ġne dalo
tick Ã½mi
ĠÄĮ i
ĠÅ¡ te
Ġvyber te
Ġo pustiÅ¥
ĠkÅĪa z
tivi tu
ale ka
Ġvlast nou
Ġskup inou
ĠpÃ¡r ty
Ġus mie
pi u
ĠE li
Ġzamestnan ca
Ġstra vy
Ġuniverzi te
ĠnajvÃ¤Äį Å¡ia
ĠtÃ½Å¾d en
Ġinform uje
k nÃºÅ¥
ĠmlÃ¡de Å¾e
ĠpÃŃ Å¡u
Ġz myslu
rov Ãº
Ġmiesta mi
by tok
Ġoh ro
K raj
ĠpoÄıak ovaÅ¥
Ġhokej ovej
ĠÄį el
Ġs tor
Ġma chen
Ġu taj
tÃ© r
N D
Ġbe hu
ĠMosk ve
Ġa ir
na la
ĠpouÅ¾ÃŃ vateÄ¾
Ġobjek tu
Ġhlav nou
Å¾ an
Dru hÃ¡
ÃŃ c
ĠprÃŃspev kov
ĠU V
ĠvlÃ¡d nu
Ġbra ta
ĠvyÅ¡ la
tie z
Ġupra viÅ¥
ĠzÃ¡ m
Ġli ght
Ġtrest nÃ½
Ġpreved enÃŃ
Ġth rough
ĠKa rol
ĠzÃ¡ had
Ġzne uÅ¾i
Ġsp lat
Å¾ enÃŃ
Ġnech ajte
Ġkole gov
Ġla k
Ġprev entÃŃ
ÄįÃŃta Å¥
Ġko Å¡e
Ġpomo hlo
ĠP L
Ġvl ny
Naj mÃ¤
ĠR an
Ġjaz du
k ry
ĠmaÄıar skej
z ovanÃŃ
Ä¾ oval
ĠprispÃ´sob iÅ¥
Ġisla mi
Ġlop tu
Ġsled uje
Ġkontro la
ĠOnd rej
Ġvy dala
raÄį nÃ©ho
chÃ¡dz am
Ġdrob nÃ©
ĠspÃ´sob u
Ġp anÃŃ
Ġbomb ard
o w
Ġne ga
lo Å¾ila
ĠÃº mr
D ÅĪa
Ġs ny
ĠvoÄ¾ bou
ĠcieÄ¾ ov
ist e
ĠpÃ´sob enie
Ġnov inky
v nom
ĠKla us
Ġspl niÅ¥
ĠfanÃºÅ¡i kovia
Ġsran da
ĠK le
ĠvyÅ¡et rovania
Ġban ke
ĠÅ¡truktÃº ry
Ġumiest nenÃ©
Nem Ã¡m
st nej
Ġznamen alo
Ã¡Äįi k
Sk Ã´r
Ġener gia
ĠO ra
Ġmi gra
Ġho ld
Ġpara dox
tÃŃ vom
Ãº ry
Ġlite rÃ¡r
ĠsÃºkrom nÃ©
Ġochor enie
c le
Ġv iny
p ania
Ġpa st
0 8
pi c
ĠK ul
Ġd aju
ĠnajdÃ´leÅ¾itej Å¡ie
OV Ãģ
ve la
A t
Ġf inÃ¡
Ġpohla d
Ġex pre
vil le
Ġna Å¡ÃŃm
Jed nÃ¡
g g
Ġskon Äįilo
Ġhmo ty
US A
Ġu delen
Ġare Ã¡li
Ġhel p
0 3
Ġpoz rel
Ġz ena
ĠA R
Ġka de
Ġpre stÃ¡
Ġnajlep Å¡ia
Ġprac ovali
ĠÅ¡ iel
Ġpre prac
bra Å¥
Najlep Å¡ie
iac u
Ġpr sty
Ġten tokrÃ¡t
Ġsvia tok
h Ã½
kom men
Ġhor nej
k cie
ĠpoÄįÃŃta Äįov
Ġexisten cie
po st
Ġleti ska
ĠS F
Ġcestov nÃ©ho
te ly
Ġzne pokoj
tvr d
Ġmo ney
li on
Ġotvor ili
Ġd anom
ĠdÃ´ jsÅ¥
Ġtrom i
Ġfinan ÄįnÃ©ho
Ġzna Äįne
b om
ĠPa ne
Ġpozem kov
S mer
fikÃ¡ cia
Ġza stÃºp
Ġne hod
ĠR am
ĠFran ce
Ġko pu
Ġpla v
Ġnaj vac
i ÃŁ
Ġ3 50
ĠM us
Ġkau zy
Za Äįia
b ad
Ġkonkuren cie
ent ÃŃn
Ġpostup y
ĠAt lan
Ġprezident ka
ĠzloÅ¾ iek
Ġgener Ã¡cia
Ġarch e
Ġot com
ĠpÃ¡ tra
Ġh mm
Fir ma
Ġhor y
Ġmiest ne
B ut
de x
A gent
Ġpr as
Ġz it
ĠinÅ¾in ier
Ġsiedmi ch
Ġnech at
ĠsÃºhla sÃŃm
tov Ã½m
4 1
Ġprirodz enÃ©
ho w
si k
Ġspoj enÃŃ
ĠmuÅ¾ om
201 0
ni ou
Ġtele vi
tu ng
ĠprÃ¡ vneho
Ġpi c
t enia
ĠÅĻÃŃ kÃ¡
Ġkraj inou
ĠzakÃ¡z anÃ©
Ġvy raz
Ġtri dsaÅ¥
Ġpozem ky
Ġh en
Ġkontex te
nick Ã©ho
Ġzjed no
ĠtelevÃŃ zii
Ġinvest ovaÅ¥
Ġkomp en
ĠdrÅ¾ ÃŃm
ĠÅ¾ia rov
Ġuro bit
je ba
Ġne jed
ĠÅ¡ ik
Ġtych to
ka u
Ġo pust
Ġpozad ÃŃ
Ġnebo j
ĠukÃ¡ zala
ĠSpo loÄį
ho jte
Ġf ron
ĠmÃºze a
ĠC Z
Ġpoplat kov
Ġodk edy
g as
Ġpretr vÃ¡
ĠkombinÃ¡ cia
Ġsebav edom
Ġpohod lne
M noho
Ġfe el
ĠBM W
Ġu zÃ¡
ĠS un
Ġkam ery
ĠreÅ¡tau rÃ¡cie
Ġim p
i ra
T ER
Ġdizaj nu
Ġzob er
Ġthat s
Ġkyseli ny
Ġs vobod
ĠWashing to
Ġstra tili
Ne vy
Ġtr hoch
Ġodde lenie
Ġdi v
200 7
d nes
Ġod le
Ġna bÃŃ
pusti la
ĠRakÃº ska
Ã¼ rg
ĠhÃ¡ dam
Ġproce sy
ĠF ak
Ġtelef Ã³nu
ĠvystÃºp enie
Ġpred stÃ¡v
ĠT voj
ĠkrÃŃ z
ĠzaslÃº Å¾i
Ġmu slim
Ġzamestna nec
Ġli ne
Å¥ te
Ġkrajina mi
Ġzad nej
ĠpÃ¡ ni
Ġteplo tu
ur y
Ġza dr
Ġke rami
Ġvan kÃº
ĠÃºver ov
Ġdoku mentu
n uje
Ġzb roj
Ġd Ã©
Ġreg ener
Ġf er
ĠM Ã¡ri
Ġmajstrov stvÃ¡
Ġto x
vid ne
ĠzaloÅ¾ enÃ©
Ġrespo nd
ĠvrÃ¡ tila
Ġporu chy
Ġex o
z anÃ©
ĠsÃ©ri i
Ġspra vÃŃ
Ã ĵ
ĠVie dni
Ġcen time
Ġet c
ĠA nt
Ġtech niku
Ġkli d
Ġdemokra cii
ro de
Ġpot r
ĠzÃ¡klad om
ĠRakÃº sko
ĠBiel oru
Ġgi bt
Ġsvet u
ĠmÃºze um
Ġstre lil
Ġve ta
Ġnajd lh
Ġzo tr
ĠdÃŃ ky
nie k
h Ã¶
ĠZe mi
Ġza cne
Ġp les
Ġide Ã¡lny
Ġprezident skÃ½ch
ĠvÃ½ hodou
Ã¡ ciÃ¡ch
ĠnÃ¡ vod
Ġintelek tu
Ġmo hl
z by
Ġseri Ã¡l
ĠB il
Ġroz vod
Ġodol nosÅ¥
s m
cel ku
ĠzaujÃŃmav Ã½ch
ĠZ b
Ġbr zd
ĠvoÄ¾ nÃ©
Ġi l
Ġlie Äįeb
Ġle tÃ¡
ĠpredÃ¡va Å¥
Ġprv nÃŃ
ĠO l
Ġru kami
ing er
Ġce lok
Ġhistor ickÃ½ch
eni ce
Ġly Å¾i
ĠkÃ¡ vy
Ġkomple tne
om y
ĠvyrÃ¡ b
ĠS mi
v tedy
A s
ĠdÅ¯ chod
Ġrozu mu
ĠI rÃ¡n
Ġre ce
Ġsp y
O H
Ġvyzera lo
Ġnes pl
Ġ Åĺ
ĠMÃ¡ rie
Ġch Ã½b
G A
ĠÃº bo
Å¥a mi
Ä½ ud
Ġjej ÃŃ
9 6
Ġhe ad
ĠprÃŃ chode
Ġsch rÃ¡n
ĠÅ¾ije me
Ġo ld
Ġf lo
ÃŃ ny
Ġzho tov
Ġposkyt ovanie
Ġby lin
sti c
Ġsvet om
Ġza bÃŃ
Ġi rÃ¡n
ĠI V
Ġvoli li
Ġob sia
li u
Va Å¡e
Ġom e
Ġslobod a
Ġrobo ty
ã ĥ
Ã¡l ku
ĠÅ¡pe ku
Ġhu by
Ġg ut
Ġubyt ovania
n enÃ©ho
Ġz r
ta z
M uÅ¾
Ġuplynu lÃ½ch
G e
Ġs nÃŃma
Ġnech ut
Ġvojensk Ã©
M ari
Å¡ en
Ġzna losti
ĠvyÅ¡ lo
Ġpresad iÅ¥
c ene
ut bal
Ġmob ili
Ġsprac ovania
ĠD ru
ĠF al
Å¾ ba
dÃ¡ ch
Ġvyz Ã½va
ĠvÃ½ro bok
ob ot
Ġsta re
Vla di
Ġtk ani
it Ã½
ova cÃŃm
za uj
Ġpoho tov
Ġod p
na ch
Ġspom enu
Ġmil uje
Ġpovo lenia
ĠnÃ¡ dob
n ky
Ġg la
ĠMo j
C ha
Ġpracov nÃŃci
Ġz vi
Z uz
Ġprogra mom
ĠvÃ½z vu
Ã¡ tov
ĠRe publi
M ie
Ġded ine
Ġlit tle
Ġdo chod
Å¾ kou
ĠJa mes
ĠzÃ¡ mor
ĠLe a
Ġkom enta
Ġu bo
rÃ¡ k
Ġnechce la
Ġvo z
Ġm raz
Ġzivo te
th ers
Ġfung ujÃº
ho ut
Ġhodnot enÃŃ
Ġobchod och
b ovÃ½
Ġrozhovor y
Ġw ol
Ġtak ovÃ½
ĠvÃ´ ÅĪa
ĠrobÃŃ me
Ġpr dele
teÄ¾ nosti
ĠEx ternÃ©
Ġihri sko
ĠzaloÅ¾ enÃ½
Ġabsolv oval
Ġu hor
Ġs vou
ĠplÃ¡ Å¾
Ġfinanc ovanie
d as
V od
Ġnechce te
Ġsk rÃ½
nov Ã©ho
Ġdost Ã¡vajÃº
ĠstÃ¡ li
Ġpos Ãºd
hnu tÃŃ
ĠÃº vode
ĠV Å¡eobec
Ġsv Å¯j
Do teraz
par t
200 4
Ġru kÃ¡
ĠdÃ½ch a
ĠMicro soft
Ġnov Ã½mi
Ġpopu lari
Ġh my
Ġvy vr
lov ou
S voje
Ġminu lo
Ġdopl nok
Inform oval
Ġna Å¾i
Ġpred nosÅ¥
Ġfas cin
Ġk ruh
Ġmet ra
ĠÃºrad ov
na r
ĠnÃ¡v rate
a ce
h Ãº
ze k
ĠmoÅ¾ nÃ½
Ġpoved zme
Ġproble my
tak Å¾e
Ġpredpis u
Å¡ am
por tu
nÃ¡ rod
MÃ¡ Å¡
ĠDom ini
V I
ĠvÃ½hrad ne
Å¾ enÃ½
ĠnÄĽjak Ã½
lov Ã½m
Ġpo Å¾e
Ġli stov
ĠS U
ĠkrÃŃ dla
Ġpe kla
kladÃ¡ m
Ġf riend
Ġekonom ickej
s enia
Ġvybav enÃ½
al s
Ġplno hodno
D voj
com e
Ġka ted
Ġg ran
Ġvsetky m
ĠdodÃ¡ vateÄ¾
ĠN ovej
Ġvyrov naÅ¥
V Ã´
ĠsluÅ¾ be
Ġumel cov
SÃº d
Ġz likvid
Ġpod net
ĠvÃ½voj i
pra viÅ¥
Ġpra ci
Ġvr stvy
Ġby ly
Ġsym pa
Å¾d Ã½
ĠprÃŃ sne
sta le
ra lo
Ġlep si
Ġtva ru
Ġpopolud nÃŃ
Ġo kup
Ġgene ra
P A
ĠÅ¾ivo tu
ĠÅ¡k and
C K
Ġspokoj nÃ¡
Ġna hlas
dopÃ¡d ne
Ġzo z
t enÃŃ
ĠS at
vÃ¤ zuje
Ġsm ÄĽ
ck ÃŃ
Ġstani cu
Ġpo si
Ġne ws
Ġnavr hol
Ġsi mu
Ġpripom enul
ĠsnaÅ¾ÃŃ me
ĠzaloÅ¾ il
Ġja bl
Ġko lÃŃ
Ġna stÃºpil
hla vne
ie me
Ġka zd
Ġmajstrov stiev
ster s
ĠuÅ¾i toÄį
tne r
Ġtra Å¥
Ġpri znaÅ¥
Ġpredstav y
Ġvla ku
Ġvyrov nÃ¡
len o
ĠG ala
Ġpot ÅĻeb
Ġkla die
stro ja
ĠmyÅ¡lien ka
Ġ8 8
ĠopÃ¤tov ne
ĠdÅĪa mi
Ġdet skÃ½ch
ĠuskutoÄį niÅ¥
ĠvÃ´ d
Ġpoko ji
ĠobyÄįaj nÃ½
mer y
mys lom
ĠkultÃº rneho
Ġdispon uje
ĠU rb
ĠdokÃ¡ zala
Ġsmer u
Ġperfek tne
N Ãī
Ġhl iad
ĠG B
ĠD al
Ġsez Ã³na
Ġprezident ovi
Ġma pa
ĠD Ãº
Ġin ac
ĠÃºsil ie
Ġods ud
Ġkontro le
ĠGre en
Ġvy jednÃ¡
ĠPre Äįo
Ġpripom enu
Ġsud cu
ĠMo nika
Ġpredpo kla
Ġdod at
ĠD er
Ġpom y
Ġak cion
ĠmÃŃ sto
ĠZ die
ĠvyhlÃ¡ sila
Ġozna ÄįenÃŃm
Ġblo ku
te i
Ġz dalo
Ġzverej nil
ÃŃ ciu
ĠP le
pÃŃ Å¡e
K an
olÃ³ gia
Ġdob rou
Tak mer
ĠS co
Ġtak hle
Ġelektri ckej
Ġpre stav
sho p
Ġchod il
o la
g Ã¡n
ĠschvÃ¡ lila
Ġbratislav skej
Ġzm ÄĽ
ĠnesprÃ¡ vne
Ġvr tuÄ¾
ĠovlÃ¡ daÅ¥
Ġpopu la
ĠS ad
eni ca
Ġcel ku
ĠzvÃ½ Å¡ila
ĠnÃ¡dher nÃ©
Ġspoj iÅ¥
Ġa round
Ġlibe rali
Äį oviÄį
Ġje ste
Ġpod anie
Ġta zko
Ġh Ãº
ra y
Ġru chu
Ġru ko
Hovor ÃŃ
Ġstra ta
nov o
ĠTren Äįian
Ġoh rom
ĠÅ¡ty rmi
Ġkon trover
Ġf uj
ro ss
pe te
Ġposla li
Ġuk ry
ia s
ĠprevÃ¡dz kova
u ka
se y
ĠrobÃŃ te
Bohu Å¾iaÄ¾
Ġnie ÄįÃŃm
pi ch
ĠzÃ¡bav y
nie sli
ujÃºci mi
ak Ã¡
ĠorganizÃ¡ ciu
ob raz
Ġc lan
Ġrovnak Ã½m
Ġz rejmÃ©
Ġadre se
Z P
Ġkon ce
Ġtem po
ĠT omÃ¡
Ġzmen ili
Ġch il
ĠL ove
Ġmlad Ã©
re st
Ġop en
st ÄĽ
Ġprisp ieva
Ġza siela
Ġneme ckÃ½ch
ĠÄ½ub omÃŃr
Ġspo zna
it s
Ġzmen ilo
Ġry b
Ġna hlÃ¡
ĠprokurÃ¡ tora
ĠZ mlu
ĠÅ¡ nÃº
Ġprin Ãº
Å¥ o
ktor ov
Ġdo tÃ¡cie
Ġfinan ÄįnÃ½
Ġchod ili
ĠzÃ¡bav u
R oman
ĠlÃŃ stok
Ġnerob ÃŃ
Ġminul oro
ĠTi mes
fi gu
bili ty
Ġjed inou
ĠÄ¾ud u
Ġam at
6 3
ĠÅ¡tadi Ã³ne
Ġjin Ã©ho
Ġotvor enÃ½
ĠplanÃ© ty
ĠB un
ĠnajvÃ¤Äį Å¡iu
ĠÄįak ali
Ġu lÃŃc
Ġda Å¾
in ovÃ¡
ĠnÃ¡ po
ĠB lue
Ġhote ly
Ä¾ ovanÃŃ
Ġkon Å¡pi
Å¡ ke
re w
Ġpredme t
ĠstÃ¡ lo
Ġh am
ĠpÃ´vod nej
Ġ194 5
ĠA L
Ġprin ce
Ġnad stav
c enie
ĠH K
Ġban kov
ĠprÃŃpad u
ĠP it
Ġnedo Å¡lo
Ġfung ovanie
Ġpotreb nÃ¡
Ġt rati
z ovÃ¡
Ġj ob
Ġosob nej
Ġobjed naÅ¥
Ġzria Äı
9 8
Ġmy seÄ¾
ĠkomentÃ¡ re
c nych
z ny
Ñ ĥ
ĠLu cia
ĠnÄĽ j
Ġinvestor ov
Ġfareb nÃ©
ĠT wit
z nal
Ġpo sty
Ġsek tora
z Å¥
Ġzdro ja
d rav
ĠpouÅ¾ÃŃ vateÄ¾ov
Ġpol no
Ġtren dy
bo de
tor ka
Ġist y
bo ard
Ġpos ol
ĠÄĮe skÃ¡
Ġjet zt
Ġc ri
Ġce la
ÅĻ es
Ġsy nov
VÃŃ Å¥az
Ã© ny
ĠelektrÃ¡ rne
Ġsie tÃŃ
ĠmÃºd ro
Ġza bili
ĠnÃ¡ le
re y
Ġve ge
ĠS oviet
Ġhor Å¡ÃŃ
Ġtechnick ej
Ġtra g
Ġbet ter
aa a
ver po
Ġza lezi
Ġtelefo nicky
ko lik
ĠÄįesko slovensk
ĠzÃ¡ vÃ¤
da te
ĠvÃ½bor nÃ½
Ġzelen iny
in ce
Ġre vÃŃ
ĠKot lebu
Å¾ ko
ak er
Ġ7 8
ĠbÃ½ vajÃº
Ġaktu Ã¡lnej
Å¾i Å¡
in ku
Ġpre stane
Ġkatastro f
Ġz eny
vi u
ĠC R
Ġnajlep Å¡ieho
ĠprÃŃ chod
Ġproce sov
ĠvÅ¡eobec nosti
Ġporov nanie
Ġinterne tovÃ½ch
set ko
ĠprokuratÃº ry
Op Ã¤Å¥
ĠrebrÃŃ Äįku
Ġminim alne
Ġnaj po
Ġtre tiny
si ou
Ġzariadenia ch
Ġne up
Ġdra ma
D F
Ġspotrebi teÄ¾a
u el
Ġpodnik anie
Ġre duk
Ġba bi
we i
Ġnaj lac
Ġnes kon
Ġap lik
nÃŃ ckych
ĠtlaÄį ovÃ¡
Ġlet nÃ½ch
Ġpo stu
ĠpoÄįÃŃta Äįa
S ÃŃ
Ġdopad lo
ĠiP hone
Ġdl hÃ¡
Ġhovor ila
Ġriad ia
ĠTrenÄįÃŃ ne
re lo
kon Å¡tru
ĠSA V
Ġsamo tnej
Ġpri lis
Ġbre hu
Ġocho tnÃŃ
Ġc al
Ġrado st
ĠdvanÃ¡ sÅ¥
Pri pom
ĠC S
Ġuni kÃ¡
Ġve ÅĻej
ist or
rov anÃ½ch
Ġna Å¡Å¥astie
ĠkonÅ¡truk cie
rÃ¡ ciou
h lu
C hy
Ġvyzera jÃº
ĠG ene
Ġstaveb nÃ½ch
Ġn Ã£o
Ġvyh Ã½ba
prÃ¡ zd
ĠniÄį ÃŃm
ĠTat ran
Ġza ujem
ĠB Y
Pro ste
Ġodmen u
Ġpov stal
Ġnev ÃŃm
Hlav nÃ½m
ĠprÃŃÄį inou
Ġs Ã©ria
ĠV Ãļ
rie va
Ġzapoj iÅ¥
Ġg ala
ĠkÃ¶n nen
Ġna siel
c ina
Å¥az il
Ġvznik ne
Ġwe bu
ced Ã³n
Z dra
P ara
ĠbÃ½va lej
Ġtvor iÅ¥
ĠI l
ra nÃ©
ĠI t
ĠkomunikÃ¡ cia
ĠorgÃ¡ nom
E FA
ĠnÃ¡ vy
ĠStre do
Ġo pravy
ĠfÃ¡ zy
Ġmusi s
Ġw Ã¼r
Ġpodpred seda
Ġroz lÃŃ
Å¯ li
Ġter min
ĠB lÃŃ
ĠdÃ´chod cov
Ġtajom nÃŃk
ĠneÄį aka
Ġf Ãº
Ġvydr Å¾ÃŃ
Ġnejak Ã½ch
pla y
Ma rek
Ġso ci
ok edy
mi ly
Ġokami hu
ali ta
Ġd na
Ġpie seÅĪ
av is
NemÃ´Å¾e m
Ġab sen
Ġzahrani Äįnej
n anÃ©
ti va
to Å¾
ĠchtÄĽ jÃŃ
E va
ĠV l
z Ã³
Ġstra te
Ġtri krÃ¡t
ĠdÃ´sled ky
Ġdlou ho
Ġpo ka
ck ing
Ġvytvor ÃŃ
Ġa ha
Ġpo ÄįkaÅ¥
d za
ĠO Ä½
Ġvonkaj Å¡ie
put ova
ĠkvalifikÃ¡ cie
Ġviacer Ã½mi
ut om
Å¾ o
Ġpat ril
Ġsez Ã³n
O U
Ġvz bud
ĠzÃ¡ ku
ĠR ec
VÃ½ sledkom
ck ov
t ru
tka ch
Ġtur nÃ©
ĠS obo
Ġkontrol ovaÅ¥
ĠK im
lo ad
bo hu
K tor
Ġnerozumie m
Ġprisp ieÅ¥
Mysle l
Z v
Ġpo Ä¾a
Pro Äį
Ġnedostat ky
R ie
ĠkrÃ¡ de
Ġpostav u
Ġle ty
Ġnemys lÃŃm
kov anÃ¡
ĠkrÃ¡ sy
Ġsadz by
ĠÅ¡kol skÃ©ho
Ġmla dÃ¡
O s
Ġvlast nÄĽ
ĠI Q
ĠH ru
el le
Ġfakul ty
Ġdo hÄ¾ad
ĠÃº primne
Ġe la
Ġho sti
Ġdu Å¡u
T hat
Ġpen zi
200 6
nÃ© r
ĠE rik
Ġplo chu
ĠnÃ¡ ladu
ĠJ er
ĠT is
Ġvie ru
ĠorganizÃ¡ cii
Ġre produ
Ġpl niÅ¥
Ġru n
Jed ine
Napo kon
ĠvÃ½ pad
ro da
ĠrozÅ¡ÃŃ renie
ĠdodrÅ¾ia vaÅ¥
Ġru Äįne
ĠsÃºd om
Ġru skÃ©
Ġkomunik ovaÅ¥
ir l
ĠF r
Tak isto
ĠdÃ¡v ku
mail om
Ġostr ova
ĠÅ¾ivot nÃ½
Ġmys lenie
Ġzmen ou
Ġne sku
ĠvÃ½ch ovy
Ġkru hu
Ġed i
la dy
Vlast ne
Ġprinies li
o ff
Pou Å¾i
Ġhu sto
ĠÅ¡tvrÅ¥ roku
Ġs kÃ¡
T Ãº
ĠÄįier ny
Ġocho tnÃ½
Ġgener Ã¡l
Ġsamostat nÃ©
Z men
ĠsÃºÅ¥a Å¾ÃŃ
T Y
lu jÃº
Ġpo no
Ġkomp likÃ¡
nost nÃ©
Ġpre poÄį
ĠS TA
ci tu
bli Å¾
Ġvy hla
ĠÅ¾ia ri
Ġi stÃº
Å ĳ
Ġhere Äįka
Ġelekt rÃ¡r
Äı aleka
cha Å¥
Ġroz vÃŃjaÅ¥
Pre pÃ¡
Ġto lik
ĠblÃŃ zke
Ġtradi ÄįnÃ©
ensk Ã½ch
ĠÃº te
ĠKatarÃŃ na
Ġpr am
ĠÃº mysel
Ġini ci
Ġne vidÃŃm
ĠuskutoÄį nil
d ky
ĠM gr
ĠB ut
Ġstroj ov
tov ou
Ġmoj ÃŃm
ve Äįer
Ġa spek
ĠvyÅ¡et renie
logick ej
ri tu
ĠsÃºbor u
at s
Ã¶ r
Ã³ zne
Ġspre vÃ¡dz
Ġsto l
Ġv ÃŃn
gi o
ĠpÃŃÅ¡e m
Ġm ou
Ġtr pia
Ġjin Ã©
Ġpo cÃŃ
Ġu rÃ¡
Ġak Ã½mi
Ġnechce me
B rit
Ġuzat vÃ¡ra
Ġv ino
ri j
Ġminist rov
Ġvet y
ĠÄįasopis u
sÃŃ d
no de
ward s
Ġdar Äįe
k tora
Ġpriprav il
Ġdlh ej
Ġspom enul
om or
Ġneho dy
ĠDanie la
Ġro hu
ke s
Ãº va
Ġano nym
Ġso ciÃ¡lny
ÅĪa ch
ĠBru sel
ing a
Poli caj
ĠRe al
ĠÄ¾uÄı och
H ÃŃd
I R
Ġk rav
ĠemÃ³ cie
ĠH P
Ġbie lej
ĠBan k
Ġfinanc ovania
ĠRud olf
i teÄ¾ov
Ġvo lej
Ġpre hral
ĠTat ier
D rÅ¾
Ġpod ÃŃ
Ġla ser
z ovania
Ġtr inÃ¡
et s
S il
Ġod kÃ¡
tÃŃv nom
Ġvodi Äįa
ĠL E
Ġb ali
r eniu
Ġne raz
Ġty mi
Ġk ine
Ġza pis
Ġso Ä¾
Ġosob nosÅ¥
hod nÃ¡
Ġkape la
Ġ Ãģno
ĠTat ry
do hospodÃ¡r
av al
Ġne ba
Ġmoj ho
Ġo pon
ĠportÃ¡ lu
F ar
Ġa udi
av or
Ġsp ori
Ġza tep
Ġhe he
Ġsk ru
Ġdra hÃ©
Ġaugu st
ĠvyÅ¡ Å¡ej
ĠnÃ¡hra du
Ġpred stava
inÃ¡ cie
Ġvypl Ã½vajÃº
ĠnapÃŃ Å¡e
c Ã©
Ġhyd ro
Ġa ero
Ġnem ajÃŃ
ĠprÃŃ nos
Ġyou re
sk ak
Ġw i
do s
ke p
ĠÃºlo ha
ĠhrÃ¡ ch
ĠzÃ¡ kro
Ġstre le
ĠvesmÃŃ ru
ĠN es
te ro
ĠRÃ³ bert
ĠakÃº koÄ¾vek
N Ãį
cia lne
Ġhor m
Ġrovnak Ãº
Ġkon te
Na Å¡Å¥astie
Ġce leb
Ġne ov
Ġobu v
ĠM r
ĠKa lou
ĠnovinÃ¡ ri
Ġinteri Ã©ru
Ġzastav il
Å Ĥ
Ġspolu hrÃ¡
Ġas fal
Ġ0 4
Ġla tin
Ġved enÃŃ
ĠurÄįi tÃ½ch
ĠcÃŃ til
Ġtra te
Ġtvrd enia
z my
ĠVik tor
ĠpoÅ¾ad ovanÃ©
ra di
Ġop la
Ġkor eÅĪ
Ġ0 5
ra ja
Ġvybra la
ĠpÃŃsom ne
Ġzamestnan com
ĠE du
Ġvy dali
Ġhli nÃŃkov
Ġnevy hov
Ġmaji teÄ¾a
Ġlen i
Ġch al
Ġsmie ch
Ġf ia
Ġzp Å¯sob
ĠdobrovoÄ¾ ne
Ġar ci
Ġpravid lo
Ġslov an
ĠCh ica
ĠJ am
ĠÃºÄįast nÃŃci
Ġroz mysla
ĠspÃ´sob ilo
av ky
Ġnajhor Å¡ie
v Ã´li
pa ce
ĠdÃ´leÅ¾i tÃ½ch
Ġz va
Ġmeto di
ro t
teÄ¾ ovi
Ġadvo kÃ¡
Ġmo le
nut Ã©ho
Ġregu la
Ġpr enie
DÃ´leÅ¾i tÃ©
Ġmo tÃŃv
ĠzÃ¡kaz nÃŃci
ĠBa y
ĠriaditeÄ¾ ka
dÃŃ Å¡
ĠobÄį ana
Ġprejav uje
Ġpred tym
Ġlokali ty
ÄĽ li
Ġpred o
Ġreak cii
ĠP ou
at ÃŃm
ĠvÄĽ ci
ĠblÃŃ zky
Ġokraj i
ktor Ã½
Ġnasledu jÃºce
Ġozbroj enÃ½ch
Ġtu ku
Ġre f
Ġum Ã½
Ġautoma ti
Ġk lie
Ġu Å¡i
Ġmnoh Ã½mi
ĠmÃ¡ lok
Ġvr stva
Ġspotre bu
Ġsval ov
chad za
Ġkm h
Ġkateg Ã³riÃŃ
ĠDob rÃ½
Ġnemo zem
Ġpoh Ä¾ade
ĠThom as
ĠvyÅ¡ Å¡ÃŃch
nÃº tra
ĠD as
Ġodbor e
Ġnepre tr
Ã¡va li
Ġm rav
Ġn ou
Ġw it
Ġport fÃ³
ĠpolÃŃ ciu
ĠraÅĪaj ky
ĠÄįerv enÃ©
Ġprav dou
Ġcest ovaÅ¥
Ġvyro biÅ¥
Ġro lu
bili ta
ĠOb Äįian
Ġno thing
g ne
u en
ujÃº cu
ĠÃº stre
Ã¡l ia
Ġpolicaj t
bo x
Ġpoku ty
Ġber iem
ĠSvet ovÃ©ho
Ġnemu sÃŃm
tÃŃ vou
Ġexe ku
ĠvÅ¡ eli
Chce la
Ġzne Äįist
ĠnÃ¡vrh om
Ġbo de
Ġposkyt nutie
Ġov ela
Ġvlast nÃŃctva
Ġsta rt
ĠNÃ¡rod nÃ©ho
Ġam p
ĠNi co
Ġbelie ve
Ġdoprav nÃ½ch
s ene
Ġmas Ã¡Å¾
Ġmobil nÃ½ch
ĠÅ¡o Å¡ov
Ġpre Å¡la
av u
Ġreali zÃ¡ciu
ĠmanÅ¾e la
Ġa dek
ĠBri ti
Ġu chovÃ¡
ĠaplikÃ¡ cia
Ġzav raÅ¾d
ĠvnÃŃma Å¥
tu rali
Ġpomo hla
Ġnorm Ã¡lnÃŃ
Ġspotre by
ĠdokÃ¡ zaÅ¥
Ġmimo chodom
Ġmis ie
z et
ĠH and
ĠtÃ© to
Ġpotreb nÃ½ch
Ġbohu Å¾el
hel sea
Ġko pa
Ġpam a
Ġcuk rov
zÃ¡ k
Ġnepotreb uje
Ð º
Ġhlas ovania
ĠvaÅ¡i m
Ġovplyv ÅĪuje
T voj
ĠÅł tÃ¡
ov ke
Ġosob Ã¡m
Ġsran du
ĠÃº kor
z ak
Ġpred sud
Ġmest skÃ©ho
ĠPÃ¡ na
B Y
Ġste reo
Ġ9 8
K li
ĠzvlÃ¡d nuÅ¥
Å¡ er
ĠÄį iny
j am
ujÃŃ cÃŃ
Ġstredi sko
ĠnemÃ´Å¾e te
Ġza via
Ġin vali
ĠD NA
ĠAf gan
rÃ¡ til
ĠUkraj in
ĠpovaÅ¾ ujem
h ru
Ġpohod lie
ĠAT P
Ġsla lom
Ġzran enie
Ġne um
ĠC am
Ġnepod por
Ġob klop
ĠblÃŃ Å¾ia
Ġra cion
len y
Ġsna hy
mi i
Ġchorob a
c eny
ĠM ist
ĠM el
Ġse c
Ġvy vo
Ġth ings
Ġb anÃŃ
ven ej
Ġmoder nej
Ġnez vy
ĠmÅķt vy
Ġo rch
Ġme te
Ġna tÃ¡
M as
ĠMH D
Ġabs urd
Ma x
ĠbalÃŃ k
ĠskÃº siÅ¥
Ġkomp ak
Ġmet al
Ob sahuje
Ġskla dÃ¡
be k
Ġu ce
Ġte h
ĠO ri
Ġbezpe Äįne
Ġko Å¾i
ĠskÃº ste
Na Å¡i
Ġniek daj
w i
teri Ã¡l
Ġrodin nÃ©
PÃ´vod ne
ĠzvÃŃÅ¥a zili
Ġpi va
Ġkle sla
Ġchce lo
Ġlo nd
Ġprekva pi
Ġod ÅĪ
nÃŃ n
Ġmine rÃ¡
Ġna o
ĠTalian sko
tÃ¡ ciÃŃ
Ġat ent
Ġpo stÃ¡v
ĠneskutoÄį ne
Ġho l
Ġu ÄįÃŃ
ced es
nut Ãº
O no
Ġnep amÃ¤
Ġdo drÅ¾
ĠMar ian
ĠbeÅ¾ nÃ½
Ġky b
nÃŃ koch
Ġd or
ĠC ou
Ġukon ÄįiÅ¥
rov om
ĠH ro
7 2
Ġzo stala
ĠtradÃŃ cie
Ġpres un
Ġlin ku
ĠmuÅ¾ stva
Ġa li
ĠvoÄ¾ no
Ġodvola nÃŃm
ck Ã©mu
Ġ5 000
Ġrodin nÃ©ho
Ġa rt
Ġpri delen
F ran
ĠsluÅ¡ nÃ©
ĠzvÃ½ raz
T M
Ġminister ka
Ġro ce
v la
Ġfa bri
Ġbaz Ã©n
h Ã¡ch
li nu
Ġdo klady
Vy zerÃ¡
Nech ce
Ġpozna tky
Ġdne ska
ĠÅ¡tÃ¡t na
ĠG Ã¡
Ġneby l
ĠS lova
ĠrozÅ¡ÃŃ riÅ¥
Ġbas y
Ġklu by
R ada
gie rung
Ġza cal
Ġsta via
ĠÄįÃŃ sel
ni ch
Ġma tu
Ġlac nejÅ¡ie
rov nÃ¡
ĠzvÃ½ Å¡ili
Ġpre ro
U pozor
ĠEurÃ³ pu
Ġzru Äįnosti
ĠS ol
ir d
ĠdÃŃ tÄĽ
Ġdo jde
ĠN IE
Ã¡ ky
ro ka
eli ng
ia li
te lit
ta v
Ġcha lan
ĠdiaÄ¾ ni
Ġch Ã´d
Ġnohavi ce
Ġrodi Äį
M oder
Ġjed lÃ¡
ĠG ener
ĠzÃ¡sob y
Ġnech ala
Ġpa y
ĠdaÅĪ ovÃ©ho
cho ol
Ġpotre ba
Ġpote Å¡ÃŃ
Å¡a me
c ud
Ġs klade
ĠÄįlov ÄĽ
Ġniektor e
ĠnaÅĪ ho
Ġos lÃ¡
po z
ĠnÃ¡boÅ¾ en
ĠV od
ten ej
Ġoble Äįenia
Äı ari
Ġkvali tnÃ©ho
Ġo tvÃ¡
ĠTe ch
Ġhypo te
Ġvodi Äįov
A J
Ġplo che
Ġslo bode
Ġjednotliv cov
ĠÅł ta
ĠznÃ¡ mky
ĠÅ¡irok Ãº
Postup ne
Ġrokov anie
Ġcuk or
u ch
Ġpod ni
Ġo rd
Ġprav Ã©
Ġvie l
Ġchrb Ã¡t
a Ä¾
ĠÃ´smi ch
Ġb ase
he ÅĪ
Ġpre ve
Ġtri Äįko
Å¡ nej
ĠzÃ¡ko ne
Ġobo hat
ĠvypoÄį u
sti li
Ġli ste
so cia
Ġpochyb nosti
nor od
Ġdob ÄĽ
ĠprokuratÃº ra
Ġvybud ovaÅ¥
z ovanej
Ġfar mÃ¡
ĠprevÃ¡dz ke
Ġaz da
um ber
Ġcen ou
ĠÅ¡portov cov
Ġk Äºb
Ġzo sil
ĠTÃ¡ to
Ġci ty
logick Ã©ho
Ġna stal
Ġdemokra ciu
Ġzmie Å¡
ĠkÄ¾ÃºÄį ovÃ©
t kou
Ġh ek
ĠvystÃºp enÃŃ
ĠG ri
Ġvie dla
K e
Ġod stÃºpiÅ¥
ĠO D
K do
t rie
ĠS kali
ĠBritÃ¡ nia
Ġvar ia
Ã³ri Ã¡ch
h nite
Ġra ket
U vi
ĠÃºsme vom
V id
Ġhlav nÃº
A mer
c nu
ĠvÃ½ hÄ¾adom
ĠÄ¾ub ovoÄ¾
ĠA tÃ©
Ġ7 3
ĠpÅĻed stav
ĠuÄįi telia
Ġodvola nie
Ġosvet lenie
eru za
ĠÅ¾en Ã¡m
ĠC er
k te
ĠnÃ¡ro ky
bali sti
Ġpodmien kami
Ġne co
ĠvÃ½ uÄį
ĠvÃ½bor nÃ©
Pav el
ĠtelevÃŃ zor
ÄĮi Å¾e
ĠkniÅ¾ nice
ĠAndre ja
Ġdo dr
Ġpri da
Ġtvor ba
ĠSK K
ĠpouÅ¾ÃŃ vanÃŃ
ĠÄįÃŃt anÃŃ
ĠNov ot
Ġchlap ca
Ġnep ovaÅ¾
Vy tvor
ĠAF D
ar da
hra li
Ġkon taj
pl ÅĪ
ĠÅ¡irok Ã©
Ġkvali fika
Ġo l
ĠprÃŃpad nÃ©
ra ni
Ġvznika jÃº
ĠdesaÅ¥ro Äįia
ĠÅ¡peciÃ¡l nych
ĠsluÅ¡ ne
ĠzvÃŃ Å¥azil
la dÃŃ
Ġreak ciu
Ġz Äıaleka
ĠÄ¾ Ãº
Ġbav iÅ¥
ĠkonkrÃ©t nych
Ġpri po
Ġden n
Ġnev ÄĽ
Ġr ÃŃ
Ġne Å¡lo
ĠU z
7 4
t no
ĠvÃŃÅ¥az om
ĠÅ¾iado stÃŃ
Ġpek nÃ¡
ĠÅ¡peci Ã¡lny
Ġskve lÃ¡
ĠÄĮapu tovÃ¡
Ġpl nenia
D neÅ¡
Ġsen zor
Ġza stÃ¡va
Ġ7 1
Ġorigin Ã¡lne
k rÃ¡
Å Ł
Ġviacer ÃŃ
Ġodo hrÃ¡
ob a
Ġdo sp
Ġsval y
Ġnepat rÃŃ
ĠnÃ¡ raz
Ġf ind
Ġdie ly
Ġkapaci ty
Ġda Å¾Äı
Ġvojensk Ã½ch
Ġpod loÅ¾
ĠsÃºstav y
Äį ovÃ©
Ġspod nej
Ġnecha pem
Ġkar iet
no dar
ĠnenÃ¡vi sti
ĠÅł tÃ¡t
Ġfak e
Ġhlas ovaÅ¥
Kone Äįne
ke ho
Ġo pu
ĠD ou
Ġdiploma cie
ĠK O
ĠPale stÃŃn
Å¡t andard
Ġrepubli ku
ĠSlovensk Ã©
Ġpat ent
Ġle vel
D aj
ĠinvestÃŃ ciÃŃ
Ġbez dom
ĠJ Ãº
Ã©ri u
fi c
6 8
f inÃ¡
s mu
S poj
Ġzamest nanie
ĠzÃ¡Å¾i tky
t enÃ¡
Ġatmosf Ã©ra
Ġne Å¾ia
Ġre ad
ĠinformÃ¡ cia
ĠS ar
Ġo pravu
Ġnechce li
Ġ3 000
Ġkon cept
Ġpres nÃ½
Ġza dÃ¡
Ġu mÃŃ
Ġdiskut ovaÅ¥
Ġin zer
ĠprÃŃ dav
ĠÅ¾ enou
Ġ7 4
ro ba
ĠTrna v
Ġhrd ina
ĠzaÄįia toÄį
mys li
Ġne ak
rejmo sÅ¥ou
p anÃŃ
Ġmie ra
jed naÅ¥
Ġvlast nom
Ġfak tor
Ġcel kovÃ©
Ġkvali fikov
f ond
ĠE s
Te le
ĠÅł koda
kuje me
x em
Ġpov st
Ġreali tu
sie k
le l
Ġov ce
S L
Ġstaro stu
ĠStan islav
Ġby tosti
Ġpo pra
ĠRad iÄį
Ġmy self
Ġjem nÃ©
ist u
Ġle sy
Ġnorm Ã¡lny
ĠvyuÅ¾i tia
ov ie
Ġnajlep Å¡iu
ĠvÃ½ hodu
Ġmobil nÃ©
hi te
Ġu dia
ĠbÃ½val Ã½ch
ĠT R
Ġreag uje
Ġzak ry
ĠN AS
Minul Ã½
Ġod Å¡tart
ÄĮ er
ik i
ĠsprÃ¡ vaÅ¥
aj i
ni ho
ĠhospodÃ¡r skej
w ie
Ġpsychia tri
Ġsa l
Ġrozhod nutÃŃm
Ġvytvor enÃ©
Ġcel Ã½m
mysle li
fa ch
Ġdl hy
Ġbu bli
Ġzd Ã´vod
Ġzab lo
X X
Ġsek cii
Ġc ra
ĠB Ã©
ĠnÃ¡z vu
O tvor
ĠvÃ½ pla
Ġvyv inu
Å¾ ke
ovan osÅ¥
Au to
Ġosob nÃ©ho
ja zde
ĠnÃ¡ rad
6 2
ĠÅ¡ty ria
Ġdoru Äįenia
ĠDzur inda
Ġpr ve
ÄįÃŃta jte
tiv nÃŃ
ĠbrÃ¡ ni
ĠspÃ½ taÅ¥
log ie
Ġkontaktu jte
Ġparame trov
ĠParÃŃ Å¾
Ġsyn te
vÃ¡dz kovateÄ¾
oz u
Ġkontak te
tu ra
t ova
ĠÄįier no
Ġkonzu mÃ¡
Ġvybav enÃ¡
sa mi
Äº ÅĪ
ovateÄ¾ nÃ©
ĠprÃŃznak y
rom ady
N Ãģ
hra de
Ġnov ÃŃn
Ġh nie
Ġmu ze
Ġak tÃŃvny
Ġni kam
ĠSt ud
Ġrado sÅ¥ou
Åłt ud
S E
Ġle Å¾ia
Ġpra cu
Ġsamo tnÃ¡
Ġbal enie
O v
vie b
ĠÄĮ SSD
z uju
Ġsp red
ĠMen schen
Ġo Å¾iv
vali t
enie k
ĠnajÃº speÅ¡
Ġprejav y
I Å¡lo
ĠpohÃ¡ ri
Ġne di
Z vyÅ¡
za mi
Ġan al
ĠzlepÅ¡ uje
Ġti py
Ġneo prÃ¡v
c ore
ĠvÃ½znam nÃ½ch
Ġch l
ĠzÃ¡ Å¥aÅ¾
Ġkomple t
gani stane
Ġtra sy
ca tion
Ġod chodu
Ġpam iat
Ġleho ty
Ġnaj vy
Ġvytvor ila
IC E
ĠP ovaÅ¾
ĠMar tine
dÃŃ l
Sy stÃ©m
s lÃ¡v
Ġmu st
Ġchor Ã´b
pla tky
Ġpra sk
Ġvra vel
ĠspevÃ¡ k
ĠbudÃº com
s ovÃ¡
Ġme an
ĠM B
ĠS Ãºd
Ġko Å¡ÃŃ
ĠÅ¾ u
Ġzni ÄįiÅ¥
Ġpis al
ĠsvÃ¤ tÃ©ho
sa me
Ġdis cipli
Ġpl nÃŃ
tivi ta
Ġsp Ã¤t
Ġsubjek tov
stre l
Ġmi lo
Si tu
ĠdÄºÅ¾ ku
D avid
Ġpodob u
Ġno hami
Ġzb ad
ĠF in
ĠPre zident
ĠnajvÃ¤Äį Å¡ej
Ġpou Å¾il
Ġplast ovÃ©
st rom
ĠJed no
M B
Å ĩ
Ġvply vu
Ġsome one
Ġpo kaz
Ġob Äįer
Ġm zda
ick Ã½mi
Ġ Å¥
ĠzakÃº piÅ¥
Ġb rz
for t
ov skÃ½
ia rd
Ġdov ie
Ġsk lÃ¡d
ĠÅ¡ li
ĠÅ¡ pr
Ġuvi dÃŃte
pis ov
Ġfareb nÃ½ch
overn ment
Ġt anie
Ġp li
Ġam bi
ta me
ĠS mo
ver u
pi cu
ĠurÄįi tÃ½
Ġzare ag
i zo
ĠoznÃ¡ menia
ĠdruÅ¾ stvo
bor u
ĠlieÄį be
Ġdopln kov
or en
ĠurÄį uje
Ġk lo
ĠzÃ¡ sahu
r ovat
at Ã©
lÃ³ gie
ĠSu lÃŃk
T vor
i me
Ġprie mysle
kla doch
Ġun ter
M O
ĠU EFA
pla n
ĠinfraÅ¡truktÃº ry
Ġpre staÅ¥
cov Ã©ho
ĠdoÄįas ne
ĠvÅ¡etk Ã©mu
Ġju sti
ist anu
Ġjaz diÅ¥
na u
ĠznÃ¡me ho
ty Å¡
Ġz je
ĠnedokÃ¡ zal
ĠB on
ĠO li
ĠAnd roid
Ġpro ced
Ġf et
Ġroz dÃ¡
Ġsvet ovÃ½
EN T
Ġpotvr diÅ¥
Ġod Å¡kod
ĠU l
ĠaplikÃ¡ ciÃŃ
Ġchla pÃŃ
ĠvÃ½raz nÃ©
P i
ĠvÃ½ch odu
Ġamerick om
tia v
ĠeurÃ³p sky
Ġo staÅ¥
Ġfar bÃ¡ch
ĠsÃºstre diÅ¥
Ġdoprav nej
Ġi stÃŃ
ĠS ne
Ġzaru Äįuje
Ġnariad enie
Ġkv Å¯li
Ġte sim
Ġsoli da
ĠF il
Ġzaujim ave
teÄ¾ nej
ĠspoloÄį en
Ġ7 9
Ġkuchy ÅĪa
p enia
ĠH ud
Ġpra ch
Ġaku mu
Ã¡ da
ĠA us
ĠG rand
Ġdozved el
Ġod vÃ¡Å¾
li g
beh nÃºÅ¥
Ġsk rÃ½va
Ġarg u
Å¾ nÃº
ĠÃº tul
ĠF ed
Ġ? !
ĠzÃºÄįast nil
Ġfot ke
Ġpali va
Ġkosto le
ci la
ĠÅ¾ia daÅ¥
R ober
Ġnemu si
Prie mer
or s
Ġsved e
Ġpre hodno
M am
Ġrovnak Ã©ho
Ġekonom ickÃ½ch
Ġsever nej
ĠskrÃ¡t ka
Ġpr ÃŃm
Ġodbor nÃŃk
Ġvy Ãº
Ã¤ n
Ġtri dsia
Ġne dÄĽ
Ġvz daÅ¥
ĠÃºlo he
Ġa way
bi skup
ĠÃºspeÅ¡ nÃ©
ĠÃºver u
Ġna vÃ½
Ġpla ce
V ra
Ġotra v
ĠvyrÃ¡ba Å¥
nÃŃ chov
Ġdej iny
Ġeli min
ĠstratÃ© gie
Ġod bera
ĠAf ganistane
ĠsvÄĽ t
Ġpos vÃ¤
ĠR ada
Ġfunk ÄįnÃ©
Ġstav ba
ĠpredchÃ¡dza jÃºceho
6 1
Ġdej inÃ¡ch
Ġaktivi tu
K rÃ¡t
ja zdu
ĠM O
Ġpa u
ĠVeÄ¾ kÃ½
Ġpo tÃ¡
Ġzach ovaÅ¥
ĠSlov ana
Ġp ÄĽk
Ġme ter
Ġhaj z
Ġzavola Å¥
ĠfrancÃºz skeho
ĠpÃ¡ pe
Ġm ani
Ġsektor e
Å¡ÃŃ me
pÃº Å¡Å¥
j en
Ġch leba
Ġg en
d m
bo lo
Ġkte rou
Ġfyzi k
Ġbrit skÃ½
Ġv stÃºpiÅ¥
ĠE N
Ġchvil u
ÄįÃŃ ka
v nu
ĠÅ¾ ene
ĠvÃ½ le
Ġsed el
ĠuÅ¾i toÄįnÃ©
Ġpo Äįia
pra vok
ĠspoloÄį nÃ½ch
Ġza viesÅ¥
ĠÄįlen skÃ©
Ġv celku
rob ÃŃ
ĠÅłe f
Ġdia lÃ³g
Ġgi ve
Ġt ed
pe u
nejÅ¡ÃŃ mi
Ġodmie tli
rÃ¡ m
Ġktore ho
ĠnÃ¡ lep
Äįas Å¥ou
E xist
Ġpo pie
ĠÄĮe ska
Ġmil Ã©
Ġne dajÃº
Ġhlav nÃ¡
k ovali
ĠoznÃ¡mi Å¥
ĠprÃŃsluÅ¡ nÃŃci
! ,
Ġpar f
Ġfut bale
Pre miÃ©r
Ġslov om
Ġpr ene
ĠprÃŃ Å¥aÅ¾
Å¾ia r
ber ta
Ġkona la
p ci
Ġpred poved
Zauj ÃŃma
ĠAmeric an
Ġpi ce
Ġpolo hy
ĠsÃºvis ia
ĠtÄĽ m
ĠÅ¡irok Ã½
Ġlep Å¡ia
Ġbla ck
Ġmoder nÃ½ch
Ġz vr
ĠLip Å¡i
ĠD re
Ġukon Äįil
Ne hovor
vej Å¡ie
Ġnedo stali
ĠI ch
Ġno senie
Ġz Å¯
ĠD y
Naj skÃ´r
Ġmlad Ã©ho
te lov
Ġja ze
ĠdivÃ¡ ci
Ġneza stav
Ġprekona Å¥
Ġbohat Ã©
so li
Ġsved ÄįÃŃ
Ð »
ĠB R
Ġna vo
ĠP RA
Ġfutbal u
ĠdÄºÅ¾ ke
ĠZ obraziÅ¥
BÃ½val Ã½
Ġkr va
mi lov
i dy
lÃ³ gia
Ġminu losÅ¥
ĠveÄįer u
ĠkÄ¾ÃºÄį ovÃ½ch
ba ck
ĠNem ci
Ġp iÅ¥
Ġza Ãºto
vo ÅĻ
Ġh nu
ĠÄįÃŃs lom
Ġob rat
ĠL GB
Ġna hne
Ġpri stÃ¡
ĠM ak
tu be
Ġre li
ĠsluÅ¡ nÃ½
sti ke
ĠK as
Ġsu me
ĠsÃºÄįas nÃ©
Ġterori zmu
Ġadvo kÃ¡t
Ġpred loÅ¾iÅ¥
Ġded in
Ġcha os
Ġpoved z
Äİal Å¡ou
Ġzbier ky
ĠW hat
Ġpad ne
ĠVolks wagen
Ġpopla tku
Ġkole m
ri sta
Ġzvu ku
Ġvz adu
ĠÅ¡tÃºdi ÃŃ
F ilm
Ġmed ic
ĠJu Å¾nej
ĠzabezpeÄį enia
Ġza ria
Ġjazy kom
ĠhovorÃŃ me
EurÃ³p ska
l iad
Ġvacs inou
Ġminu le
ĠvyvolÃ¡ va
Ġuzav rel
Ġpria me
ĠÄ¾ avej
Ġvy le
Ġsam Ã©ho
ĠzhromaÅ¾d enia
Ġkonkre tne
Ġbohat Ã½
ĠN ot
Ġstrie da
Vo Ä¾
r ent
a z
G u
U kÃ¡
In ter
Ġdik ta
Ġvad ÃŃ
Ġkro kov
ĠurÄį enÃ½ch
len Ãº
Ġkor e
Ġzdravot nÃ©ho
Ġautor om
ĠÃºÅ¾as nÃ½
Ġangli ckÃ©ho
Ġkriti ku
Ġprehliad ky
Ġli bier
Ne z
Ã¡ Å¾e
Ġprofe si
la j
Ġst ene
Ġna ruÅ¡
Ġpen is
ĠpoznÃ¡ te
ĠS en
ĠsprÃ¡v nom
Ġme l
Ġkvali tne
Ġfak torov
Mo Å¾nosÅ¥
ĠmoÅ¾ nÃ½ch
Ġkan ali
ĠvzrÃ¡ stol
ĠnieÄįo ho
Ġpla tnÃ©
Äįa me
ĠskÃºÅ¡ ob
s mer
7 9
ĠtrÃ¡ pi
pracov al
Ġsta vieb
VÃ½ rob
Ġtrie da
Ġz vola
Ġpis at
Ġdo Å¾ivot
Ġsp rost
Å½ iaÄ¾
Äįat Ã¡
Ġka pu
Ġmnoh Ã½m
Ġvy Äįlen
ĠzdravotnÃŃ ckych
Ġpri klad
Ġci tat
Ġtalian skej
ĠÃºÄįin nÃ©
Ġpoze ral
ĠCh me
a NO
ĠzÃ¡ klady
Ġcent ov
T ÃŃm
Ġkur zy
U ni
c to
Ġal ways
Ġu menÃŃ
ri ta
Ġsu k
ĠBar dej
ĠLe o
li o
Ġpre po
Ġda va
s ing
Ġpodmien kou
ĠlekÃ¡ rom
ĠzÃ¡ bava
ĠS port
ĠN at
ĠchÃ½ba jÃº
w ord
la h
Ġspo u
A p
ĠobrÃ¡ zku
Ã¡ ni
ni ct
Ġobmedz enie
Ġpre cÃŃ
Ġpr vo
Ġotvor enÃ¡
ĠzÃ¡ su
it om
ĠÃº tva
Ġdet stva
ch Ã©
ĠmanÅ¾el kou
Ġv pred
ĠNÃ¡rod nÃ¡
Ġvra Å¾d
ã Ĥ
Ġo stal
ĠLea gue
Ġvyd ania
Ġmoz g
00 00
Ġdostup nÃ½ch
Ġpre t
Ġdostane m
stup nÃ©
Ġvacs ina
Ġele ment
Ġsta rom
Ġtvrd enie
Ġdo o
Äį ovaÅ¥
Ġ8 2
ĠvÄĽt Å¡ÃŃ
S Ã¡m
Ġspoj enÃ½ch
Ġozna Äįuje
Ġo stali
zia Å¥
5 9
Ġpria teÄ¾a
ĠV iet
Ġse pa
ĠnÃ¡sil ie
ĠprÃŃ Äįin
ĠP M
S lu
ĠL is
ĠspoloÄįensk Ã©
t Ã³n
ĠPet ro
Ġf b
Ġpri dÃ¡va
ĠkÃº pila
Ġved omo
ĠKo ne
Ġverej nÃ½
ĠpolÃŃ cii
gra mov
Ġok ruh
ĠopÃ½ taÅ¥
Ġsmart f
Ġde al
ĠzÃ¡klad nÃ½
S tan
Ġpercen to
Ġzaved enie
ĠuloÅ¾ enÃ©
Ġpen ÄĽ
Ġt wo
The re
Ġza vi
Ġdokon alÃ½
ĠMicha ela
Ġdl Å¾
al th
Ġd no
Ġbran kÃ¡ra
Ġpozna jÃº
z vu
Ġzauj me
rov ol
bez pe
Ġtoti z
ĠT AK
Ġu nik
Ġch lieb
Ġtajom stvo
Äį ier
Ġpr vok
ĠSI S
Ġle sov
ĠnenÃ¡vi sÅ¥
al ny
Ġbrit skej
m Ã³
ĠS ara
ĠnÃ¡ hle
Osob ne
5 8
Ġst vr
ĠprÃŃ zem
Ġmest skÃ½ch
ĠÄĮech Ã¡ch
Ã´ h
Ġte Ã³rie
Ġpr ovi
nom oc
Å¡ kovÃ¡
Å¥ at
V raj
ne tu
van Ã½m
Ġpre pravu
R Ã¡d
Ġsmr Å¥ou
Ġvy znamen
Ġex teri
NÃ¡ rod
Ġk ind
ĠÄįaro dej
Ġdoprav nÃ©
Z av
Ġzad ku
lie s
ĠstÃ¡ tnÃŃ
6 9
ĠmetÃ³ da
Ġpal ub
ĠterÃ© ne
Ġper y
Ġko les
Ġle tu
E lekt
ke te
Ġf ull
ĠnÃ¡ ma
Ġpokro Äįil
Ġpohla via
s nÃ©
Ġnevie Å¡
Ġrad ov
Ġprispe vok
Ġkorup cie
Ġdob ru
ĠvÃŃ rus
om en
Ġr Å¯
OV EN
p ta
ĠÄįe sÅ¥
r Ã³m
Prav da
Ġlond Ã½n
Ġfesti vale
D er
Ġf ik
Ġkav iar
Ġsu hlasim
Ġpia t
B N
An na
Ġne ur
Äį am
O by
kov Ã½mi
ĠkÃ¡ b
sled nom
ĠpolÄįas e
ĠvÃ½ stava
Ġfyzi ckÃ©
Ġfilozo fi
ĠC helsea
se f
ĠprÃŃro da
Ġsp res
Ġod tr
Ġlibe ral
pozÃŃ cie
Kni ha
Ġdo t
S A
Å¾ nosti
ĠÄįia st
Ġlo go
Ġra dia
5 2
ĠpÃ¡ ÄįiÅ¥
Ġkar ta
Ã¡ val
Ġnes ed
sta jÃº
Ju raj
ĠT E
Ġroz vin
Ġpamia tok
Ġnie kolko
Ġna stÃ¡va
Ġmari hu
ÃŃ Å¾
Ġtr Ãº
ĠreÅ¾i me
Ġko nali
Å¡t ie
Ġdoes nt
Ġb ili
zd ra
v nym
Ġp un
ĠpÃ½ taÅ¥
ĠzÃ¡chra nu
Ġprud ko
zra el
ĠTat rÃ¡ch
ĠVÃ¡c lav
ni Äį
Ġhlad inu
isla va
ĠÅ¾i vÃ©
ĠzÃ¡stup cu
ĠMe Äįiar
ĠRad o
an och
Ġvz ruÅ¡
ĠvÃ´ ÅĪu
à ¸
Ġekonomi cky
ĠM ul
Ġprie Äįku
ĠproblÃ© moch
Ġst Ã¡vajÃº
And rej
ĠÅ¤ a
Ġsposob om
m b
Ġf ÃŃn
Ġkup ujÃºcemu
Ġk lÃŃm
ci mi
Ġprejav u
Ġpozd rav
Ġrom Ã¡n
Ġpo in
Ġs ha
Ġkole govia
Ġdoz viete
ĠpoÅ¡ ty
ĠpÃ´vod nÃ½
ĠPat ri
ĠnebezpeÄį enstvo
Ġpredstav enie
Ġnad via
P O
ĠpÅĻe ce
Ġhlas ovanie
id s
Ġle ten
j ou
ov ek
ty p
By t
Ġbal enia
Ġbratislav skom
cia n
Ho tel
Ġdoh romady
Ã¡ kom
Ġzran enÃ½ch
T omu
ariad enie
Ġci tr
ĠL SNS
Ġvla ky
Ġokolit Ã½ch
Ġh us
Ġved ec
Ġnapro sto
Ġu sed
Ġkr Äį
ĠÅ¡tud ovaÅ¥
t ovala
Ġzi mu
ĠT an
Ġpoved om
Ġs ni
am y
ĠVide o
sti ne
si ble
Ġobraz y
rom e
Ġtr Å¾
Ġostat ne
Ġwe iter
ee e
ĠV Z
Ġmoder nÃ½
Ġmo hut
depodob ne
ĠF ot
Ġber Ãº
Ġzamera nÃ½
ĠI stan
Ġrozhod ovali
ĠveÄ¾k Ã½mi
rÃ¡ Å¾d
Ġpas ÃŃ
ĠÅ¡ Ä¾ach
to le
Ġpre c
Pri prav
ĠsÃŃ dla
ĠPres ne
Ġist Ã©ho
ĠA ra
Ġstabili tu
Z ad
ĠzamestnÃ¡ vateÄ¾a
C A
Ġna si
Ġhod ne
ĠvzÅ¥a hoch
ĠG old
Ġodpov ÄĽ
Ġchy t
Ġsa u
Ġla j
Ġsy nd
ĠnajvyÅ¡ Å¡iu
Ġhor sie
ĠkritÃ©ri Ã¡
Ġbasket bal
Ġmal y
Ġkom pati
ĠvÃ½znam nÃ½
Ce lÃ¡
d akujem
Ġne mi
Ġby ste
Ġku ri
Ġfar bou
na s
ĠvÃ½ sky
stÃŃ k
Ġre cyk
ĠobrÃ¡ tiÅ¥
Ġro du
sk ovi
hnu tÃ¡
S M
Å½i vot
k ÃŃ
ĠvÃ½ch ov
Ġca re
Ġkde koÄ¾vek
ĠpÃŃÅ¡e te
Ġpra va
Ġpotreb ovali
to li
Zuz ana
Ġspolo cnosti
ĠvraÅ¾ du
D ve
Ġter Ã©n
ĠzÃ¡ p
Ġzm Ã¤
R ia
ĠdÃ´ kladne
K ar
Ġporad enstvo
ĠP lus
Ġinforma ÄįnÃ½ch
ĠnÃ¡pad y
ĠA da
K ur
Ġkam pani
Ġdo nÃº
Ġbi bli
Ġu Å¡
ĠfrancÃºz skej
I F
Ġsm rad
Ġda vat
ĠÅ¡irok ej
Ġkot leb
Ġu vÃ¡dz
Ġc le
Ġmla di
Ġlogi cky
Ġdis ple
Ġsu re
Ġkontra kt
Ġroz pra
Ġza Å¾iÅ¥
Ġty to
Ġsob ÄĽ
ĠÅł tiav
Ġvoleb nej
ĠÄįe skÃ¡
m ing
ra de
oro na
Ġne in
Ġzby tocne
Ġza Å¾il
Ġna tia
sta ÅĪ
en cie
ĠnÃ¡rod nÃ½
ÅĪ ovÃ½
c ul
Ġo Å¾i
sk ut
Ġsp oru
Ġku f
Ġprote sty
Ġzm rz
ZÃ¡ kaz
ĠschvÃ¡ lil
Ġpre klada
ĠpÅĻÃŃpad ÄĽ
Ġke ep
ĠIsla nd
zÃ¡ n
Ne ved
Ġsna Å¾ila
Ġpamia tky
necha Å¥
ĠS lÃ¡
ĠHu men
h ni
Ver ba
Ġstredi ska
gi ne
Ġspom enÃºÅ¥
Ġblbo st
Ġod vo
ĠpoÄįÃŃta Å¥
Ġv le
Ġvybav enia
ĠÅ¡ampion Ã¡te
Ġi mu
Ġfav orit
Mimo chodom
len i
Äį inu
ĠG eld
pÃŃ sali
Ġteplo te
Ġopis uje
SlovÃ¡ ci
ĠÃº very
Ġtvoj om
ĠE lekt
Mo hli
ĠzÃ¡klad ne
Ġposlan com
Ġgre at
Ġ12 00
ri ca
TakÃ½ to
ĠJa ne
in om
g ene
Ġne je
ĠminÃº tach
Ġci slo
ĠnezÃ¡vis losÅ¥
Ġjedine ÄįnÃ½
Sta r
Ġzach ovanie
ĠÅ¡kol skÃ½ch
Ġma tku
pi ce
chÃ¡dza jÃº
lo stÃŃ
Ġdov ol
Ġreg ul
ĠI de
ĠG aj
ĠAn ton
li Äį
Ġpek ny
à ¤
je ct
Ġspo znaÅ¥
Ġp ud
Ġby dli
ĠK ing
ĠprÃŃ ru
Ġov zdu
ĠTe pli
Ġpodla hy
tkov om
ent lich
ĠscenÃ¡ r
Ãº Ãº
Ġneob medz
Ġzved avÃ½
Ġsto j
ĠvystÃºp enia
Ä¾a vo
Ġpocho pili
ÃŃ nov
Ġstia hnutie
de re
ĠU h
ĠÅł te
Ġseptem ber
Ġmon tÃ¡
Ġbez od
ĠponÃºk ne
ĠT im
ĠnezÃ¡ kon
Ġza rov
Ġzre konÅ¡tru
Ġvy die
Ġhud be
Ġs kol
ĠÅ¡portov ej
w ell
Ġkvali tou
ĠstrÃ¡v il
Ġregi Ã³n
ĠprÃŃÄį iny
ĠprijÃŃm aÅ¥
Ġstra tila
Ġli stu
Ġdc Ã©ru
ku la
ĠM I
Ġobjek ty
hl b
Ġmod i
Ġdvoj hry
Ã³ th
Ġhistori cky
ter Ã©
ĠnÃ¡vrh ov
K upujÃºci
pro ste
Ġcla nok
Ġod vody
ĠdÃ¡ my
Ġre fer
ĠÅł pe
ch te
nÃ¡ k
ĠbudÃº cich
Ġkapaci tou
ĠkancelÃ¡ ria
ĠtÃ¡ bora
ĠtrÃ¡ via
ist om
ĠK el
tov ie
Ġnaroden iny
Ġkon trak
Ġkr k
y es
Ġspoj enÃ¡
Ġmosli mov
ĠAfri ke
Ġk no
Ġpot ia
Ġspokoj nosÅ¥
Ġw ont
Ġv ku
ĠPar k
be it
B u
Ġdo cela
Ã¡ ne
Ġju Å¾nej
ĠdiaÄ¾ nice
Bo Å¾e
Ġvy Äįi
ĠnajvÃ¤Äį Å¡ieho
men ÃŃm
ĠpÅĻÃŃ spÄĽ
Ofi ciÃ¡lna
Ġzo stalo
Ġbez platnÃ©
Ġuved enÃ©ho
Kdy by
Ġce s
Ġjedno raz
Ġpal ube
Ġopat renie
ĠnÃ¡ sledok
ĠUniverzi ty
Ġnech ty
ro ÄįnÃº
ena u
ĠÅ¥aÅ¾ko sti
Ġsty ku
ĠM Ãº
Ġm and
Dod al
nÃ¡sob ne
Ġbrat ia
Ġvyd anÃŃ
ĠvÄĽ c
g ni
ĠproblÃ© mami
ĠN ovom
ĠÃºspe chy
ĠobÄįer stv
D Y
Ġpo hovor
Ġdve rami
Ġstra vu
Ne s
Ġtr hov
Ġne op
Ġdefi cit
del nÃŃk
Ġpo int
t nejÅ¡ie
ĠvÃ½z va
R ich
Ġam ne
Ġu jsÅ¥
Ġdo kaze
ĠdneÅ¡ nÃ½ch
Ġtla Äįe
ĠzÃºÄįast nilo
ĠÄ¾ud skÃ½
ro dy
vie w
Ġvi c
mi ene
ĠJ os
Ġdc Ã©ry
Ġnemoc nÃŃc
Ġvy Å¡li
Ġle gi
Ġpu k
ĠLi verpo
Ġneu spe
ĠobÄįian skej
ch la
ra cie
ĠJ A
Ġzv Ã¤ÄįÅ¡
ri p
Ġsi m
Ġpercent Ã¡
Ġka ra
L ÃŃ
Ġpo rozu
Ġbud ovu
ĠnapÃ¤ tia
ĠsamosprÃ¡ vneho
Po slanci
Ġdop ria
ĠnÄĽjak Ã©
Ã½ bal
ĠBo Å¾ÃŃ
vi ca
ĠstrÃ¡ viÅ¥
ĠÅ¡ ed
Ġst rop
Ġbie leho
ĠnÃ¡vÅ¡tev nÃŃci
m rt
Ġroz kaz
ĠnÃ¡ dr
Ġza mÄĽ
ed it
Ġrozhod lo
Ġdlh Ã½ch
Ġzamest nania
Ġvel ka
Ġtrest nÃ½ch
Ġzahrani ÄįnÃ©
Ġnaj radÅ¡ej
Ġma p
ig it
sti val
Ġpomo ct
Ġex tre
ĠzÃ¡vÃ¤ zky
Ġpobre Å¾ÃŃ
ĠS H
Ã¶ l
Ġpriemer nÃ½
ĠD el
Ġpri dali
Ġnep Ã´jde
Ġmlad Å¡ÃŃ
ĠzÃ¡sad y
Ġpok rok
ĠplÃ¡ Å¾i
Ġnech aj
ĠH as
Ġeuro fond
Ġvyvin ut
Ġb tw
Ġnespra vod
Ġved cov
K vÃ´li
ĠsÃºvis iacich
Ġinicia tÃŃvy
chy l
ĠpoÅ¡ le
c ta
ĠÅł u
ĠU hor
Ġjedno tku
ĠC as
ĠinÃ¡ Äį
ĠvÅ¡eobec nÃ©
ĠrÃ¡ sÅ¥
Ġre mÃŃ
Ġvi Äı
Ġdre am
Ġf ana
Ġob il
Po Ä¾
Ġrodi Äįmi
ĠdomÃ¡ cim
Ġpre hrÃ¡va
Ġzachy tÃ¡
ĠsoftvÃ© r
ĠVladimÃŃ ra
Ġne dÃ¡va
Ġsvet lom
oo o
ĠuskutoÄį nila
Ġabsolv ovaÅ¥
c or
ĠInd ia
Ġga stro
ĠprÃ¡vomo ci
Ġpo sko
Ã³nov Ã©
ie ri
Ġk ori
em p
ĠvzÅ¥ah uje
Ġd urch
Ġpla stov
ĠKali ÅĪÃ¡k
st nÃ©ho
we en
hne te
Ġosla vy
Ġkazde ho
ĠpÃ´ dohospodÃ¡r
ĠSa ud
ĠÄįÃŃ sle
ĠÅł tr
Ġb rÃº
me trov
Ġ _
lo per
Ġnarod enÃŃ
Ġop ÃŃ
ĠvÅ¡ i
Rad Å¡ej
Ġfarma ceu
Ġpodie lu
N ÃĿ
ĠspoloÄį enstva
ĠpÅĻ ÃŃm
Ġg rand
Ġalkoho li
b r
Ġkles Ã¡
ĠurÄįi tÃº
Ġodi Å¡li
Ġvyvr cho
Ġdrev enÃ©
g nÃ¡
ĠznÃŃ Å¾il
ĠB ed
Ġdal sich
Ġim pul
ĠTak Å¾e
Ġznak y
Ġnedostat ku
Chce Å¡
ĠpochÃ¡dza jÃº
Ġvyu Å¾ili
Ġnedo sia
ĠkÄ¾ud ne
Ġzverej nenÃ©
Tak Ã¡
Ġver im
Ġma fia
Ġin okedy
ĠzaujÃŃmav Ã¡
Po pri
Ġjed iny
Ġzvo lenÃ½
Ġneva di
ĠkÃº pu
Ġhrani ciach
Ġz rozumi
Ġposled ne
min Ãº
Ġdie Å¥at
ĠkrÃ¡ su
Ġvy chy
rÃ¡Å¾ ky
ĠBra ni
in en
ĠkonÅ¡truk cia
ĠpoÄįÃŃta Äįi
Ġnaj pre
ĠorganizÃ¡ tori
Pomo cou
Ved enie
Ġzist ÃŃ
Ġvola l
ÃŃ ky
Ġzlo de
Ġzapla til
stick e
Ġpri siel
ĠprihlÃ¡ s
ĠGrÃ© cko
ier ka
Ġneho de
ne chÃ¡
Ġle tnÃ©
5 4
Cel Ã©
Ġdo pra
Ġpek lo
lÃ¡ ciou
ĠV iac
c ti
Ġtvor ili
Ġlieta dlÃ¡
ĠblÃŃ zkych
l ovat
Ġam bas
Ġza ÄįÃŃ
Ġco ho
razi lo
len om
Ġfir mou
ci st
Ġnepred stav
ĠAmeri ca
ĠW olf
on der
sti t
Ġin tu
ĠÃº sek
Ġri tu
Ġo hodno
Ã¡ ny
Ġe ar
Å¤ aÅ¾
ĠvnÃºtor nej
d ro
ĠCh am
ĠJapon sku
ĠMi loÅ¡
D is
ĠÄįe liÅ¥
Ġnejake ho
Ġnen av
Ġdiscip lÃŃ
Ġpovin nÃ¡
V Å¡ak
st Ã³n
Ġodovz daÅ¥
ĠobÄ¾Ãºb enÃ½
Ġpreda va
ĠZ Ã¡m
rod il
Pred tÃ½m
Ġna hor
ĠkÃºpeÄ¾ ÅĪa
5 1
Ġniek Ã½m
Ġposky tol
5 6
ĠBo j
Ġhlad iny
ĠÃºdrÅ¾ bu
ĠÄįin nosÅ¥ou
Äį ou
Ġzna Äįkou
ĠBe le
ĠC u
f es
Ġprie chod
ĠdÄºÅ¾ ky
Ġdebat y
Ġtvoj ich
Ġminul Ã½ch
g ej
Ġev aku
Ġvy pra
ĠpÃ´jde m
ĠÄįita teÄ¾ov
ĠpodpÃŃ sali
pÃŃ sala
ĠTo poÄ¾
Ġpome re
ĠT his
vie me
l Ã´Å¾
ĠprÃŃstup om
Ġvz ta
teÄ¾ nÃ©ho
Ġdoty k
he ad
Ã¡va me
ĠtrÃ©ne rom
ĠzadrÅ¾ ali
ĠskonÅ¡ta toval
um an
Ġprete kÃ¡r
ĠpÃ¡ nom
Ġzdravot nÃ½
ĠB ou
Ġod pust
Ġcent rom
ĠdÃ´leÅ¾i tÃº
Ġkoko s
ĠÅ¾iad nej
Ġsitu Ã¡ciÃ¡ch
Ġrakov iny
Ã¡ ku
Ġboj ovali
ĠkultÃº ra
ĠRe gierung
z ard
Ġspom enie
Ġseni or
ĠnÃŃ zka
Ġza slu
5 7
ĠzostÃ¡va jÃº
kov anÃŃ
ĠpÃ´sob nosti
Ġtex tov
Ġprepoj enie
tel nÃ©
Ġvyjad rovaÅ¥
Ġry bÃ¡r
ĠJ eruza
Ġaud io
Ġano ther
Ġmoder Ã¡tor
Ġi leg
Ġpredme tu
ĠdokÃ¡Å¾e me
at ov
Ġmaji teÄ¾ov
Ġpravdepodob nÃ©
Ġspo ji
Ġnes mÃº
Ġkole gy
Ġbicy kel
Ġim port
Ġhudob nÃ½
Ġpostup ovaÅ¥
ni cka
Ġ0 8
Ġzacia tku
Mich a
Ġk ober
Ġlen Å¾e
ro zÃŃ
ĠniÅ¾ Å¡ia
l Ã½mi
Ġpres vied
Ġst ried
Ġca sti
Ġnasled uje
i da
af ri
Ġkre a
Ġo stro
ta rd
ĠnovinÃ¡ rom
fikÃ¡ ciu
Ġle Å¾
Ġzd rÅ¾
vÃŃ me
Ġnav iac
vi Äį
ĠA la
Ġautomobil ky
N ic
ĠK dy
ĠÅ¡tÃ¡t mi
ktor Ã©
beh lo
Ġprija la
ĠkamarÃ¡ tov
ni me
Ġdlh Å¡iu
Ġklasi ckÃ½
ch al
Å¥a ch
be rok
Ġpusti Å¥
ĠpouÅ¾ÃŃ vanÃ©
Ġin Å¡truk
Äįo ho
H y
Ġpre stal
Ġformu lÃ¡r
Å¾ iad
Ġkre di
Å¾ me
Ġi neho
ĠvÃ¤z enÃŃ
R U
Å¡ kom
Ġzme si
Med zinÃ¡rod
ĠÄįist Ã¡
Ġfil ter
Ġmlad Ã½m
ĠzÃ¡ pa
Ġsmer uje
Ġurob ia
Ġzobraz enie
ĠspoloÄį nÃº
Ġsled ovanie
Ġpodrob nosti
Ġvy poÄįÃŃta
Ġko lÃ³
Ġvla dy
ĠzÃ¡uj mom
rÃ¡ tor
Ġna co
Ġtr va
ĠtÃ½ka jÃº
Ġlegisla tÃŃvy
ĠnavÅ¡tÃŃv il
ĠvÃ´ le
Äİal Å¡ia
ov ec
Ġelektri ckÃ©
stÃºp ia
Ġsrd com
Ġfo ra
Ġdota z
Ġsko ly
Ġsku rv
ĠnajrÃ½ch lejÅ¡ie
hlÃ¡ sil
Ġped o
Ġkam ene
ĠzÃ¡klad nÃº
Ñ ı
Ġazy l
o le
ĠL om
200 5
Ġzhroma Å¾Äı
ĠobÄįian ske
ĠneprÃŃjem nÃ©
Ġbe Å¾e
ĠzÄ¾ avy
ĠO H
Ġus mer
ĠA rÃ¡
Ġku ku
od aj
Ġkup ovaÅ¥
Ġga rant
Mo hol
Ġproduk cia
Ġga y
Ġsve to
ĠÅ¾ a
Pre dÃ¡vajÃºci
Ġotvor ÃŃ
ĠblÃŃ Å¾i
n ian
Ġmaje t
ĠS l
Ġkompet ent
Ġote st
Ġvy sku
ch ut
Ġkoord inÃ¡
Ġobsad il
pre co
ĠF ia
ĠnÃ¡vÅ¡te va
ĠbÃ½ vania
ĠvÃ½ klad
ĠC eny
Ġla ng
Nej de
Ġtak Ã½mi
ĠzÃ¡ pade
Ġpohy be
Ġpia ty
ĠAn ti
ĠstÃ¡ tu
Ġnovem ber
ĠznÃ¡me j
ĠUkraj ina
Ġop ÄĽt
Åł p
v enÃ©
D et
mov Ã½
Ġro ÄįnÃ½
ĠmÃ¼ ssen
ĠG y
Ġpostup om
mu jÃº
Ġpar t
Ä¾ ak
Ġregi Ã³nov
ĠsÃº dy
Ġoby caj
Ġstret la
Ġz rad
ĠrÃ¡ z
ĠpredÄºÅ¾ enÃŃ
Ġfa ce
ĠuskutoÄį nilo
Ä¾ al
Ġma mu
ĠdruÅ¾ stiev
ania ch
Ġsmu tne
O znÃ¡
Ġeine r
Ġin ou
Ġbel g
ĠA rch
ĠnÃ¡ku pu
M er
b st
ĠreÅ¡pekt ovaÅ¥
hov ia
ov od
Ġodd Ã½ch
Ġvy mie
bor y
Ġpripoj iÅ¥
Ġsta ry
Ġdan Ã©ho
ĠO B
M Ã´Å¾u
ĠdÃ´kaz om
Ġodvola Å¥
ĠÅĻek l
Ġmys lenia
Ġcho le
ĠÅ¾elezni Äįnej
Ġved u
ĠnechÃ¡ pem
Ġcest ovanie
ĠnÃ¡ mie
Ġilu strÃ¡
ÅĪ am
Ġlac nÃ©
S kupina
ĠprÃ¡v nej
ĠlÃŃd rom
Ġagre si
stÃ¡v ke
z enie
Ġra ting
ĠTat ra
ĠvzÃ¡jom ne
Ġsl zy
Ġvybav iÅ¥
ĠG ood
ĠRuÅ¾om ber
ĠK de
Ġnedosta toÄį
f tu
Ġvo ci
fe sion
Ġver di
Ġminister stve
en g
od ob
ĠÅ¡portov Ã½
Ġvysiela nie
Ġnaz bie
Ġanti o
Ġvoli l
Ġpripra vila
Ġpolo he
Ġpomer y
ĠÅ¡truktÃº ru
Ġhra Äįky
j my
ĠpÃŃs men
ĠC hu
Mno hÃ©
Ġos voj
ĠÄįÃŃ tal
ĠÄįi p
Ġok rÃº
Ġvychut naÅ¥
ier t
ĠmÄĽ sÃŃ
ĠsÃºhla sÃŃ
Ji ÅĻÃŃ
nu jÃº
ĠzaujÃŃm aÅ¥
ĠOÄ½ aNO
B al
up a
tel ny
Ġskor ump
Ġel se
ĠP Ãº
c la
Ġsil no
Ġspra vila
b ÃŃn
Ġm zdu
Ġkam os
ÃŃ ka
Ġpre konÃ¡
Ġg eno
ĠvyÅ¾ad ujÃº
ĠlÃŃd rov
Ġw el
Ġob lÃº
res s
ara bin
Ġhas iÄį
A ber
ci ta
Ġprofesion Ã¡lny
Ġod rÃ¡Å¾a
ĠMi ke
Ġvod nÃ½ch
Ġstredo po
d on
Ġpot ru
Ġniektor Ã½
Ġprin ci
vÃ¡ nÃŃ
ĠPo wer
ĠnÃ¡zor ov
Ġpla tov
Ġide o
Vie me
Ġsie Å¥ach
ĠAn dy
Ġco Å¾
Ġpria mom
Ġra ke
Ġuplat nenie
Ġstre su
Bo h
Ġfotoa parÃ¡
Ġpredpis y
ĠÄįerv enÃ¡
ĠvÃŃÅ¥az stva
Ġjed nÃ©mu
stick om
T ur
Ġtre tine
Ġporad ie
Ġroz to
Å¾e t
Ġpred lÅ¾
ĠnedokÃ¡ zali
je s
A Å¥
Ġod raz
Ġbo z
Ġmie rou
ĠBarcelo na
Ã¡lne mu
pu lÃ¡r
ĠÅ¥aÅ¾ kÃ½
olÃ³ govia
ĠAlex andra
Ġslobod ne
h nutia
Ġre Å¥a
ĠI C
ĠrÃ¡ mec
ĠBar to
Ġko tle
ĠkonkrÃ©t ny
Ã¡ le
cky m
Ġposil nenie
ĠdneÅ¡ nÃ©
Ġmik rov
Ġvy pÃ¡
Ġzdravot nÃŃctvo
b b
ĠZ im
den Ã©ho
Ġin Å¡tru
ĠD voj
Ġsko la
ĠAmeriÄį ania
Ġpostav enÃ¡
Ġv ase
Ä¾ mi
hod l
me li
Ġno hu
Ġprie stup
Ġdvor e
Ġde sat
Ġabs or
Äį ovanie
ĠSo ciÃ¡l
s nej
Ġlete ckej
ĠjÃº n
ĠzloÅ¾ ka
Ġchala ni
Ġne isto
ti kÃ¡n
ĠA K
Ġru mun
Ġdik tÃ¡
Ġod stÃºpenie
Ġprev ziaÅ¥
ĠDan ka
Ġeta py
Ġkone ÄįnÄĽ
C hod
ĠspevÃ¡ Äįka
Ġte am
ier en
Ġm Å¯
Ġpochop enie
Ġvy ko
Ġvoleb nÃ©ho
Ġtvr diÅ¥
Ġodmie tla
Ġk ard
Ġhospi tali
Pod por
Ġnevy jad
Ġevid entne
Ġpredstav it
Ġkontrover z
ĠrÃ´z norod
ĠpoloÅ¾ ky
c ok
Ġstred nÃ©
Ġnena padlo
i teÄ¾a
ĠP enta
F inan
ĠaprÃŃ l
U ved
ĠÅ¥aÅ¾ kÃ½ch
ĠnegatÃŃ vny
Ġprezent ovaÅ¥
razÃŃ l
Ġt roma
ĠÄ¾ud ovej
e lo
Ġb ob
ĠS tali
ĠI r
ĠUniver sity
C on
Ġe sen
Ġpravidel nÃ©
c nej
Ġtra u
Ob chod
Ġot cov
Ġro ÄįnÃ©
ĠneuveriteÄ¾ ne
Ġpoku sy
Ġvy pis
Ġpotrav inÃ¡r
Ġdid nt
Ġokre su
Å¡ nÃŃ
Ġvra h
ĠdodÃ¡va teÄ¾ov
Ġsed ia
Ġproduk ciu
ĠvÃ½stav be
Pok raÄį
ĠzÃŃska va
Ã¼ l
Ġ8 4
Ġvl na
Ġdopl niÅ¥
ĠvÃ½ hra
Ġnevi dela
Ġv ti
Ġfyzi ckÃ¡
Nebo lo
Ġnasled ovaÅ¥
Ġkolek cie
Ġdo pla
ter y
ĠnechÃ¡ me
Ġsurov ÃŃn
Äį anom
nÃ¡ ri
ĠB ene
Ġeuro po
Ġin a
ĠB us
Ġge gen
Ġcel kovÃ¡
Ġten ist
Ġkapaci tu
Ġvyu Å¾il
i ho
Ġkom mt
Ġex port
Ġd ut
ĠadaptÃ© ra
Z rejme
Ġdlh om
Ġpsych icky
ĠvÃ½ poveÄı
O proti
z ovanÃ©ho
un da
Ġdizaj nom
ĠCir kvi
Ġro h
ĠEC B
Ġpremi Ã©rom
Ġma rec
ĠsvÄĽ tÄĽ
ĠÃºto kom
ĠakadÃ© mie
Ã¡ de
ĠJe ho
Ġobjav iÅ¥
Ġtehoten stva
mÃ½Å¡Ä¾ am
Ġ8 1
Ġktor ym
Ġpi z
Ġnej as
nÃŃ me
Ġtro l
Te ch
Ġpred nej
ensko u
Ġdostane me
Rober t
Ġvyjad rili
ĠHit ler
in ik
vo n
Ġstrana mi
f inan
ĠsprÃ¡ vou
Ġpriemer om
Ġsek re
Ġide te
Ġv raz
Ġinterne tovÃ©ho
ĠÅ¡ u
ĠNajvyÅ¡ Å¡ieho
Vo j
i ci
ĠM V
Ġdru ha
ĠÅ¡ Ä¾a
Ġobe Å¥
Ġpredstav enstva
ra r
Ġpoved ia
RA N
n enÃ½m
nes Ãº
ĠMila na
Ġspl nomoc
pu s
ĠnÃ¡Å¡ mu
Ġjanu Ã¡r
er en
V Äįera
M lad
ou gh
M oz
Ġumiest nenÃ½
Ġrozsia hle
Ġpri st
ĠK ni
ÅĪ ovej
F ranti
Ġne su
Ġr Ã½b
Ġperson Ã¡l
B ru
Ġte ma
ÅĪ ujÃºce
Ġvia z
Ġpr asa
Ġdlh Å¡ÃŃ
ktor i
Ġmate mati
sti ckou
Ġpre stali
z p
nÄĽ nÃŃ
Ġda rilo
w Ã¤
Ġu raz
ĠMedzinÃ¡rod nej
Ġori enta
ĠMosk vy
bra la
Ġo ranÅ¾
ĠzloÅ¾ enÃŃ
Ġzara diÅ¥
Ġde ath
z Ã©
Ġpoci ta
Ġna podob
M U
Ġtot Ã¡lne
m ina
Ġv kus
Ġdostup nÃ½
Å¡ anie
Ġvy sko
Ġspek t
zd rav
t Ã¡l
w is
ĠmedzinÃ¡rod nÃ½
Ġneby lo
Ġstre chy
ĠSÃ½ rie
ĠRo ck
ĠpoÅ¡kod enia
mÃ¡ ch
Ġvlast nostÃŃ
Ġpohyb ovaÅ¥
Ġlegen dÃ¡r
k end
ĠNit rian
ĠW er
Ġverej nÃº
d in
dr Ã´
Ġpod a
ĠaplikÃ¡ cii
Ġov e
Ġote p
t z
Ġdvoj ice
Ġo pustil
Ġna stane
Ġvysky tuje
Ġabsolu tne
Ġpre miest
Ġvet ra
Ġpreved enie
Ġstret nÃº
pi d
ĠB ran
Ġvol bach
ĠzÃ¡ver u
5 3
ĠÅ¡ oku
Ġmoment alne
ĠmyÅ¡lien ku
ĠneÃº speÅ¡
Ġz bera
Ä¾ ovali
Ġna rÃ¡
Ġna mo
Ġdom om
Ġlie ÄįiÅ¥
Mys lÃŃÅ¡
Ġpoci Å¥
ĠnezÃ¡vis losti
Ġin Ã©mu
Å½ ia
Ġpozd ÄºÅ¾
ro Äįia
ĠL ud
Ġprac ovala
ĠB ude
Ġpla tu
Ġpr oro
Ġsv Ã©ho
ci ty
Ġkus y
u ce
Ġra kety
Ġfung ovania
ĠIzra ela
ĠnÄĽ koho
Ġprostried kami
Ġna i
Ġrizi ka
Ġobmed ziÅ¥
ĠpÃ´ du
sti mi
Ġjin Ã½
Ġch ore
Ġdu ch
Ġv chod
Ġpro gnÃ³
Bo j
Ġna le
re ba
ĠvÃ½ slu
p enÃŃ
ĠhÄ¾ad ali
nost nej
Ġuz drav
qu i
Ġekonom ickÃ½
Ġpredstav ila
Re gist
Ġs vÃ½ch
P Ã½
st ud
Ġchod i
ĠBabi Å¡e
Ġna ma
van Ãº
Ġsymbo lom
H z
ĠvÃ¡ p
Ġfa Å¡
VÃ½ bor
ĠDen nÃŃk
Ġko k
Ġhist Ã³ria
Ġpresved ÄįenÃŃ
ĠT ali
ĠP Z
Vy Å¡et
Ġuved enÃ¡
ĠÅ¡ÃŃ rka
7 3
Ġg lo
teÄ¾ ka
Ġhrd Ã½
Ġflexi bil
Ġkvet ov
d f
Ġko z
Ġdu Å¡i
ĠvoÄ¾ nÃ½ch
h av
Ġrizi kÃ¡
ĠvÃ½rob covia
ven Ã©ho
ĠKa rel
Ġlo d
ĠPR E
ĠMikulÃ¡ Å¡a
pe st
tra v
ĠÅ¡est nÃ¡
n k
Ġnad Äįas
Po znÃ¡m
Ġtvrd Ã½
Ġamat Ã©r
ĠkancelÃ¡ ri
Ġneme ckom
Ġpravdepodob nosÅ¥ou
Ġma turi
fie ld
Ja roslav
V Ã¡Å¡
Ġdia lÃ³
Ġmen Å¡iny
7 1
Ġpr od
ĠV S
Ġch Ã©
ĠJe an
Ġvynika jÃºce
Ġstred ne
Ġ18 00
OS T
Ġpoz n
Ġsym pati
Ġumiest niÅ¥
ĠB eb
Ġbez drÃ´
Ġver iacich
ĠprÃŃsluÅ¡ nÃ©
Ġsociali zmu
Hod no
Ġsp in
ĠT ar
ĠFak ul
Ġpre mys
ĠQu e
ĠÄĮeskoslovensk a
G ener
mien ky
Ġpre Å¾il
Ġmotor om
Ġnep Ã¡
mien ka
ĠÅ¡peciÃ¡l nej
Ġnajm lad
Ġvys por
Ġdie lov
c kami
ĠVÅ¡et ky
Ġba ter
Ġbielkov ÃŃn
ĠÅ¡tadi Ã³n
ĠzÃŃsk av
hne me
ĠÅ¡tati stiky
Ġv zali
ÃŁ e
ĠÅ¡ ach
ĠpoÅ¡ tou
Ã³z ny
b ran
F akt
Ġpre Å¾ili
mo ni
ĠniÅ¾ Å¡ÃŃ
ĠO ut
ĠvÃ¡ hu
ĠSoro s
ĠD em
mÃ¡ tor
ved ie
ĠÄįin ov
Ġobrov skÃº
Ġces nak
D ar
ĠprincÃŃ pe
Z aj
Ġver iaci
in ten
Ġspo lie
Ġ8 3
Ġniektor Ã½m
di g
Ġu stav
ĠK ad
Ġat le
Ġzom rie
tef an
ĠspoloÄįensk Ã½ch
ĠÃºdaj mi
Ġsch ud
ĠÅ¡tÃ¡t nu
ĠJo han
Ġhudob nÃ½ch
Ġvla da
Vy so
ĠpoÅ¡kod enie
ĠodliÅ¡ nÃ©
Ġoddelen ÃŃ
Ġzelen Ã©
Ġelektronick Ã½ch
Ġzabud li
Ġjedin Ã©ho
ĠSam sung
5 00
ĠotÃ¡z kach
Ġpas aÅ¾
ĠvÃ½raz nÃ½
Ġne paci
bo la
ĠpÅĻ ej
Äįi sto
Ġnajv hod
Ġsa kra
ze raÅ¥
L AS
Ġchu tÃŃ
ÄįÃŃ n
Ġpe Äįi
n te
ĠdÃ¡va m
Ġch ra
Ġzru Å¡il
ĠrozprÃ¡ v
Ġh ym
nÃ¡ Å¡a
ĠnÃ¡j d
on na
va ne
ĠG es
Ġkup il
Ġnap ÄºÅĪa
le ich
Â ²
Ġreali zÃ¡cie
Ġspoj enia
Ġk ob
ĠÄ¾ud sko
ĠpÃ´vod nÃ½ch
Ġprejav om
tÃŃ me
ĠspÃ´sob ov
Ġob r
Od vtedy
ĠdodÃ¡va teÄ¾a
ĠKali for
Ã¡ du
Ġtradi ÄįnÃ½ch
Ġroz liÅ¡
anÃŃ c
Ġho pe
Ġchor vÃ¡t
Ġfyzi ckÃ½ch
Ġhodno tou
ĠchvÃŃÄ¾ ku
Ġne zÃŃ
ĠvyuÅ¾ÃŃ vanie
ĠblÃ¡ zni
je c
Ġexisten ciu
ĠTure cko
ĠvÃŃÅ¥az stve
Ġposta rÃ¡
ĠJan ka
Ġvedom ia
ve m
ĠlÃ¡ tka
200 2
Ġhrub Ã©ho
Ġtre tÃŃm
Ġhlb Å¡ie
t koch
Ġper man
Ġg eni
ĠnÃ¡mest ie
ĠW TA
Ġkandid ovaÅ¥
Ġnazna Äįuje
ĠbÃ¡b Ã¤t
ĠAnd rea
Ġnasledov nÃ©
ĠCh al
Ġnevi deli
J ar
la nÃŃ
v Å¡et
Ġle tov
ĠÄįe lÃŃ
Ġpoli cie
ĠSever nej
re en
ĠAngli cku
Ġsta ti
er Ã¡
r enÃ¡
Ġbe re
Ġbri gÃ¡
Ġamer i
Ġne jakou
Ġh ale
Ġr enom
D l
Ġna klad
Ġmeda ilu
Ġm g
ĠvÃ½men y
Ġb rad
ĠzÃ¡ko nodar
ĠmanÅ¾el stva
tÃ© ria
sc enÃ¡
ĠoktÃ³ ber
Ġtypi ckÃ©
Ñ Į
ĠkrÃŃ zu
ĠpomÃ´ cky
Ġpr s
Ġpro gresÃŃ
Ġnepo slednom
ch ar
Ġnej vÄĽt
A ku
Ġpracov nÃº
ĠbudÃº ce
Ġjednoduch Ã½m
Ġnad chÃ¡dza
Ob jav
Ġposlu chÃ¡
lÃ¡ h
Å¡ kov
len iu
ĠprÃŃ hovor
ĠanalÃ½ zu
ĠvyhlÃ¡ sili
Ġmr zÃŃ
ĠAmeriÄį an
ĠS m
Ġma gist
ĠN ovo
poveda Å¥
ĠK lu
re ka
Ġtech nicky
Ġkan Ã¡l
DomÃ¡ ci
ĠT ou
ĠzÃ¡ stav
ĠporozprÃ¡ vaÅ¥
Ġkvar tÃ¡
Ġne ber
Ġdia gnÃ³
ovan im
ĠprÃŃ no
Ġza vÃ¡
Ġve cou
P ak
Ob Äįas
ĠsÃºhla siÅ¥
E ste
ĠR aj
ĠbudÃº cej
Ġbohu zial
Ġkon dÃŃ
Ġnotebo oku
Jedin Ã©
ĠarchitektÃº ry
ĠlieÄį ba
M en
st Ã½
ĠBa g
Ġsek cie
Ġvie ra
Ġkav ia
ĠM is
ĠMajstrov stvÃ¡
ĠvÃ½ sad
Ġsitu Ã¡ciÃŃ
Ġo heÅĪ
Ġpartner mi
Ġadre sy
Ġpra zd
Ġdo prave
Ġtu kov
ran tov
Ġodbor ov
Ġli ter
Ġb ÃŃ
nÃ¡ hle
ĠzÃ¡ujem cov
Ġpa in
ĠS C
t enÃ½ch
Ġne os
ĠkancelÃ¡ rii
Ġvy ka
Ġholo kau
on te
Ġnau Äįil
Ġgu le
Ġobjav ujÃº
Ġpia timi
Ġnepom Ã´Å¾e
Ġzahra Å¥
ck i
Ġautobu su
ĠPla y
ĠdieÅ¥a Å¥u
Ġsa my
Ġfak tu
Ġnaj Å¥aÅ¾
ĠpohÄ¾ad om
ĠvÃ½nimo ÄįnÃ©
ĠzÃ¡ru kou
Ġroz ko
ĠBystri ce
Ġzak lade
ĠÅ¾ Ä¾a
Ġzob rali
de c
ĠPolicaj nÃ©ho
Ġroz pust
Ġven ovali
Ġnakup ovaÅ¥
ĠN BS
Ġg overnment
ĠsprÃ¡v na
ĠpouÅ¾i tÃ½
Ġaktivi ta
Ġvet u
Ġzob erie
ĠI f
ĠchÃ¡ pe
Ġnad vÃ¤z
Ġ198 8
ĠveÄ¾vy slan
Å¡ Ä¾a
Ġod vÃ¡
stre am
gi ou
Ġzostav e
Ġmechani zmus
Ġzved avy
Ġodvet via
tÃ© rie
ĠriaditeÄ¾ om
ĠzÃ¡ kladu
ĠRa sti
ĠvÃŃken du
ĠBo hom
ĠrÃ´z nym
ĠzÃ¡siel ky
Ġod stÃºp
Ġwit hout
Ġreferen da
Ġmusi c
Ġzverej nila
ĠDeutsch e
ĠK inder
ĠoÄįakÃ¡va jÃº
ĠKucia ka
Ġsp ÃŃÅ¡
ĠvÃ½ skyt
Ġpod riad
NÃ¡ v
Ġni t
fek tÃŃv
Ġkontaj ne
8 2
ĠpÃ´vod nÃ©
ĠsÃº rod
Ġzameria va
ĠÃºrad om
Ġza cat
201 9
Ġtex til
ĠrebrÃŃ Äįka
Ġpodob nÃ½m
z ovalo
TO R
ĠÃºpl nÃ©
ĠCh ina
me ÅĪa
Ġau strÃ¡l
ĠE nerg
Ġosob nostÃŃ
ho de
V rÃ¡
c ena
ĠÅ¡ ar
ĠF A
Ġneu st
p Ã¤Å¥
Ġter mo
Ġkla me
Ġvyh liad
Ġna sa
ad o
Ġ9 6
UJ EM
Ġtelekomu nika
Ġroz ne
f Ãº
Ġza vÃŃ
je Å¡
Ġjas no
ĠÅ¾ia dajÃº
Ġmaji telia
zÃŃ k
Ãº Å¡Å¥
ĠvÃ½stav u
Ġspotre ba
Ġviano ÄįnÃ©
Ne mo
ĠpÃ´ jdu
ĠspÃ´sob ili
Ġnevie s
Å¡ kou
Ã ĩ
Ġdostup nosÅ¥
Ġdo tÃ¡cia
tÃº ru
Ġprin aj
AF P
ÅĪ ovala
ĠÅ¾al Ãºd
ra cia
Ġvynika jÃºci
ĠzÃ¡ber y
Ġko no
Za ÄįÃŃna
Ġdozved ieÅ¥
Ġdokonal Ã©
Ġho spodÃ¡
U vedom
Ġb ral
Ġmal iar
Ġpriprav ujÃº
ĠdediÄį stva
R i
Ġvi tamÃŃn
Ġrozk rad
an ta
Å¡ov skÃ½
Ġte lom
Ġsto toÅ¾
Chce li
Ġpredpo klady
Ġkoncer ty
zdo padne
ĠnapÃŃ sali
Ġosobit ne
Ġasoci Ã¡cie
Ġcis Ã¡r
ĠzvyÅ¡ ovaÅ¥
Ġb us
Ġbo lÃŃ
ĠdomÃ¡c nostÃŃ
Ġvo lÃŃ
Ġvys ad
ĠprÃŃrod nÃ½
Nas led
Ġwol len
ĠÅ¾ ur
Ġda co
Ġobje mu
Ġstaveb nÃ©ho
Ġma rat
ĠPat rik
Ġk Äº
Ġanti bio
Pov edala
Ġsing le
Ġota zku
Ġsa telit
tra mi
Ġch ar
Ġevery thing
Od om
Ñ ĭ
ĠÅ½ idov
ĠR ena
Ġkon to
Ġmil ovaÅ¥
Ġoper Ã¡cii
hle r
Vla ni
vÄĽ d
Ġre produk
ĠRo y
ho t
ĠBan skobystri
f fa
Ġroz obe
Ġsk rin
Ġkama rat
Ġposla t
ĠH vie
Ġplat nosÅ¥
Ġnej lepÅ¡ÃŃ
ĠBa Å¡
Ġnedo z
ĠBer lÃŃne
ĠtÃ½Å¾dÅĪa mi
cit al
Ġob vode
ĠstÃŃ hanie
ĠK er
ĠH ong
Ġolympij skÃ½ch
ĠkrÃŃ ze
Ġkles li
ĠpoÄı me
ĠM edzi
ĠprÃ¡zd niny
ĠFl ori
Ġminim Ã¡lnej
Ġpora dit
ĠP y
ĠprihlÃ¡ siÅ¥
Ġod Ä¾ah
ĠP ala
Z isti
Ġfutbali sta
Ġsved kov
ĠnÃ¡poj ov
Ġre ha
ĠspÃ´sob e
nu ti
Ġpara zi
Ġtak ym
Ġbratislav skÃ©ho
n enÃº
ĠzÃ¡klad nÃ¡
Ġprav om
Ġpo nech
Ġt Ã³n
ĠS in
ĠprÃŃsluÅ¡ nÃ½
Ġnepo koj
ĠzvyÅ¡ ovanie
ĠkonÅ¡ta tuje
Ã´ ch
pÃŃs anÃ©
Ġdvoj ica
Ġzb ran
Ġskontrol ovaÅ¥
Ġpoz riem
ĠO sob
Ġw ro
Ġos o
Ġpozor ne
z ova
Å¾e m
lÃ¡ dy
i to
Ġmoti va
Ġz nal
ra da
ĠkaÅ¾d Ã½ch
Ġnepocho pi
ĠvoÄ¾ nom
u a
Ġzamera nÃ¡
Ġkateg Ã³riÃ¡ch
Ġ8 6
eb en
ĠzÃ¡sad ne
ĠnÃ¡de je
Pra cov
ur s
Ġju bi
ĠbÃº r
h mm
Ġslu sne
ĠJohn son
la va
Ġpodpor ili
ĠnedokÃ¡ Å¾u
Ġobnov iÅ¥
Ġposto je
za ÄįnÃ©
Ġfa u
ĠL CD
ĠvitamÃŃ nov
ĠPrievid za
d ed
VeÄ¾ kÃ¡
ĠP roch
a p
ro du
cia r
Ġhudob nÃ©
Ġnehovor ÃŃ
Ġzla tÃ©
ĠK ir
Ġze mÃŃ
Ġsvet lÃ¡
Ġstanovi sku
ĠSP P
ĠzÃ¡kaz ky
ĠJo e
ĠMich ala
Ġr ÃŃÅ¡e
ĠvÃ½hod nÃ©
it ka
Ġsvet le
Ġkr vÃ¡
ĠNit ry
ĠSim on
Ġpla ch
Ġob novu
Ġcel Ã½ch
ĠspÃ¡ nok
Ġsto la
ĠkandidÃ¡ ti
Ġa alebo
Ġinci den
Ġcent ier
lÃ¡ ra
Ġvola Å¥
Ġzom rela
Ġhra la
ĠÅ¡kol stvo
Ġin du
Ġb is
Ġpracov nÃŃk
Ġpodob y
Ġobrov skÃ¡
K or
Ġne prac
Ġzdo lali
ĠuchÃ¡dza Äįov
ov ne
in ter
ĠK HL
Ġhla som
Ġpravid la
ĠinformÃ¡ cii
ĠmateriÃ¡l om
Ġde to
Ġhra nica
Ġpad ol
Ġ2 20
Ġde cko
Ġnotebo ok
ti te
Ġhru d
ĠÅ¾i jÃºcich
Ġme ranie
mysle la
hla v
Ġga rÃ¡
Ġrespond entov
Ġvstup om
ĠÃ ĸ
ĠZd ruÅ¾
ĠtÃ© m
Ġko Ä¾aj
Ġkra va
Ġza stÃºpenie
bi k
p Ã¡n
T rump
ĠpamÃ¤ tÃ¡m
Ġhlo up
Ale x
ĠÅ½ ia
ĠStre et
d Å¾
ĠC le
Ġstri h
Ġjak Ã©
I ÄĮ
Ne myslÃŃm
ĠchrÃ¡n enÃ©
Ġpozer Ã¡m
Ġzac ina
lo hou
ĠKy su
Ġvz dal
ĠprinÃ¡Å¡a jÃº
s lÃ¡
Ġare Ã¡lu
Ġmesiac mi
Ġpoliti kom
ĠudrÅ¾ia vaÅ¥
Ġpracov nom
Ġar m
Bude te
ĠmanÅ¾el stvo
ĠKoÄįne r
ĠL am
Ġotvor enie
Ġproto ko
Ġnajnov Å¡ÃŃch
ĠK up
po ld
Ġs ong
ĠA ka
ÄºÅ¾ ka
ÃŃ l
at ing
T alian
f ol
8 3
ob ile
Ġjuh ovÃ½chod
ĠneÄı ale
Ġo potreb
Ġsused ov
ĠÅ¾Ã¡d nÃ©
ĠbeÅ¾ nÃ©ho
Ġne Å¾i
mu nd
ĠrÃ½ch lej
Ġco ol
Ġsubjek ty
ĠV aj
Nie koÄ¾ko
Ġmarket ingu
Äİ akujeme
ĠN ej
ĠvyÅ¡et rovateÄ¾
Ġenergi ÃŃ
ĠB at
in Ã¡m
it ÃŃm
ĠHara bina
ĠNa gy
ĠdaÅĪ ovÃ½
Ġnaz val
ĠT em
fikov anÃ©
H an
ĠobÄ¾Ãºb enÃ½ch
pre daj
Ġtr Å¾by
ĠprÃ¡v nik
Ġslne ÄįnÃ©
b enie
ĠK ova
Ġspor ov
ĠÅ¡ÃŃ ri
Ġbicyk li
c ol
ĠÃº do
Ġmno z
ĠÃºÄį ty
ĠP rin
ĠN iek
Ġnezamestnan osÅ¥
B i
Ġposled nÃŃ
Ġvoleb nÃ©
Ġmarg o
ĠoznÃ¡mi li
ĠskÃº m
Ġkon zo
Ġu sp
Ġzved a
ĠO bec
ovi ce
ĠM ana
ĠPre mier
ĠMarkÃŃ za
Ġsig nali
Ġk i
Ġg lu
I zrael
Ġv u
Ġprek rÃ¡
be m
r enÃ½
Ġtla ÄįÃŃ
Ve rej
nÃŃ cka
Ġspoj enÃ½
Ġkou Äį
Ġspom al
ĠcudzÃŃ ch
Ġchla pa
Ġpaci enti
Ġbe sed
Ġvznik nÃºÅ¥
Ġcook ie
Ã¡ Äįek
Ġsr de
Ġra m
lie ta
ĠzÃ¡ pla
ĠÅłpaniel sku
Ġsk lon
Ġvyslov ene
vÃ½ hod
Ġvyberie te
Ġmafi Ã¡n
tisÃŃ ce
ĠÅ½ili ny
Ġcvi ÄįenÃŃ
Ġn Ã³r
ĠzÃŃska lo
z as
ĠR ÃŃme
len ka
ĠdÃ¡ Å¾Äı
Ġdosia Ä¾
Ġbre ak
Ġa dop
Ġprez Ã½
Jo hn
Ġtalian sky
nÃŃ ckeho
Ġre spekt
ĠdÃ¡ te
Ġvytvor enÃ½
je r
Ġse xi
Ġ omÃ¡
Ġle ave
ĠMat ÃºÅ¡
Ġla d
D ra
Ġza bal
ĠznÃŃ Å¾i
Ġsuver Ã©n
Ġhor Ã¡ch
Ġkatastro fa
ĠÅ¡Å¥ast nÃ¡
ĠV si
ĠTrum pa
Ġprojekt om
ĠT ot
ic kou
o ta
Ġukon Äįenie
O VA
Ãļ rad
ĠzÃ¡zra k
Ġk at
Ġspo Äįiatku
he ra
rod z
Ġaut en
e x
Ä¾ ka
nost nÃ½ch
Ġuvedom il
Ġ198 0
Ġdokaz uje
c enÃŃ
Ġa pod
sion s
Ġmoz nosti
T U
se lÃŃn
Ġzran enÃŃ
Ġagain st
ĠÃ¡ zij
Ġcir k
VÃ¤ÄįÅ¡ inou
Ġpo Ã©
Ġdie lom
Ġemo cion
Ġrie senie
Ġpoh reb
ĠpredstaviteÄ¾ mi
Ġre tro
Ġci ta
ĠZo znam
ĠÄįer pad
Ġmanipu la
Ġstanov enÃ©
ĠcÃŃ tia
Ġpapie rov
Odom knite
Ġt j
ĠV I
Ġvys sie
Ġtr vania
Ġprev zal
moÅ¾ no
Ġdozved eli
ĠT Ã³th
Vy berte
ĠvrÃ¡t enie
Ġposil niÅ¥
Ġne rez
Ġmil Ã½
Ġih re
Ġklasi ckej
Ġmetropo le
Ġza sta
ĠvÃ½ rok
Ġkom men
ĠzÃº fal
Ġziad ny
R y
ĠD onald
Ġzm anipu
ĠA N
ĠG r
S led
A hoj
Ġpredstav ili
Ġseni orov
Ġuz as
Ġta nec
Americk Ã½
ĠuÅ¡et riÅ¥
ĠVar Å¡
Ġhygi en
Ġpre pa
ĠmanÅ¾e lom
Ob sah
ĠrekonÅ¡truk ciu
Ġob Ã¡
Ġcha o
Ġvi di
ĠpovaÅ¾ ovanÃ½
L et
ĠnovinÃ¡ ra
Ġf em
Ġbud ovaÅ¥
Ġmo tÃ½
dra h
Ġspoluprac uje
Ġn umber
ĠÅ¡tud entom
ĠudÄĽ lat
Ġpostihnut Ã½ch
Äį enÃ©ho
Ġg ol
ĠC ra
ĠS prÃ¡vy
Ġvys ie
zd ro
Ġcentime trov
Å¡ti tu
Ġslovensk a
ĠdÄĽ lajÃŃ
Ġgu ver
Ġr en
Ġnedo kon
t anie
ĠK oz
Äį kovÃ©
ĠJÃ¡ no
Ġz daÅ¥
ve b
Ġpoze rat
Ġsexu Ã¡lne
Ġb rav
ma lo
ĠB as
Ġrozhod cov
ĠmyÅ¡lien ok
Ġsorti ment
ĠK ru
pre sne
ĠBu gÃ¡r
Ġjedno stran
Ġfak tory
Ġbiely ch
Ġzdo lal
ĠdneÅ¡ nÃ½
rob lem
ĠurÄįi tej
Ġegy pt
Ġnep rej
Ġkone ÄįnÃ©
Ġvhod ne
Ġnezabud nu
Ġv ady
Ġsup port
v enÃ½
Ma Äıar
ĠÅ¡tÃ½ lom
Ã³ri um
Ġuli cu
Ġde bu
si ce
ĠvyÅ¾ iad
ĠwÃ¼r de
ĠpomÃ¡ha li
Ġbra tov
Ġbal enÃŃ
ĠvnÃºtor nÃ½
ĠBez peÄį
Ġpre zra
ĠIS O
f te
ĠF at
gi cky
ĠobrÃ¡z kov
Ġnere ag
ĠO h
C ar
Ġprezent Ã¡cie
ĠuÄįi teÄ¾a
ĠprimÃ¡ r
ĠvÃ½men a
Ġv it
tu ally
Ġtre tiu
ÃºÅ¡Å¥a jÃº
Ġpo lov
ova ciu
Ġroz mÃ½Å¡Ä¾a
Äįast ej
poÄį et
Ġporu cha
ĠmandÃ¡ t
ĠvÃŃÅ¥a za
Ġpr del
Ġaktu Ã¡lny
ĠhovorÃŃ Å¡
Ġblo nd
Ġpr ste
Ġvlast nÃ½mi
ĠpÃ´dohospodÃ¡r stva
ĠpeÅĪa Å¾
k vap
Ġna mÃ¡
Ġra dÃŃ
34 1
Ġvy ÄįÃŃ
Ġvi kend
Ġsil nÃ½m
ĠS ud
bi ca
ĠRuÅ¾om berok
st oro
ĠpÃ´Å¾i Äįku
daj ÃŃ
Ġo si
Ġpneu matiky
Ġzi sky
ĠponÃº kol
ĠvyuÅ¾i tÃŃm
Ġenerge tickej
Ġrozhod nutiu
Ġhumani tÃ¡r
cÃŃ mi
ĠtechnolÃ³gi ou
Ã¡ vanie
ĠV enezu
Ġrokovania ch
Ġmysli te
ill s
Ġprovin cii
E uro
ze ral
Ġproblemati ke
ĠspÃ´sob mi
ĠnÄĽk de
omet ri
sov Ãº
ĠvykonÃ¡ vajÃº
Ġkup ujÃºcim
Ġpozor u
Ġpocti vo
Ġza par
ĠD S
len Ã½m
ĠdieÅ¥a Å¥om
F e
Ġna sil
op er
Ġbod om
orona vÃŃ
p tom
ĠH ej
Ġw al
Pr in
Ġfinan ÄįnÃ¡
ĠNe ws
Ġpredaj ne
ĠB Ã¡
ĠL as
pe la
f et
le zni
Ce sta
ĠSL OVEN
Ġde cent
ĠoficiÃ¡l nej
Ġpozdra vom
Ġl Å¾i
tÃ¡ rov
Ġno sÃŃ
Ġfin ali
ti ckou
Ko Å¡i
Ġbo Å¾e
Å¡ko lÃ¡
ĠarmÃ¡ du
ĠzhromaÅ¾d enie
wor k
Ġtl mo
jednodu ch
ove ho
ĠtisÃŃ cky
Ġh na
ĠC ena
ĠÄı akujeme
bli Å¾ne
he s
ran ov
Ġza Å¾i
Ġk meÅĪ
Ġin kas
Ġde ci
ĠB od
Ġde kora
Ġye ar
Ġodi Å¡la
ĠnÃ¡z vy
ĠpouÅ¾ÃŃ vam
Ġje st
Ġpresved Äįenie
Zna menÃ¡
Ġne dali
Ġza hrÃ¡
Ġexist ovaÅ¥
Ġsvia tkov
Ġjad ro
Ġprofil u
ĠvzÃ¡jom nej
Ġvla d
Ġmil Ã¡
ĠneÅ¾ia du
Ġpremi Ã©ru
Ġrefle x
ĠodporÃº Äįania
Ġobvin il
ĠpoloÅ¾ ku
ĠÄįÃŃ tam
Ġkon zi
Ġ12 5
ĠSITA AFP
me ÅĪov
Ġna kaz
ĠpouÅ¾ÃŃ vali
ĠLondÃ½ na
pra vodaj
Ġpostav enÃ©
ĠneprÃŃ de
Ġzap rÃŃ
Ġarchitek to
Ġodo hrÃ¡va
ĠÅł tÃº
Ġupozor niÅ¥
Ġstaveb nÃ½
V on
Ġza tÃŃm
ze c
Ġvzor om
valo ch
Ġelektronick Ã©
ĠTure cka
Ġ8 7
Ã³ri ou
Ġcud zi
ĠmÃ¡ la
Ġre alne
Ġodvet vÃŃ
D ajte
Ġpostav ÃŃ
da me
Ġkon tinu
Å½ iadne
Ġp ada
ĠkÃº pali
Ġna sich
Ġot covi
ĠznÃŃ Å¾ila
Organi zÃ¡
Ġbo Å¾
ĠÅ½ id
Ġpolicaj nÃ©ho
Ã¡l ie
Ġdar Äįeky
Ġvy nech
ĠÃģ zie
na ci
Ġprofesion Ã¡lnych
Neza bud
ĠsprÃ¡v ca
graf ia
ĠvÃ½stav ba
s ur
ÄĽ la
ĠC E
ÄĽ stÃŃ
Ġzim nÃ½ch
ĠÅĻÃŃ ct
ra dol
Ġzhor Å¡
u gh
w el
ĠVÃ¡ hom
ĠF ili
Ġnech tÄĽ
ĠreÅ¡tau rÃ¡cii
Ġpri hlas
t nutie
pÃ¡ ja
Ġvybra nÃ©
sky tuje
Ġzostav y
Ġprij me
ĠcÃŃ tila
K iska
ĠzÃ¡hra da
ĠFi covi
Ġp ier
Äįia rov
ĠÄįaka la
Ġtra se
ĠOkamu ra
Ġre lÃ¡cii
Ġvod nÃ©
Ġbrit skÃ©ho
Ġprekon al
ĠE Å¡te
ĠplÃ¡ Å¾e
ĠTure cku
Ġako koÄ¾vek
pom o
Ġpriori ty
Ġteore ticky
ĠprÃ¡zd nin
ĠzloÅ¾i tÃ©
Ġkazd om
ss er
Ġpusti l
Ġst and
ĠVa Å¡a
ĠjÃº l
b ne
Ġob jeme
ĠBa by
Ġhudob nej
Ġv eda
ly wood
ĠrozprÃ¡ vky
ĠvnÃºtor nÃ½ch
ĠzaujÃŃm alo
C IA
cov e
Ġregion Ã¡lnych
Ġv Åķ
Ġvy medz
ĠzÃ¡ rob
tiv ny
ĠÄ¾ud stva
ren ej
Ġnepochyb ne
ĠGrÃ© cku
Ġvlh kosÅ¥
Ġvac si
Ã©ri ÃŃ
cha la
Ġzarov en
ĠÅ¡tÃ¡ diu
ĠhÄ¾ad anie
Ġi ro
PrÃŃ beh
Ġspotrebi teÄ¾ov
Ġpodoz renia
Ġsekun du
n Ã³m
Ġstred ove
Ġmaji teÄ¾om
ĠDi va
Ġtaky to
Ġinteri Ã©rov
ĠV ic
ĠzvÃ½ hod
ĠJ im
Ġz boÅ¾
ĠÄį u
jÃº cou
Ġstra va
Rozhod nutie
RA D
ĠtÃ½ka jÃºcich
Ġstav be
ĠpÃ¡ de
ĠpÃ¡ Äįilo
v ani
Ġcon trol
ĠskÃº Å¡ku
Ġopat rne
Ġrozmer ov
ĠprÃŃbeh ov
bo hat
ĠKS ÄĮ
VÃ´ bec
Ġz lu
Ġna ko
Ġpoko ja
ĠkÃºpeÄ¾ ne
ĠLi ght
Ġarci biskup
stat nÃ©
Ġreme sel
ĠPut ina
t l
z nej
Ġkre h
ĠzÃ¡zna my
ĠÅ¾i lo
ĠG ol
Ġnek do
Ġza be
ĠpouÅ¾i li
Ġprav Ãº
us an
Ġven ujÃº
F F
s nu
Ġza dok
Ġzm r
Ġo liv
c ujÃº
ran ce
Ġvysok Ã©ho
ĠmÅ¯Å¾e te
Ġv ÃŃm
pre ss
Ġu loÅ¾iÅ¥
Ġsmie Å¡ne
ĠrevolÃº cie
ĠtechnolÃ³ giu
do st
Le p
ĠschvÃ¡ lili
Ġvy poved
M P
T P
Ġpena zi
Ġsi le
Ġhod il
Ġneme ckÃ¡
ĠÅ¡ ok
sta vou
Ġstra tou
Ġklasi ckÃ½ch
Ġkapaci ta
li us
Ġ2 30
Å¾ be
Ġzaujima lo
as on
Ġg om
ov na
ĠÅłpaniel ska
ti o
Äį ana
tÃ¡ k
D Ã¡m
ĠC ri
ĠprÃŃsluÅ¡ enstvo
ĠvÃ½nimo ÄįnÃ½
ĠpodpÃŃ saÅ¥
ĠkrÃ¡s nu
O tec
Ġf ront
Ġnedo tk
Ġkde si
ĠÄįlen stvo
ĠnÃ¡dher nÃ½
Ġchrb te
Ġka bÃŃ
Ġodbor nÃº
Ġre form
Vi del
be s
ĠnÃ¡z nak
f Ã¤
v enÃ¡
Ġmed ved
ĠÅ¡ etr
Ġc all
Ġto Ä¾
ĠÄİ akujem
ob ili
Ġpolno ci
Ġpok rac
inte res
ho dol
D aniel
Ġpoz nal
Ġv ina
Ġma so
ĠprÃŃleÅ¾ito stÃŃ
ĠKom enskÃ©ho
Napo sledy
Ġpo cka
A ch
Ġekonom ickÃ©ho
Ġte ll
ĠÅ¡ta tÃº
P Ã´sob
Ġle ast
Ġ198 4
Ġh ub
IN A
p to
ĠpÃ¤tnÃ¡ sÅ¥
ĠVÃ½ sledky
ĠÃºÄį es
Ġob ÄĽ
Ġlo st
Ġpriemer nÃ¡
Ġsoll te
ĠU P
ĠnÃºd z
ĠZ SSR
p Ã¡ch
ÄĮas Å¥
Ġpri cest
Ġs ly
ĠvÃ½ slov
ak om
ĠpÃ¡ sme
Ġte stov
Ġz Ä¾ava
Ġzub ov
tov nÃ©
Ġso tva
ov ych
PrÃŃ pad
ĠS w
lÃ¡ Å¡t
Ġjaz da
K ot
Ġna lie
Ġsamostat nÃ½
p any
Ġelektronick Ã©ho
ĠscÃ© nu
ĠzaujÃŃma vo
Ġz vrh
Ġmet re
ĠPol ia
Ġprac ujÃºcich
Ġpoukaz uje
Ġd um
Ġzdravot ne
moÅ¾ ÅĪuje
V E
ĠD od
Ġrozhovor ov
ĠK R
Ġf rak
Ġsest ier
ĠEvro py
h nÃº
Ġpies nÃŃ
Ġeurofond ov
en com
Ġsmer nice
Ġja b
Ġuved enej
Ġposta raÅ¥
nÃŃ te
ĠÄĮe skÃ©
prav il
ĠpoÄįu li
Ġmaxim Ã¡lnu
Ġb ej
d ing
ĠnÃ¡po je
Äįia ri
ÄįÃŃt anÃŃ
ĠwÃ¤ re
ĠnÃ¡ hod
ĠÄįer no
ĠpÃ¡s ma
F C
ĠA B
ĠchÃ¡ pem
s vie
Ġotvor enÃŃ
Ġsp ria
Ġroz v
Ġvlh kosti
Ġa sk
Ġvy myslel
Ġkriti zuje
Pre daj
Ġdivad le
Ġod ÃŃde
ĠÅ¡ÃŃ renie
Ġap lika
Ġv pravo
st as
Ġnom inan
KaÅ¾d Ã©
ĠÅ¾ivo tov
ĠsociÃ¡l na
Ġzi skom
ĠvitamÃŃ nu
ĠvoÄ¾ bu
Ġvo le
Ġzaznamen ala
Ġosob nÃº
Z den
Ġpat riÅ¥
ĠveÄ¾vy slane
Nech Ã¡
Ġnece lÃ½ch
ĠÃº loÅ¾
Ġdovolen ke
TÃŃ to
ĠMa ch
ĠsÅ¥aÅ¾ nosÅ¥
Ġpolitick Ã½m
Pat rÃŃ
Ġzdravot nÃ½m
ĠH os
ĠmanÅ¾el ky
ĠGru zÃŃn
tu ne
D P
Ġkli enti
Ġvr chu
Ġzelen Ã¡
P rej
re ct
Ġatmosf Ã©re
Ġmen y
Ġst anÃŃc
i losti
sa hy
Ġobraz ovky
ĠÅ½ it
I ste
Ġopa Äįnom
ĠN ig
ĠMa Äıari
Ġdesi gn
ĠÄįÃŃ tala
iteÄ¾ nÃ©
Ġpreh re
ve z
Ġdlhodob Ã©
Ġchrb ta
al na
Ġhokej i
Ġvyvola Å¥
Ġh rou
Ġna bÃŃja
Ġpri sÅ¥ah
med i
Ġsou Äįas
ĠrekonÅ¡truk cie
Ġre ho
tro p
ĠvÃ´ ne
skup iny
Ġpoz vanie
Ġpotre st
Ġza bÃº
ĠMu sic
B or
ĠN ovÃ©ho
Ġsurov iny
Ġs ma
Äı uje
Ġmu z
Ġproblemati ku
ĠdÃ´very hod
Ġtro ll
Z A
Ġra k
Ġra mci
Å¡ Ã¡k
Ġko pe
Ġnasledu jÃºcom
ĠB eÅĪ
Ġnad mor
st na
j ania
di i
Ġkom or
ĠvÃ½Å¾i vy
ĠkrÃ¡Ä¾ov stvo
Ġpravdi vÃ©
Ġpredaj nÃŃ
Ġneroz hod
nov Ãº
ĠprimÃ¡ rne
Ġtep lej
Z vÃ½
Ġne ci
va nej
ste v
Kom u
ĠW hite
Viac er
ĠvlÃ¡d nych
Ã³ za
Ġpremi Ã©
Ġchor Ã½
Ġregion Ã¡lneho
Ġpriebe Å¾ne
f ej
Ġinter ven
ĠdomÃ¡ cnosÅ¥
Ġob rÃ¡t
ĠRo Å¾
Ġstov iek
ĠMil Ã¡no
Ġpev nosÅ¥
Ġur ÄįÃŃ
AAAA AAAA
ĠN ÃŃ
Ġrie Å¡ia
Sp Ã´sob
Ġkona jÃº
Ġod ti
Ġponu kou
ĠFot iek
Ġtrest nom
ĠprekÃ¡ Å¾ky
ĠB aj
Ġza Å¾ili
zol Ãº
Å¡ inou
Ġpre roz
ĠzvyÅ¡ ujÃº
ĠWillia ms
Ġod fo
Ġpar kovi
enÃ¡ t
L ad
Ġa min
Ġl Ã¤
Ġde mi
Ġsvet ovÃ©
ĠÐ ²
Ġobsad ili
Ġle pi
ĠmÃ´ Å¾te
ĠnevÃ¡ hajte
Ġregist ri
ĠSmi th
ĠK eby
pusti t
Ġza bÃŃja
B en
hla sit
ĠÅ¡portov Ã©ho
ĠzÃ¡klad nÃ©ho
ĠkomunikÃ¡ cii
ĠZ dra
Ġkonf ron
Ġnov odob
Ġza mil
ĠS ony
ĠMer cedes
Ġpoliti kou
Ġregi Ã³noch
OtÃ¡z ka
Ġkoment ovaÅ¥
v sak
Ġ17 0
Ġgan z
Ġvy plat
ĠV or
ĠÃºspe chov
Ġsta ÄįiÅ¥
Ġc li
ĠH aj
Ġd dm
Ġ194 4
Ġch ange
Ġekonomi ke
or dÃ¡
Ġod chodom
ĠO R
Ġzoh naÅ¥
ĠManch est
Ġsu cas
Tro chu
ĠEurÃ³p sky
Ġv predu
me k
ĠH ur
rÃ¡ da
Ġob Å¥aÅ¾
Ġvyjad rila
O nd
MÃ´Å¾e Å¡
ak tor
x o
Ġra fin
ĠprepoÄį te
ĠN Ãģ
Ġprezent uje
Ġvy chod
Ġre vi
VÃ½ sledok
Ġs Ä¾u
ĠpouÅ¾ÃŃva me
Ġinteri Ã©r
Ġc aj
Ġkom ik
lan de
Ġku k
Ġrozhovor u
Ġha te
Ġm re
ĠlÃŃ nie
Ġopak ovaÅ¥
ĠJose f
Ġoper Ã¡ciu
Ġneu robil
ĠKa Å¾dÃ½
ĠÐ ½
ĠvyÅ¡et renia
Ġnaz vaÅ¥
c ovat
Ġte lu
je t
ÄįÃŃ kovÃ¡
Pro to
lov anÃ½
ĠÅ¡ko d
Ġdecem ber
ĠAmeri ka
Ġchlad ni
Ġpoli ce
Äį nost
ĠSag an
Ġ194 8
P N
Sta lo
za ne
Ġni Äįoho
Ġsil nÃº
Ġkor por
ĠKovÃ¡ Äį
Ġposkyt ovania
ĠMedzinÃ¡rod nÃ©ho
8 7
ĠH un
ĠtÃ½Å¾d enne
ĠÄį r
ĠkrÃ¡Ä¾ov stva
Tri dsaÅ¥
ĠAr sen
ĠvÃ½ stra
ich ol
Naj nov
Ġzauj al
ĠprÃº du
Ġpri pis
Ġ0 90
c zy
ĠR es
ĠVe ronika
Ġstrom u
ĠÅł ko
m and
11 341
Ġpri tia
Ġpartne ri
ska li
Ġbo s
ĠÅ¡ÃŃ riÅ¥
Ġvo lia
Ġpi lot
Å¡ie mu
do w
Ġzas vÃ¤
NedÃ¡ vno
ĠT hat
ÃŁÃŁ ÃŁ
ĠIrÃ¡ nu
Ġoje dine
Ġrych le
ĠP ria
Sk ve
Ġna Å¡tart
ĠsÃºÅ¥aÅ¾ia ch
ĠJa c
Ġne xt
Ġvy mÃ¡
ĠÃºpl nÃ½
P rostred
Ġpre b
ĠB rne
Ġvytr valo
ÅŁ Ã¼
ĠC en
ĠÃºÄįin nosti
Ġpenia zmi
Ġdemokra tickÃ©
ĠWillia m
r Å¯
Ġma ch
zi ta
b led
Ġnebud ou
Ġlud mi
Ġsuch Ã©
ĠnÃºd zi
Ġkolie s
S I
Ġide a
ĠinformÃ¡ ciami
Å¡ nÃ©ho
ĠM UDr
bo ok
ÅĦ Äĩ
Ġdis ko
Ġ4 50
Ã³ Ãĩ
Ã¼ Å®
Ëĩ ÅŁÃ¼
ÃŁÃŁÃŁ ËĩÅŁÃ¼
Ã³Ãĩ Ã¼Å®
Ã³ÃĩÃ¼Å® ÅĦÄĩ
pln enÃº
lt Ëĩ
Ã³ÃĩÃ¼Å®ÅĦÄĩ ltËĩ
B ri
Ġlicen cie
Ġpohyb ujÃº
Mys lÃŃte
ĠG PS
Ġpotreb nÃº
Ġvede ckÃ½ch
b by
Ġo kla
Ġma pe
h ovÃ©
ĠcentrÃ¡l na
Åł e
ĠpremÃ¡ vky
Ġu ka
ĠF is
Ġsku tocne
ov ol
ĠnÃ¡ tla
ĠF ir
ÃŃn anie
Ġnoh Ã¡ch
mi le
Ġposla la
or es
MusÃŃ te
ck en
lÃº Å¾i
jed no
ĠM oz
Ġspoj ene
Ġtva rov
sk la
Ġpred vy
C ent
Ġde men
Ġmu l
ĠAl t
ĠprÃŃsluÅ¡ nÃ©ho
Ġz cela
Ġv inu
Ġnov ela
ĠÅ¡am p
Ġmod rej
Ġrozsia h
ĠDe vÃŃn
ĠnÃ¡rod nÃ¡
enia ze
Ġboj ujÃº
W enn
Ġc aka
Ġv loÅ¾iÅ¥
ĠspÃ´sob ujÃº
Ġ0 6
Ġrad ÄĽji
ĠG l
Ġuprav enÃ©
Ġnau Äįili
Äį any
vÃŃ te
Ġkr mi
ĠkrÃ¡s nych
ĠpredÃ¡va jÃºcemu
Ġtepl Ã©
Ġdo sad
Ġdi vne
Ġdia man
ĠÃº ÄįasÅ¥ou
Ġjedno ho
Ġs tory
Ġstra tÃŃ
TrÃ© ner
kov anÃ½ch
Ġre du
Ġzist ÃŃte
Ġvrcho le
ĠJ anu
Ġdostup nÃ¡
Ġochra nou
ĠspoloÄį enstvo
Ġe vo
Ġtaj nÃ©
ĠzÃ¡vere Äįnej
Ġslab Ã©
Ġdoo kola
Ġposu nÃºÅ¥
ĠÅłpaniel sko
Ġch ov
Sta v
or om
Ġdo ska
Ġnevi dim
t ovali
Ġdosta toÄįnÃ½
Ġru kov
R ok
Ġza pa
Ġzo par
uj me
ja lo
Ġvese lo
ĠAu gu
ĠN u
Ġsklad om
Ġpo po
Ab sol
ĠvÅ¡ ÃŃm
ĠdrÃ¡ hy
ĠfÄ¾a Å¡e
Pa vol
z us
Ġmoto cyk
Ġe lit
ĠposÃ¡d ky
ĠF K
ĠVysok Ã½ch
Ġby rok
toÄį il
nan ÃŃm
ĠÅ¾ur nali
b ky
Ġotvor enÃ½ch
To hle
Ġpriz nanie
Ġpod rÃ¡Å¾d
ĠD A
Ġuved ie
Ġodo Å¡lite
Ġtova rov
Ġju stÃŃ
Ġof enzÃŃ
ĠnÄĽ kolik
ĠpenÄĽ z
Ġstup ni
Ġnerob ia
Ġstredi sku
Ġbezprostred ne
Ġroz mno
Ġzelen ej
Ġkomuni zmu
ale s
V Å¡e
Ġtrest nej
ĠS ci
Ġv stÃºpil
Ġpred sti
Ġworks ho
Ġhotov osti
ie ld
ĠnapÃŃ Å¡te
Ġpo Äįka
ĠtelevÃŃz nych
Ġpok or
Ġpra chu
Svoj u
Ġle k
ba la
ĠnÃ¡ lez
Ġmil iard
Ġob Å¾alo
Ġmoder nÃ©ho
SÃŃ ce
Ġ0 7
Ġu sa
ĠÄįa stÃ©
ĠkombinÃ¡ ciu
ĠchtÄĽ l
R odi
cka ch
ĠdÃ´kaz ov
Ġpredstav ia
ĠÐ ¿
ĠdÃ´chod ky
Ġdetail ov
ĠB ush
Ġ198 6
Kon krÃ©
Ġz ov
Ġo cit
U K
ter n
ĠzÃŃsk anÃ©
Po stav
ES CO
Ġspolo cne
Ġna roz
ĠnÃ¡ku pe
Ġcha pem
ĠzÃ¡vÃ¤z kov
ĠgÃ© l
Ġ Ãī
Ġnajm oder
Ġg oogle
olÃ³ giu
Ġod vy
Ġvyu zi
ĠodtiaÄ¾ to
ĠO range
Ġcen nÃ©
Ġp us
vÄĽ dom
T Ã½
Ġotvor ila
h anÃŃ
Ġko Å¾
Ġi lÃº
Ġzi ps
Ġsti hol
di dÃ¡
Ġzi my
ĠsÃŃ dle
ĠtelefÃ³n ne
Ġpoten ciÃ¡lne
Ġzaj ÃŃm
ĠnezÃ¡vis lÃ½
Ġm Å¯j
Ġce sto
ĠMi k
Ġpreferen cie
Ġnema te
Ġko Ä¾
Ġc rea
host aj
po nd
ĠB lu
Ġde ma
Ġsp ÃŃ
ĠÃº pravou
Ġga u
Ġany thing
Ġinvali d
Ġza ba
ĠvyhÄ¾adÃ¡ vanie
ĠB ig
Ġkorup cii
ĠÃ´ s
ĠÅ¡ampion Ã¡tu
Ġrobi m
C hÃ¡
Ġcudzin cov
Ġspra cov
tÃŃv nou
Ġpoz nanie
ĠKali ÅĪ
H ar
Ġdo g
Ġty pek
Fo to
lÃŃ ky
ĠVladi mir
ĠÄįerven ej
ri o
ĠMi roslava
Ġpotr vÃ¡
iac om
Ġpred al
Ġobjav uje
9 2
Ġmod rÃ¡
Ġocen enia
Åł ta
ĠB ara
ĠkÃº pili
Ġkor ene
ĠpoznÃ¡ mky
Ġzaro biÅ¥
ĠvnÃºtor nÃ©ho
Ġ198 5
ĠpochvÃ¡ liÅ¥
J E
ĠP om
ĠS r
Ġv zala
ĠnaÅ¾i vo
ĠP ia
Ġmi los
ĠpredÄįas nÃ©
Ġkom ora
ĠW o
Ġsku to
Ġein fach
Ġve Äįe
Ġex ce
Ġnabud Ãºce
oooo oooo
ĠOb jednaÅ¥
ĠW ell
Ġved la
go ra
Ġodk ial
ne bo
y ho
Ġo xi
tÃ© n
mÃ½Å¡Ä¾ al
ÃºÅ¡Å¥a Å¥
ia daÅ¥
Ġdruh Ã©mu
ra ny
Ġnotebo o
Ġod h
Prav depodobne
ĠIndi i
ĠÄ¾ah kÃ½
Ġpredstav ovaÅ¥
ĠpredchÃ¡dza jÃºcom
Ġf lu
ĠvykonÃ¡ vanie
Ġprac ujem
ĠvyrÃ¡ba jÃº
Ġdosta toÄįnÃ©
D ÄĽ
Ġex ped
ĠformÃ¡ te
Ġw ur
Ġrozhod nÃº
Ġtradi Äįnej
Ġpracov i
Ġoby vatel
Ġrobo tu
Ġkon Äįia
ĠmanaÅ¾ ment
f akt
ro lu
Ġroz miest
Ġnevy rie
ĠO stra
ĠLu xem
Ġeta pe
do nÃ©
Ġdu Å¡a
ĠÃºÄįast nÃŃkom
Ġdeve loper
Ġnesto jÃŃ
VÃ½ hodou
Ã¤ r
Ġin scenÃ¡
tÃ¡ ra
Ġher ci
d ri
ĠRim av
ĠS ub
Ġg ru
Ġvy buch
ge ra
nov e
Ġnove lu
ĠKol lÃ¡r
Ġhy brid
tre bi
ĠJu raja
ĠZe it
ĠF ord
Ġpri dala
ĠV eli
Ġvyj sÅ¥
ĠdneÅ¡ nÃŃ
Ġzaklada teÄ¾
Ġzru Å¡enÃŃ
Ġtenden ciu
b ry
Ġst ena
ran s
ĠTe ba
Ġme rania
Ġfa lo
ĠÅ¡Ã©f om
Ġhlas ovanÃŃ
Å¾d Ã½m
ĠmÄĽ lo
ĠkresÅ¥ anov
Ġzmi z
Ġd Ã¡n
ĠZ i
ĠvÃŃ te
va Äį
ĠPek ingu
ĠmanÅ¾el ku
ch ova
ko nu
Ġg ang
Ġdob rovol
Ġ198 7
ĠT rn
my ch
Ġurov ni
Ġpr st
ĠprÃŃro du
Ġj mÃ©
Ġsprac ovanÃŃm
ĠÃºÄįin ku
Ġho use
nie sla
V en
Ã¡ ru
Ġporad ia
Pra jem
ĠPo st
ĠM Ã¡m
Ġfakul te
Ġna Å¡t
ĠprÃŃ chodom
Ġhovor im
ĠHou se
P ol
ĠTi bor
S ou
ĠTe x
Ġpar kovanie
dÃ¡ vajÃº
Ġpane l
Ġnap red
Ġmor Ã¡lne
pi m
Ġdokument Ã¡cie
Ġ193 9
ĠM s
Ġprirodz enÃ½
ĠnechÃ¡ pu
ĠLÃŃ by
Ġpovrch om
vi k
ĠprÃŃjem nÃ¡
Ġhre be
z eni
V el
Ġmo ral
for mu
ĠvÃ¤Äį Å¡ÃŃm
Ġbod mi
ĠÃº prave
Å¾a mi
Ġtvrd Ã©
Ġinterne tovÃ©
Ġrov ine
ĠvitamÃŃ ny
ct ie
T Ã½ch
d lia
Ġu na
Sam oz
logick Ã¡
gi c
ĠzloÅ¾i tej
c oro
Ġdi Å¡tan
Ġchorob u
ĠnÃ¡ro ÄįnÃ½
ĠÄİ uri
Z nÃ¡
Ġdu eli
Ġ lia
Ġo hne
ĠÅ¡k vr
ĠpÃ¡pe Å¾a
Ġexper tov
Ġnut ne
Ġport rÃ©
H S
Ġpis es
M ag
alÃŃ t
Ġh nutÃŃ
Ġtem pom
Ġtechnick Ã©ho
ĠvÃ¤z ÅĪov
ĠzÃ¡m ku
Ġpercen tu
ĠK E
Ġci tal
Ġmalo obchod
Ġsy nom
en im
Ġmi enky
zÃ¡ ciÃŃ
ĠsÃºÄįas nÃ¡
ĠhÄ¾ad anÃŃ
Posled nÃ©
Ġne us
Ġob oma
Ġpocho pit
Ġpriestor om
Ġ16 00
Ġdevia tich
Ġlep Å¡ÃŃm
ĠBr no
ĠoznÃ¡ menÃŃ
Ġvoleb nÃ½ch
Ġu znaÅ¥
Ġk Ä¾u
ĠkonkrÃ© tnej
Ġpr vÃŃ
Ġc len
ko no
fi sti
Ġposled nÃ½m
Ġfu ck
om i
ĠÄį aju
Ġcho Äı
Ġpodnika telia
Po znÃ¡
Ġdokon ÄįiÅ¥
ĠvlÃ¡d nuÅ¥
Ved ci
ĠdokÃ¡Å¾e te
Ġzmen Ã¡m
Ġozna Äįenia
Ġobjek tÃŃvne
Ġzabud la
Ġbato Å¾
or od
bi te
Ġchod nÃŃk
NÃ¡ jdete
Ġsamo tnÃ½ch
Ġvojensk Ã©ho
ten to
Ġmas lo
Ġprij atÃŃ
ĠN obe
Ġsko le
Ġpre pravy
Ġsm rt
V nÃº
Ġnep ÅĻi
ES T
ĠP ani
ĠfanÃºÅ¡i kom
Ġhad am
Ġpre pis
ĠpÃŃ sala
Ġmeda il
Ã¡ ty
li ce
h nÃ¡
Ġhe h
sto ne
Ġvie dlo
Ġg olf
Ġneo h
stick Ã½mi
Ġpriori tou
ĠA I
Ġdo la
Ġprie du
ĠnehnuteÄ¾ nosÅ¥
Ġrezer vy
ĠvÄĽt Å¡ina
ĠLe vo
Ġdoda toÄį
Ġo podstat
Ġpri chy
ĠpoÄįas ÃŃ
Ġnez am
med zÃŃ
Ġinterne tovÃ½
ĠdodrÅ¾ia vanie
Ġu Å¾iÅ¥
V ol
ĠlÃŃd ri
Ġcel kovÃº
Ġpokle su
Ġs nov
lov u
cov o
Ġc ur
Ġsv Ã½m
Ġaro gan
Ġfi g
Ak tuÃ¡lne
ĠÄ¾ud stvo
ĠZem ana
ĠE ng
u ge
L Ã¡
Ġdia l
Ġautor ka
ĠkritÃ©ri ÃŃ
A rg
Ġk t
ĠprÃŃ chodu
Ġidenti fikovaÅ¥
Ġredak tor
Ġna sto
Ġroz dÃŃl
Ġprav de
ovanÃ© mu
Ġpovo lania
ĠslÃº chad
Ne ver
ĠodÅĪ atia
li vÃ¡
ĠmanaÅ¾ mentu
Ġprehliad ku
Ġnaj roz
Ġak or
Ġtitu ly
Å¡truk turali
Ġsi lik
Ġho st
Ġex pl
st ny
Ġnez ne
Ġnemoc nica
H er
ĠpriblÃŃ Å¾iÅ¥
Ġpovin ne
Ġtre tina
G O
f la
ĠprevÃ¡dzkova teÄ¾a
Ġdet skÃ½
Ġlo dÃŃ
r Ã´z
ĠplÃ¡ nov
Ġveli ce
Ġa lar
Ġna lep
Ġnede le
Ġtable ty
Ġkatal Ã³
Ġpremi Ã©rov
ĠPra ze
Ġna stÃºpi
Ġnov inka
Ġli k
na p
Ġzatk li
ce lÃ¡
h Ã¡m
Ġod pis
ÅĻ et
Ġo Å¾
ĠN as
ĠpamÃ¤ tÃ¡
Ma lo
Ġuver iÅ¥
ĠB it
ten Ãº
ĠÅ¡pecif ickÃ©
Z la
Ġpresad il
Äį kÃ¡m
in ovÃ©
ĠprednÃ¡ Å¡ky
Ġdro ga
Ġma Äįky
Ġse g
A f
dob re
Ġcel kovom
Ġin s
ha te
Ġumele ckÃ©
T H
ĠÃº Å¾it
Ġzab lok
S er
Ġdia lo
Ġlin ka
gre di
Ġanaly tik
Ġthou ght
P Ã¡r
Ġangli ckej
el s
Ġpusti li
Ġpoob ede
Ġsled oval
Ġin jek
ĠTe chno
Ġk Ã¡va
Ġzdie Ä¾a
Ġi siel
Ġzariad enÃŃm
Ġbezp roblÃ©
e le
ĠÅłtef Ã¡
cho ch
Ġpamia tku
Ġpek na
Ġkompeten cie
ĠSte p
ĠPopra de
ĠVÅ¡et ko
Ġzelen inu
Ġkolega mi
ĠkvartÃ¡ li
ĠprÃ¡zd ne
Ġmesiac om
Ġnor mali
ut oma
Ġv stav
Ġvy kÃº
ly ch
Ġmimo zem
Ġza drÅ¾ia
ĠU p
ĠvÅ¡ ude
Å¾ad uje
vis ÃŃ
Ġdia nie
Ġtu Å¡ÃŃm
Ġomy l
Ġu Äįenie
Ġprv kami
ĠY e
ĠÅ¾e by
Ġple ase
Ġtrval Ã½
ĠmÃ´j mu
ĠmedicÃŃ ny
O ri
Ġpravdepodob nosÅ¥
Ġturi sti
Ġev rop
ĠKrist us
Ġin gredi
Ġbalk Ã³n
Ġo stala
Ġchor Ã©
graf ie
Ġni ght
ĠrodÃ¡ k
Ġa te
Ġvz tah
Ġle ft
Ġla nov
Ġprojek toch
Ġprev rat
Ġsp al
Ġsta rob
ĠKana de
tu rg
th an
ĠHav el
Ġbez o
t nÃ½mi
ĠUrb an
k ovat
ĠvÃ¡Å¾ nÄĽ
OO OO
Ġnezvy Äįaj
ĠodsÃºd enÃ½
NajvÃ¤Äį Å¡ÃŃ
Ġko tÃº
ĠzÃ¡klad nÃ½m
Ġtitu lov
Ġst vÃ¡r
Ġra s
Ġod vie
ĠspoloÄį nom
Pod la
Ġzdravot nÃº
b on
Ġbru tal
ĠtretÃŃ ch
ĠsprÃŃ s
ni ctvo
Ġvse obec
sam ozrejme
S prÃ¡v
Ġpo tu
ĠinÅ¡pe k
kÃ¡ Äį
mien ok
ĠumoÅ¾ niÅ¥
Ġpres Ãº
A kÃ¡
Ġpostup ov
Ġuz nanie
ĠNovÃ¡ k
ch an
Ġnaj kvali
Ġzastav ili
vÃŃ z
R S
Ġsp ory
ĠvÅ¡i mol
c ovali
Ġno Å¾
ĠodsÃº dili
Ġanti se
Ġtalian skeho
Ġdemokra tickej
ĠprÃŃrod nÃ©ho
Ġpo hl
Ġzmen it
Ġspom ali
em an
Ġsvet ovom
Ġpostav enia
Ġchor Ã½ch
ĠIn Å¡titÃº
Å¡ta r
Ġweb ovÃ©
Ġtru e
Ġnapad ne
ĠÅ¡ampion Ã¡t
bt w
Ġpo rÃ¡Å¾
ĠM Z
ĠgÃ³ lom
ĠnavÅ¡tÃŃ vili
Ġhra de
Ġhovor it
Ġdal Å¡ÃŃch
za ÄįnÃ½
ĠdÃ´leÅ¾i tÃ½m
Ġpodpor il
sti tÃº
Ġb avi
SkÃº ste
Ġpredvy plnenÃº
Ġko lenÃ¡
Ġna razil
Ġzak la
M od
S ud
Ġrakov inu
Ġvyze ral
Ġma pu
Ġmo hou
ĠhovorÃŃ te
Ġdr s
he i
ĠprincÃŃ py
9 7
Ġrovnak Ã¡
ĠpredÃ¡va jÃº
ĠFI FA
ĠLi ve
Ġn Ã´h
P P
ĠsÃº hrn
ĠvÃ½kon nÃ½
ĠobÄįian skeho
in ov
ĠB ad
Ġvre cka
Ġbene fi
Ġani m
Ä¾ ovÃ¡
ĠT ony
Ġchole ste
Ġk oronavÃŃ
Ġme lÃ³
Ġfak torom
ĠzÃŃska jÃº
ĠtelevÃŃ ziu
Ġna bo
Ako by
Ġstred ovek
ĠvÄįe raj
sa u
Ġkla vÃŃ
Ġjedine ÄįnÃ©
Ġminist ri
ĠinÅ¡titÃº tu
Ġjad rovej
Ġstro ja
ĠÅ¡ ab
ĠpÃº ta
Ġne hra
Ġd vÄĽ
Ġbak tÃ©ri
Ġtre tinu
ĠF lor
Ġvod o
Ġzdra vÃ©ho
Ã³n ia
Ġhroz bu
Ġsta vy
Ġdr vi
Ġod dy
Ġsepa rati
Ġschop nostÃŃ
dÃ¡ vna
Ġhovor ilo
Ġobvin enÃ½
Ä¾Ãº bil
Ġob c
Ġdokon ce
Ġpolo hu
ĠvÃŃÅ¥az ov
Exist ujÃº
Ġpodpredsed u
Ġpriemysel nÃ½ch
Äį enej
ĠSer gej
Ġpondel ka
Ġdo kola
Ver ÃŃme
av en
Ġj aj
Ġi r
Ġkriti ka
Ġalian cie
ĠB io
Ġdi ky
Ġkrimin ali
Ġb aj
ĠtradÃŃ ciu
ti cs
Ġs kep
ĠvyÄįer p
Ä¾ am
! ?
Ġcen ovo
Ġne skÃº
ta te
Ġpremi Ã©re
Ġw atch
Ġvyh ad
Ġhovor cu
h ova
Ġver ÃŃme
Ġbez platne
ĠO ch
ĠvÃ´ Ä¾u
Ġpripom enÃºÅ¥
Ġre tard
ti cu
Ã¡r ny
Ġobchod nÃ½
ĠlepÅ¡ie mu
ĠPan ny
ĠvÃ½ nos
Slovensk Ã©
Ġspo za
Ġvy drÅ¾
ĠI ve
Ġzaob chÃ¡dz
Ġch uj
ovi c
S ie
Kedy si
Ġv st
prie mer
Poved z
ĠniÄį om
Ġmat kou
Äį inou
Ġpotreb ovala
ĠÅ¡kol skej
Ġkar tou
Äį ar
Ġnasledu jÃºci
Ð¸ Ð
Ġvak cÃŃ
ĠBriti sh
ĠM ie
i gen
Ġvla kom
ĠR as
tie b
Ġsp ri
Ġporov naÅ¥
Ġmen Å¡in
ĠA soci
Ġnadob Ãº
ĠGaÅ¡par oviÄį
e u
Ġpohy bli
Ġnez menÃŃ
ĠpokraÄį ovali
ĠspomÃŃn anÃ©
ĠFranti Å¡ka
Ġlie ku
ĠÅ¡kol skÃ½
Ġkon Äįat
Ġbav it
Ġ197 0
ho ny
Ġu ÄįenÃŃ
Ġpubli kum
ĠA G
ĠzÃ¡ bra
ĠÃºstav nÃ©ho
Ġfebru Ã¡r
ĠvÃ½chod nom
Ġpredpo kladu
Ġro le
P rak
Ġorigin Ã¡l
Ġzlo dÄĽ
S la
ti zmus
ĠÅ¥a hÃ¡
ĠO rav
Ġrie ke
ĠMar cel
ĠzÄ¾av u
ĠMar ie
Ġsamoz ÅĻejmÄĽ
im ho
Ġzdravot nÃŃctve
ĠOb ama
ĠT ich
Ġvi zi
Ġkriti zoval
ĠÄįlovÄĽ ka
ĠLo tyÅ¡
Ġspon tÃ¡n
Ġcelos lovensk
en cia
ĠKa ted
Ġochran nÃ©
Ġkrv nÃ½
ĠÄįist ej
Ġse s
ĠMi ro
ĠPrav da
Ġstup id
ĠÄįerst vÃ©
ĠL enka
Ġpres nejÅ¡ie
Ġzvu ky
Pri Å¡iel
Ġvy my
ĠJ ul
ĠRus ov
Äįi ky
ĠD or
ĠG lob
sp rÃ¡
Ġnes na
ĠsoftvÃ© ru
f Ã¼r
ove la
ĠneÄįaka ne
Ġturi stickÃ©
ĠzÃ¡ le
ĠpÅĻi jde
ĠvÃ½raz nejÅ¡ie
de ra
Ġpredaj ni
ĠÃºtoÄį nÃŃka
ĠVeÄ¾ mi
B ER
w en
Ġp Ãºt
Ġpozrie me
Ġdeba ta
Ġz rak
Ġcan not
Ġwell ness
Ã ł
Ġ3 60
Ġzverej nenia
Ġsobo ta
er ia
ĠpovaÅ¾ ovanÃ©
PoÄı me
Ġvi dis
Ġwor th
ka ra
Ġpriesku my
ĠblÃŃ zkej
tov u
Ġus me
Ġak tÃŃvnych
Ġbud ovanie
Ġnevi dia
Ġnebezpe ÄįnÃ½
Ġna klo
ĠSpo lu
Ġarchite kt
spo n
ĠposÃº diÅ¥
Ġporad ca
Ġmom entu
ĠParÃŃ Å¾a
no n
Ġover iÅ¥
ĠÄį em
ĠvÃ½znam ne
ky ch
v z
ĠE lect
Ġzach oval
zÃŃ vny
c neho
Ġ19 00
z ma
Ġpod ania
Ġpr d
Ġh le
Ġmigran ti
Ġneznamen a
ĠpredchÃ¡dza jÃºcej
ĠkaÅ¾d ou
Ġstretnutia ch
Ġjist ÄĽ
Ġwro ng
ak i
Ġza zi
Ã³ zy
Ġspl nenie
ĠprÃŃsluÅ¡ nÃ½ch
Ġnajkraj Å¡ie
sto ra
Ġole je
ĠvÃ¤Äį Å¡ieho
Ġlo t
Ġhodno tÃŃ
ĠformÃ¡ t
Ġvy vÃ¡
ĠI ts
Ġz ia
Ġb razÃŃl
ĠJ un
ĠJo nes
Ġha ha
Ġtex te
ĠÅ¡tru ktu
Ġaplik ovaÅ¥
ĠuÅ¾ÃŃ vanie
Ġdo ing
ĠnÃ¡zor om
Ġmotor y
i tel
sta tok
ĠA maz
Ġra ny
Ġde la
Ġpoci tu
Ġdo ra
Ġkona lo
Ġneme ckÃ©
ĠK ro
ĠzÃ¡bav nÃ©
Ġsklad ieb
i ku
h Ã¡r
Äį nostÃŃ
ĠE X
Ġ9 2
ĠbrÃ¡ nu
ta lo
Ġpodstat u
Ġbl be
ĠUkraj inu
Ġnapis ane
Ġidenti ty
Ġp anov
Ġwe il
Ġ10 5
ĠkombinÃ¡ cie
Ġne vid
Ġjedin Ãº
Ġpat rili
ĠVol k
ma jÃº
Ġ196 9
Ġru skÃ¡
ĠÃºÄį te
Ġcyk lu
ĠdÄĽ je
ĠÅ¡kol skom
ĠÄĮ S
rÃ¡ Å¡
c ra
Ġodohra li
bu m
Ġpom eru
Ġz lia
Ġza vÃ¡dz
to lÃ³g
ĠkÃ¡ v
Ġmaje tkom
Ġz hu
ĠvÃ½rob com
Ġza pas
Ġnepo u
P Ã¤Å¥
ĠP ari
z vy
ĠC lin
KaÅ¾ dopÃ¡dne
Ġvarian t
do Å¡
x ie
Ġn Ã´Å¾
Ġt ia
Ġpat ÅĻÃŃ
Ġjednotli vÃ½mi
Ġpodnika teÄ¾a
ĠpoÅ¾ad ovaÅ¥
ĠÃºstav nÃ½ch
Ġdov ed
Ġprispe l
ni ckou
ĠhospodÃ¡r sky
Ġpo hrani
Ġhlad at
O kolo
Ġvyd ar
Rich ard
Ġdemon stra
ĠKrÃ¡ Ä¾ov
Z om
ĠnÃ¡ ru
ĠvÃ½ k
Ġslad kÃ©
Ġvychut nÃ¡
ut balisti
ĠNe u
Ġnak res
Ġmili tan
komu ni
Ġaktu Ã¡lnych
Ġnepochop il
ÅĪa jÃº
m od
ĠF eder
Ã¼rg er
F unk
i ler
Ġpri pev
ĠI M
Ãģ L
Ġfak tÃºry
Ġfor iem
Ġkle sa
ak rÃ¡t
Ġvie re
ĠMar y
ĠA J
Ġreali tou
ĠvÃ½zna mu
gra mu
Ġbom by
ĠF ede
ĠuvÃ¡dza jÃº
ĠvÃ½bu chu
Ġnek vali
rr rr
ĠTH E
ĠzaisÅ¥ uje
ĠA udi
Ġnepria teÄ¾ov
Ġkonku rz
ĠuvaÅ¾ ovaÅ¥
kom o
Ġkomuni stov
kov skÃ½
Ġzby te
uÅ¾ÃŃ va
Ġprih rÃ¡v
Ġpripad Ã¡
Ġtepl om
Ġstre chu
Ġd anÃº
hlÃ¡ senie
Ġlete ch
rov y
Ġpodozri vÃ½ch
Ġzdo kona
Ġg un
Ġvz o
Ġon ko
Ġu Äįia
Ġvy znam
Ġpo stupe
Ġstred nÃ©ho
ĠÅłvajÄįiar sku
B M
Ġnevi diteÄ¾
Ġre mi
kdy Å¾
teÄ¾ mi
Ġsi ro
ĠvypoÄįu Å¥
Ġmedzi tÃ½m
Å½ eny
ĠpoÄįÃŃta Äįe
ĠÅ¡tvr tom
ĠakÃ½ si
ĠFran cis
ĠF ol
Ġodtia l
Ġana rch
Ġhla si
Max im
Ġh Ã´r
Ġpotvr dilo
Ġmla dej
Ġnej en
Ġprv kom
Å¡ie k
Hovor ca
d ka
ĠobjednÃ¡ vke
ĠsÃºkrom nej
Ġkon di
ĠznÃ¡my m
Uvi dÃŃme
Ġnebude Å¡
Ġne lÃŃ
Ġza loÅ¾iÅ¥
Ġmod ul
ĠMÃº ze
Ġwe ek
ste ho
di ska
Ġeine m
lan t
Ved el
Ġpri pÃŃsal
Ġre zolÃº
ĠH il
Ġm zd
Ġzdravot nÃ¡
ĠsÄ¾ub uje
Ã¼ t
ĠBer lÃŃn
en stvom
Ġzastav enie
M iesto
Ġj ÃŃt
ĠvÃ½cvi ku
Ġozna ÄįiÅ¥
z ba
Ġos ady
jeb any
Ġa mi
Ġna ria
ĠÃºc tu
Ġkolo ni
ĠÅ¡paniel skej
Ġrozumie m
Ġfraje r
ĠÃºspe chom
Ġzau jaÅ¥
ĠI ÄĮO
Ġcir ku
ĠvzÃ¡ pÃ¤tÃŃ
Ġby chom
Ã¡ nom
Ġgrand sla
ku ju
Ġnaj drah
ĠvÃ¤z be
Ġja ri
Äįa jÃº
ĠtermÃŃ nu
Vladi mÃŃr
Ġod oz
Ġla nd
Ġpod ali
Ġg um
Ġk ad
ÅĻes nÄĽ
f l
ru jte
ĠvÃ½bu Å¡
ji lo
Ġodbor ne
ĠAmeriÄį anov
ZÃ¡ ujem
Ġchrb tom
Ġta zke
Ġsie l
ĠÅ¡tvr t
Ġkoru ny
ĠvÃ½znam nÃ½m
ĠLe e
ĠneuveriteÄ¾ nÃ©
Ġve ciam
Ġreali te
ĠTi me
Ġza pom
Ġtak Ã©mu
Ġtla ÄįiÅ¥
ĠV W
Ġverej noprÃ¡v
Ġzverej niÅ¥
ĠD es
Ġpre hovor
Ġve cami
ĠA ri
Ġdi men
ene ho
Ġzaob sta
Ġodo siela
ĠÅł kÃ³
Ġod vÃ¡dza
E U
ĠAr m
Ġdoklad ov
is ch
Ġregist rÃ¡cie
ologick Ã©
V Ã¡Å¾
Ġstoli Äįky
Äį enÃº
Ã½ tal
Ġpredstav enia
T ou
os lovensk
ĠreÅ¾is Ã©ra
Ġuprav uje
Ġbri g
Ġutr pel
ovan osti
Ġoc enÃŃ
Ġmeda ily
ĠÅ¾Ã¡d nÃ½
Ġha va
H u
Ġodbor nÃ©ho
Ġpozor ovaÅ¥
Ġke f
Ġpor tugal
Ġkomple tnÃ½
Ãº ci
ĠsÃº stra
ĠD ÅĪa
ĠThe re
ĠpredchÃ¡dza jÃºce
Ġob hÃ¡j
Åł tÃº
ĠnÃ¡ doby
ĠzÃ¡pas om
s se
Ġzmyslu pl
ĠÃºstav e
Hlav nÃ½
Ġamin oky
ĠÄįer pa
Ġpozer Ã¡
Ġma lou
ĠÃº nos
ĠdÃ´ klad
rÃ¡l nych
sta ÅĪte
Ġofi ciÃ¡lny
Ġweb strÃ¡n
Ġatmosf Ã©ry
z eny
Ġhod ina
Ġtr vajÃº
Ġnepri mera
Ġstrie Ä¾a
G rÃ©
ĠorganizÃ¡ tor
ĠnÃ¡stroj om
Ġpri rov
ĠA D
ĠnezÃ¡ leÅ¾ÃŃ
s enÃ©
Ġnie com
Ġtechni kou
ĠD am
ĠMa cedÃ³n
ĠÅ¡pat nÄĽ
ĠN av
ĠKe Å¾
ĠGrÃ¼ nen
Ġvel kÃ©
Ġleg itÃŃm
Ġpapie ri
Ġfotografi u
Ġkonkurencie schop
ĠO lympi
Ġparkov isko
Ġz ensk
U rob
Ġcho ice
Ġvy stÃºpi
ĠsociÃ¡l nu
Ġdru ho
Ġvyzna Äįuje
ĠR ov
Ġbo je
Ġho diÅ¥
ned Å¾er
ĠA lo
ĠLi fe
Ġone skor
Ġza cin
iac ou
fi ci
Ġd ÅĻÃŃ
ĠnÄĽk dy
po le
Ġare Ã¡l
Ġtr ia
ĠsnÃŃm ky
ĠveÄ¾ tr
Ġbr ing
Ġpo ke
ĠfÃ³ rum
ĠA LE
Ġpredstav oval
Ä¾ ova
Ġzamera nÃŃm
ĠÅ¡tvr tej
Ġvod ca
ĠznÃ¡ zor
Ġpovie te
Ġplo chou
ĠpÃŃ sali
li me
ĠTre ba
ĠC N
t rÃ¡
mar ket
Ġnavy se
Ġrozhodne te
Ġu pad
Ġimuni tu
ĠnÃ¡ sten
nov om
Ã¡ s
ĠzÃ¡pad u
Ġpri k
ĠS ig
ĠÃºspeÅ¡ nÃ½ch
ĠrezervÃ¡ cie
ÄĮ ist
ĠAnd er
Ġstra tiÅ¥
ĠhÄºb ky
Ġvy stra
Ġkon ven
ĠdruÅ¾ stva
ĠÄįÃŃt ania
Ġne pl
ĠmedzinÃ¡rod nÃ¡
ĠplanÃ© te
Ġkaz dej
Ġkre dit
Ġob ciach
Ġinforma ÄįnÃ©
Ġnepria mo
ĠzÃ¡ Å¥a
ĠvÃ½ni mky
T Ã©
ĠnezÃ¡vis lÃ©
ĠÄ¾ ut
Ġkar te
Ġdoteraj Å¡ÃŃch
m ovÃ©
ĠsprÃ¡v nym
ĠGrÃ© cka
Ġsu krom
V stup
ĠdÃ´sled kom
Ġv rat
ĠRy b
H okej
Ġh om
Ġpozo stat
Ġti to
Ak tu
Ġnede je
Ġzdra v
nÃ¡sob nÃ½
Ġzne u
Ġklub om
Ġpred vÃ¡dza
Ġtro pi
ĠnajvyÅ¡ Å¡ÃŃch
Ġne rozu
Jedno tli
ak Ã©
Ġangli ckÃ½
bil nÃ©
Ġka pa
J inak
ÃŃ ch
ĠdÃ¡v nejÅ¡ie
Ġmo Å¾e
Ġra men
Ġnor iem
Ġhokej a
Ġaf gan
Ġje bat
Ġkv Ã³
ĠpredÃ¡va jÃºcim
ĠzamestnÃ¡ vateÄ¾ov
Ġform Ã¡lne
Ġbo t
Ġkto koÄ¾vek
ĠvÃ½ Å¥aÅ¾
Ġpresved Äįi
d lho
ĠnÃ¡boÅ¾ enstvo
Ġhap py
Ġre Å¡trukturali
ĠvÃ½cvi k
ĠhosÅ¥ om
ĠpreÅ¾i tie
nov Ã½m
bu n
Ġnez verej
ĠL id
ĠJ ud
Ġvysie lania
he im
ĠvÅ¡et ku
Ġpia tej
Ġvzde lania
v ni
Ġodporu cam
ĠÃº raz
ĠTom io
ri pt
ova tel
ĠdiaÄ¾ ku
Ġk aka
Ġvy ply
Ġpro c
Ġpoc ul
Ġneob sahuje
Ġhud bou
Ġpro s
tÃ¡ ciou
ĠdÃ¡va li
h ard
Ġcel kov
Ġdie ry
ĠPra Å¾
Jas nÃ©
Å¡a de
Ġnazor y
Ġspra va
Ġhodno tiÅ¥
Ġkomb ina
Ġza sko
Ġnov inÃ¡ch
Ġpi Å¡to
Jak ub
Ġdi vnÃ©
Ġposkyt ovanÃŃ
ĠR O
ĠKom Ã¡r
Do kÃ¡Å¾e
ĠkonkrÃ© tneho
Ġ17 00
ass word
ĠuÅ¾ÃŃ vania
VÃ½ ber
z ad
Ġpre klade
Ġpoci tom
spe ct
Ġzi je
Ġprost ÅĻed
Ġhe ro
Ã³mov ia
Ġopra viÅ¥
P lÃ¡n
ĠbÃ½val Ã¡
Ġpre sia
V ar
ĠpokraÄį ovala
Ġmal Ã½mi
Ġkole gom
Ġposled ny
Ġbezpe ÄįÃŃ
Ġod tla
Ch Ã½ba
Ġvy Å¡tud
i ght
Ġin zerÃ¡
Ġre port
ĠprÃŃ ve
ĠanalÃ½ za
ĠMys lÃŃm
Ġho spo
Ġziad na
Â ¾
D oz
Rov nak
Ġaktivi tÃ¡ch
Ġextrali gy
Ġst andard
Ġvyrov nan
Tu be
Ġchemi ckÃ½ch
Ġn ova
M ÅĪa
Ġse xy
ĠzÃ¡klad ÅĪu
iat lo
Ġmen Å¡ia
ĠÅ¡pin av
ffer ent
sku s
8 1
ĠschvÃ¡ lenie
G E
ĠzaÄį len
ĠvÃ½ lety
Ġpoz vÃ¡
n ovat
w here
j Ã¡
di Ã¡
Ġtri bÃº
ĠsÃºper om
ĠÄįe lo
Ġbom ba
Ġnavrh nutÃ©
vi me
ĠInter net
Ġhoriz ont
Ġzv last
Ġzamestnan osti
ĠSe ba
at lan
ĠkaÅ¾doden nÃ©
Ġobjav ovaÅ¥
Ġha be
eeee eeee
Ġab stra
ĠmÃ´ Å¾me
ĠvytvÃ¡ ranie
Ġinter nÃ¡
Ka pi
ĠtvÃ¡ rou
3 00
ci lo
Ġdue lu
li ÃŃ
Ġpredpis mi
ĠprÃŃprav ky
ĠÃļstav nÃ½
ĠohÄ¾ad ne
ĠprevÃ¡dz ka
ĠD ana
Ġpok rÃ½
M art
Ġvol bÃ¡ch
Ġn Ã©
Ġkor Äįu
Ġche ck
Potreb ujem
Ġprak tiky
Ġhroz nÃ©
R Ã¡no
Ġjazy ky
ĠÃºÄįin kov
Ġpne um
v raj
Ġinf ar
ĠprestÃŃ Å¾
ÅĻe bu
Ġzne vÃ½hod
Ġp ÄĽ
V ER
bo s
Ġrozde liÅ¥
on Ã¡
Ġge hen
Ġpodrob ne
ĠudrÅ¾ anie
Ġkre stan
Ġdo liny
Ġ197 9
hla dom
Ġkame ÅĪa
Ġsk lÃ¡
Ġjak Ã½
Ġnajlep si
Ġpoist nÃ©ho
Ġpat rila
Ma teriÃ¡l
Ġteles nej
b ed
Ġdo ka
VeÄ¾ kÃ½
T ASR
ÅĻ el
ĠJa ro
Ġvy rad
Ġnena Å¡li
ĠoÄįi vidne
ĠÄįÃŃn skej
ĠkultÃº re
sie ho
ori ent
Ġodpad ov
Ġzobraz ÃŃ
ĠzaloÅ¾ enia
Ġpo stie
Ġinforma ce
pre zent
ĠzvlÃ¡d li
ĠporuÅ¡ enia
Ã¡ loch
ĠR ot
ĠÃºc ty
atÃŃ k
ĠvÃ¡ ha
Ġo por
ĠzÃ¡k ru
Ġinforma ÄįnÃ©ho
Ġpripoj enia
ĠL at
Ġlo Å¾i
Z razu
ĠvÃ½stav e
la na
Ġakcept ovaÅ¥
ĠsÃºd ov
Ġpubli ci
Ġsa chari
Ġle tnej
Ġumele ckej
Z E
Ġhistor ickej
ĠoÅ¡et renie
skup ina
Ġos lÃ¡v
ĠÃļstav nÃ©ho
nick Ãº
Ġobdob ÃŃm
Ġvykon anie
ĠÅ¾i vÃ½
ĠhlÃºpo sÅ¥
Ġanje l
ĠA ch
Ġdebat u
M ilo
Ġwhi te
ed ia
sy ch
Pr vÃ½m
ĠhrÃ¡Äį mi
Ġf r
ĠbÃ½ vaÅ¥
ĠplÃ¡nu jÃº
VeÄ¾ kÃ©
Ġpubli c
ĠfolklÃ³ r
ĠzÃ¡mer om
ĠKo lum
stie ra
Ġver te
Ġjad rovÃ½ch
de mokra
Ġautomobil ka
Ġtra su
Ġun til
Ġpropa ga
Ġse em
Ġply t
Ġpoved ie
Ġnesk la
ĠnejvÄĽt Å¡ÃŃ
ĠÅ¾i lin
Ġmo tÃŃvom
Ġpostihnut ÃŃm
P G
ĠnÃ¡ Äįel
Ġvr stvu
Mys lim
Ġvych ad
Ġh aly
Ġreali zuje
ĠDa y
Ġdlhodob Ã©ho
Ġtre sty
Min im
Ġpa pri
Ġbra tom
Ġnad nÃ¡rod
Ġvyk res
ĠprÃŃ pravok
Ġprij atia
Ġna hÃ¡ÅĪa
Ġhroz bou
ĠNÃ¡ mest
zen tujÃº
Ġza kot
ĠG on
Net reba
Ġpo sob
ĠFra u
C hor
Ġed it
ĠV en
Ġo same
Ġcelo Å¾ivot
Ġprijat Ã©
Ġzau jala
Ġtelef Ã³ny
ĠkapitÃ¡ lu
Ġkomplex nÃ©
Ġspole Äįnosti
tov e
Ġtrans fer
Ġpredaj om
Ġhistor ickÃ©ho
VÃ½ raz
na h
ĠE di
Ġrozdie lom
Od poveÄı
Ġpre vaÅ¾
Ġamerick Ã½m
re ady
Ġpod Ã¡vaÅ¥
Ãļ plne
Ġpapie re
Ġota zky
rov Ã½m
Ġnezabud nite
Ġkoord in
Ġt me
Ġma min
Ġdlhodob ej
ĠsÃºd neho
stru k
Äį nÃŃka
Ġs lie
ĠD D
Ġf ej
ln ko
ĠB L
di vu
ĠL A
Ġeu ch
ĠvynÃ¡ le
ĠlÃŃst kov
Kla si
en toch
ĠPoz ri
Ġzo stanÃº
Ġreali zÃ¡cii
Posled nÃ½
ori ty
ĠÃºÄįast nÃŃk
Ġfil moch
Ġprav Ã¡
Ġkonferen cia
W ir
Ġsp ia
Ġuzav rieÅ¥
Na u
dÄĽ lÃ¡
Ġzodpoved ne
Ġok r
Ġs end
Ġneob jav
Ġ ÃŃr
Ġko zmi
Ġobid voch
ĠAl bÃ¡n
V Å¡eobec
Ġpara daj
Ġa dren
Ġble sk
Z ase
ĠI ll
P rÃ¡v
Ġzmen Ã¡ch
Ġpriazniv cov
Ġb lÃº
ĠvoÄ¾ be
Ġhrdin ov
ĠzaprÃŃ Äįin
Ġnu la
Ġdo uf
ba b
ĠpouÅ¾i je
ĠpokraÄį ujÃº
zor t
Ġo kom
Ġkriti ky
Ġma my
Ġkon gres
Ġsu Å¡i
ĠnÃ¡ro ÄįnÃ¡
Ġopak uje
ĠÅ¾ reb
li ca
Ġkvali tnÃº
Ġkoncer te
Ġzim nÃ©
an ky
ĠÅ¡por te
ĠviditeÄ¾ nÃ©
ĠGot t
Ġs w
Ġo hlas
Ġvlast nÃŃctve
ĠangliÄį tine
ĠkoalÃŃ cii
Ġskrat ka
Ġpot lÃ¡
Ġroz ma
ov skÃ¡
Ġh eb
Ġved ome
Ġhor mon
Ġpodob nÃ¡
Ġklasi ka
Ġv stÃºpi
ĠbrÃ¡n ky
ĠM ou
to na
ĠrÃ© Å¾i
Ġu Äįenia
Ġodhod la
Ġmole ku
Ġrozde lenie
Ġb ale
Ġsp ieva
Ġre lÃ¡cie
Ġzak om
ĠhÄ¾ad al
Ġmest skÃ©
ĠchÃ¡ paÅ¥
ĠM am
Ġbez ne
Ġsan cu
Ġtu n
Ġpedo fil
eni ci
ĠTru ban
len ou
Ġz lÃ½ch
Ġsto percent
Ġvoj nou
Ġrozdiel ne
Ġsp Ã¡l
ĠprÃŃ stroje
Ġhviezdi Äįiek
ĠnÃ¡ u
Ġzabra ÅĪuje
pat ie
Ġnerie Å¡i
Ġne dala
val y
ensk om
Ġprovo ka
ĠM eli
Ġunder stand
n b
nul Ã©ho
ĠskÃºsenosÅ¥ ami
Ġbre xi
Ġchil dren
Ġchari ta
z anÃ¡
Ġva g
c ujem
ĠvÃ½ch ovu
ĠmedzinÃ¡rod nom
ĠVy so
Å¾ÃŃ te
ĠH Ã¡
Pod rob
Ġa tra
ĠpÃ½ tal
jÃŃ t
Å¡ ania
Ġtu k
ĠpozÃŃ cia
ĠÅ¾i la
Ġbra u
ĠprÃ© mi
Za bud
ĠrozpoÄį te
Ġzame raÅ¥
Ġodstup om
Ġaro gant
Ġu pÃŃ
C om
Ġkam er
Ġwhi le
Ġnavi g
ĠdrÅ¾ al
ĠuskutoÄį nili
Ġfunk ciou
stÃ¡va jÃº
Ġmusie t
Ġzelen Ã½
ĠT ok
Ġnep lat
ĠpriblÃŃ Å¾il
ĠInd ie
Ġobchod ovania
ĠPon Ãºka
Ġre Ã¡lnom
Ġnahrad il
Ġani mÃ¡
ĠCo lo
Ġrozhla su
Ġsa teli
ĠG il
Ġkau za
Ja ko
Ġzm Ã½Å¡
ĠD un
Ġvysky tujÃº
Ġm p
ĠKa pi
V al
ĠzÃ¡vÃ¤z ok
Ã³nov ej
Ġ198 2
Ġle m
Ġvzor ky
Ġst anÃº
Ġoslov iÅ¥
Zauj ÃŃmavÃ©
Ġd j
ĠÅ¾ena mi
Ġza pl
Ġmiest ny
ĠzloÄį iny
i ba
Ġpotra vy
Ġnov Ã¡Äįi
ĠZÃ¡ hor
ĠC IA
ja zdy
Hlav nou
Ġnaj rÃ´z
Ġde ad
Ġvoj sk
Ġb lu
ĠEvrop ÄĽ
Ġdis po
Ġvzdia lenÃ©
K re
ĠmaÄıar skÃ©ho
ĠNe viem
tin ent
ON D
Ġpropagan da
Ġg ender
do or
Ġ9 3
Pre co
Ġnejak ych
vie k
Ġnas ej
ĠstÄº p
Ġsil nej
Ġnevyhnut ne
An aly
Ġtr vala
Ġvtip nÃ©
Ġvy stÃºpil
Ġ9 7
Ġvy stÃºpiÅ¥
Ġprezent Ã¡ciu
ĠÅłvÃ©d sku
ĠkrÃ¡s nej
ĠzvlÃ¡d ne
chÃ¡dza Å¥
US D
ĠzÃ¡ sade
Ġhno j
ĠprÃŃtom nÃ½ch
Ġodha liÅ¥
Jedin Ã½
Ġdie ser
ĠzÃ¡kon nÃŃka
U Å¾ÃŃ
ta ge
Ġko stÃŃ
ĠMeÄįia ra
t d
ĠH rad
Ġgener Ã¡ciu
ĠzakÃº p
ĠPres s
ne ra
K y
j n
Ġzasad nutia
Ġzalo Å¾ili
ĠÄ¾ud om
pr sen
Situ Ã¡cia
rob ia
Ġta xi
Ġzvo lil
Ġpad la
kov u
pom oc
Äį t
ĠAngli cka
Ġpo prav
tak y
hod li
in ok
Ġc ti
Ġvyd anÃ©
ĠprÃ¡vo plat
Ġprez radil
mi d
Äįka ch
Ġzad nÃ©
Ġzd at
ĠÃºÄįast nÃŃka
9 4
ĠuÅ¡et rÃŃ
Po pis
IC A
ĠspÃ´sob ilosti
ĠF it
Ġme stu
Ġcyk lus
Ġzna Äįke
Ġnes ou
ĠznÃŃ Å¾ili
ĠtÃ¡bor e
Ġspro sto
Ġmil ujÃº
ĠvÃ¤ zni
Ġko Å¾a
op at
ĠnemÃ´Å¾e Å¡
Ġso lÃŃ
U byt
Ġslab Ã½
ĠvzrÃ¡ stli
Ġpozera m
Ġhe art
jo y
Ġzbier ku
ĠvidÃŃ Å¡
Ġprodukt om
Ġfung ovat
Ġe ro
Ġdizaj nÃ©
Ġorigin al
Ġlog ickÃ©
Ġka ros
pi te
Ġnap rie
ĠOkres nÃ©ho
ĠvÃ½ro ky
ĠEU RO
Ho stia
ĠnÃ¡ hoda
V hodnÃ©
Ġvy tva
ĠzabezpeÄį ujÃº
ĠÅ¾ensk Ã©
Ġolej om
ĠpÄ¾Ãº c
RA V
ĠZ lat
Ġpo raz
pa ne
ĠÄı aÄ¾
z av
Å¾ne ho
ĠdÃ´leÅ¾itej Å¡ie
Ġsvet ovÃ¡
Ġsp Ã¡lne
e Å¡te
ĠPh D
Ã¡l mi
Ġnepri ja
ĠprevÃ¡dz kuje
Ġe k
ĠvÃ½bor nÃº
Ġz Ã³ne
ktor ÃŃ
ĠpredÄºÅ¾ enie
Ġuspo ko
hÃ¡ ÅĪ
Ġenergi ou
Ġcivili stov
Ġzo stava
Ġsed i
Ġo u
ĠManch ester
Ġspu stiÅ¥
Ġhe tero
Ġneo naci
ĠH lin
Ġnariad il
Ġfol low
Ġd ÅĪu
Ġposkyt la
ĠprÃŃsluÅ¡ nej
Ġpozna li
ĠformulÃ¡ ra
c te
ĠS pr
Ġpova hy
Ġzru Å¡ili
Ġes ho
zi k
pr ve
Ġkam oÅ¡
Ġhov Ã¤d
ĠOf fice
Ġvybra t
ĠVie deÅĪ
ĠB rez
Ġvojensk Ã½
Ġzved avÃ¡
Ġfo od
Ġpohla v
ĠVal ent
ĠvÃ½men e
Ġhne v
Ġzamys lieÅ¥
Ġsil nejÅ¡ie
ĠK lo
ĠLo gin
Ġnevy u
Ġsln ku
Å¾i me
VÃ½ znam
ĠreÅ¡taurÃ¡ ciÃŃ
Ġpod ala
da de
Kon com
Ġoc eni
Ġnie sÅ¥
len t
Ġpo tok
loÅ¾ enÃ½
Ġspolo cnost
ĠK ou
ĠL ar
Ġnaj ma
Ġtu nel
Ġbieli zeÅĪ
Ġbezod kladne
Ġz Ã³na
ke it
ĠzÃ¡ por
ĠskutoÄį nÃº
ĠnÃ¡rod nom
Ġsp er
Ġabsolv ovali
Ġsr die
ĠzachrÃ¡ nil
Ġvy hlad
za ce
tÃ© rov
ĠbeÅ¾ nej
Ġutr penie
ĠzÃ¡vaÅ¾ nÃ©
Ġpred nost
ĠjedenÃ¡ sÅ¥
Ġple ch
Ġemi siÃŃ
Ġen ough
ĠkamarÃ¡ ti
Ġneved om
ĠC it
ĠB ill
ĠRu Å¾in
Ġrecen zie
Ġsa lÃ³
Ġvojensk Ãº
MusÃŃ Å¡
sti la
ĠprÃŃ platok
ĠSvÃ¤ tÃ©ho
eni k
Ġpod Äįiar
Ġuspor iada
ĠC ru
Ġperson Ã¡lu
Ġvod cu
ĠW ood
ĠDÃ¡ tum
Je stli
Ġodtie ÅĪ
y or
Ġpev nÃ½
Ġt ÅĻi
ĠHoland sku
Ġu by
ovan ych
ten Ã©ho
Naj ÄįastejÅ¡ie
ĠP A
vÃ¡ k
Ġsle du
Ġne menÃŃ
Ġpl nou
Ġnever ÃŃm
len ce
Ġprebieha Å¥
Ġchy st
Ġmo na
Ġtaj nej
Ġma dar
Ġvlast nÃŃkov
H ist
in skÃ½
ĠV ala
tu ju
jed na
B E
chÃ¡ zÃŃ
Ġnepod arÃŃ
Ġnad riad
stri h
Ġcykli stov
Ġzd voj
ĠvÃ¡Å¡ mu
L Y
Ġx eno
Ġpod vody
Ġj am
Ġch am
Ġsti en
ĠzÃ¡ stan
Ġustanov enÃŃ
Ġpla gÃ¡
kali ta
zi um
Ãļ Äįast
Ġna stÃºpiÅ¥
Ġve Å¾e
Ġfar bami
ĠÄįoko lÃ¡d
Ġdosia hnu
Ã ª
ĠorganizÃ¡ torov
ĠÃģ zii
Ġskri ne
Ġpouzi vat
Ġzap amÃ¤
ĠpoÄįu la
Å¾ ovanie
Ġjedin cov
Ġnez ÃºÄįast
Ġalterna tÃŃvu
Ġty pe
enes an
Ġsle Äįna
p ha
ĠÄį arov
ĠB ir
Ġzdie Ä¾aÅ¥
ĠPolitik er
Ġak ce
Ġposky tli
Ġup Ãº
ĠprÃŃrod nÃ¡
Ġidenti fika
Ġna ku
up l
ĠnÃ¡ro ku
ÅĪ ovanÃ©
poved iac
ĠvÃ½bor nÃ¡
Ġobvin ili
ĠÃºvod nom
Ġex t
Ġma cht
ĠÄĮ ad
Ġver tik
Ġzmen ami
Ġdod ania
med ia
ĠpokÃº sil
ÄįÃŃ Å¡
SÃºÄįas ne
Ġpis em
Ġdlho pisov
Ġv d
at Ã©ho
Ġkombin ovaÅ¥
Å¥ Ã¡k
pre da
Ġd lu
it Ã½ch
ĠnÃŃ zkej
Ġprispe li
ĠkapitÃ¡ na
Ġne form
S kon
Ġveter inÃ¡r
Ġpar ÃŃÅ¾
Ġodmie tajÃº
ĠÃº Å¾i
Ġpo ran
Ġostat ni
Ġod kÃº
kÃ¡ cia
Ġjednoduch Ãº
ĠO dom
Ġodbor nÃ¡
ĠÄ¾a hostaj
Ġun ser
ĠSpar tak
Ġvlast nosÅ¥ami
Ġexper ti
ĠblÃŃ z
si mol
Z mlu
Ġe rek
Ġjednotliv ca
ZaÄįia tkom
Ġs hor
Ġo stalo
Ġzastav ÃŃ
Ġro bu
ve li
ĠcÃŃ tili
zer Ã¡m
Ġzelen e
ĠpoÅ¾iadav ku
Ġkonkuren cii
ĠNaj viac
ti chu
Ġob ale
kla m
pe me
Ġ19 18
Ġorigin Ã¡lny
ĠspÃ´sob ila
ĠÅ¡ÃŃ r
Ġsme ti
ĠsÃºd ny
Ġza de
to sÅ¥ou
ka lo
ĠK ed
Ria diteÄ¾
Ġe ig
Ġsvoj i
ĠÃº hradu
Ã³ my
Ġdob rÃŃ
Ġslu s
Ġmetropo ly
ver z
IN E
ĠCh ris
Ġme lo
obe rec
ĠÅ¡ia len
Ġk len
Ġin vÃ¡
ĠsÃºstra sÅ¥
Ġchod ÃŃm
ĠnÃŃ zkou
Ġvyh rÃ¡Å¾
ĠÅ¾ivot nÃ½ch
ĠFrank f
Ġpre Å¡lo
ca lo
Ġbu siness
ĠI veta
ĠBoÅ¾ie ho
z Ã½m
Ġz ro
Ġohroz enia
rov ou
ier ku
ĠD avi
raj ÃŃ
ĠnÃ¡ro dy
ĠsÅ¥aÅ¾ nosti
Ġexper t
Ġbul har
Ġwo hl
Ġpov y
Ġmnoho krÃ¡t
Ġvodi Äįi
ĠmyslÃŃ me
MÃ¡ ria
Pra ha
Ġalterna tÃŃva
Ġp p
Ġnemo hlo
Ġge hÃ¶
D I
zauj ÃŃm
ĠvÃ½rob nÃ½ch
la ÄįnÃ©
Ġpod i
ĠÄįlÃ¡n kom
ĠkrÃ¡ sa
Ġkon figu
gi ta
Ġc ia
Ġdob ou
ch vÃ¡
p Ã©
r Å¾ia
Ġdopy tu
ĠpÃ½ tam
Ġodol nÃ©
ĠspomÃŃn anÃ½ch
ĠA KO
ĠrozprÃ¡ val
Ostat nÃ©
ĠstratÃ© giu
cha ft
ru jem
ĠpohÄ¾adÃ¡ vky
Ġw is
ĠodsÃºd il
Ġstredove ku
ĠÅ¡ta tu
ĠdÃ¡tu mu
ra ri
ovi Äįa
Ġosob ami
Nav rh
Ġcha te
ĠinÅ¡titÃº t
ĠnÃ¡mest ia
ĠCh ce
Ġtable t
ĠR ol
ĠreÅ¡tau rÃ¡cia
ĠdÃ¡ val
Ġd up
Ġmi losti
ĠpreukÃ¡ zaÅ¥
Ġd ovÃ¡
es s
Ġpam at
ĠnahrÃ¡ dza
Ġzemia ky
in ho
ra diÅ¥
Die v
ĠpÃ´vod nom
Ġnezv lÃ¡d
Ġj dou
ĠnÄĽ m
Ġoper Ã¡ciÃŃ
ĠtrÃ¡ p
Ġtr nav
ng en
Ġdr Ã´
vet y
ĠpredÄįas ne
c ni
Ġpr va
st ent
tÃŃv nymi
Ġtri bu
ari lo
mon t
Ġanaly tikov
ĠIT F
Ġmil ÃŃ
Ġepi dÃ©
ĠH A
ĠsvÄĽ ta
ĠDet ro
Ġznak om
Ġpripomien ky
ĠP H
M r
Ġob ch
Ġvi ne
Ġzom relo
Ġbrit skÃ½ch
Ġidenti tu
Tvr dÃŃ
Ġtelo cvi
Ġja zera
Ġminu lej
yne ko
ĠÃº kony
Ġzapla tili
Ġkec y
Ġmo k
Ġsta ra
Kon tak
s uper
Ġk ader
Ġnej sem
ĠtÃºÅ¾ ba
ĠsÃºÄįas nom
Ġha zard
D O
c c
Ġh ranie
Ġpat r
Ã© na
P latÃŃ
Ġlo pat
Ġned arÃŃ
ĠAk tu
n eni
ra mÃŃ
ing e
ĠznÃ¡ mi
Ġte Ã³ria
Ġbe au
Äįas om
Ġsch e
Nech ajte
pov ÄĽ
ĠÃº pad
ĠspÃ´sob ÃŃ
zi ty
ĠsÃºper ov
Ġko tol
Ġby va
ĠJuho slÃ¡
Ġga rÃ¡Å¾
Ġantio xid
ĠRich ter
Ġproti zÃ¡
Ġfung ovalo
Ġboj oval
ĠspÃ¡ja jÃº
ĠzastupiteÄ¾ stvo
Ġozna ÄįenÃ©
Ġosob nom
Ġlavi Äįke
P orov
ĠNe a
Ġnahra dÃŃ
ĠN S
lo ck
p ti
ĠÅ¡truktÃº ra
ĠV z
Ġd rÃ¡Å¾
Ġnaj skor
van om
ĠÄ¾ah kÃ¡
Ġnef aj
Ġovplyv ÅĪujÃº
S ad
p hi
Ġposiela Å¥
P E
ur ing
ĠdiaÄ¾ nici
Pred sa
Ġdo ÄįkaÅ¥
Ä½ ah
Ġpe ro
Ġpriprav ovaÅ¥
Ġmaga zÃŃ
Ġpla stu
Ġkontex tu
Ġla ssen
ĠDzur indu
ĠÅł k
Ġsy r
ĠH rn
Ġoboj stran
ĠÅ¾iad neho
uu u
T la
Ġu ci
Ġpa to
ĠÅ¡tud oval
Ġten ista
d s
ĠprÃŃrod nej
Ġma rt
Ä¾a vou
Ġmed veÄı
Ġnechce lo
Ġ198 3
Ġpozna tkov
ĠnaÄįas e
ĠF le
Ġobe Å¥ou
Ġz lÃ©ho
ĠnemusÃŃ me
ĠUN ESCO
Ġli de
Ġst rÃ½
Ġodbor y
Ġpriemer nej
Ġve kom
Ãļ Äįin
ĠrekonÅ¡truk cia
Ġjas nÃ¡
Ġsud covia
ĠzaÄįne te
ĠSpiÅ¡ skej
Ġ Î
Ġk ina
Ġnie su
Ġpom Ã½
Ġpa pa
Ġpi rÃ¡t
Ġza interes
men Å¡om
Ġex pan
Ġplo ch
Ġpubli ka
ĠpÃ´jde me
pp ing
est ra
z rad
ĠMo ham
Ġk nie
ak Ã½
Ġokami h
ĠPonÃºka me
ĠH ri
Ġpolicaj nÃ½
ĠÄįier neho
Ġsed enie
ZÃ¡ pas
ĠÅłvÃ©d sko
Ġdy ing
Ġfotoa parÃ¡t
am at
ktor om
m ial
Ġroz lÃŃÅ¡
Ġw omen
ni ke
si Ã¡ch
ÄįÃŃt anie
ch ne
Ġza stra
ĠBe ck
ĠpouÅ¾ÃŃ vanÃŃm
Ġcel oro
ĠneprÃŃ tom
Ġnit rian
ĠpoÅ¾ad uje
Ġpojde m
in stal
ĠvynÃ¡ lez
ĠbalÃŃ Äįek
Ġne bi
vÃŃ da
Ġje z
Ġjed ny
P le
Ġom ie
Ġpostup uje
Ġ Ñģ
Ġrez on
Ġobrazov ke
ĠprÃŃ poj
Vy svet
ĠpÃ¡ du
T ady
ve ro
Ġtova rom
Ġide Ã¡lna
Ġvod nej
man y
Ġpoku ta
be raÅ¥
Ġend lich
ĠD eb
Ġstia hol
Ġmedia li
Ġa do
Ġaktu Ã¡lneho
ĠrekonÅ¡truk cii
Ġmaxim Ã¡lny
ĠVie dne
Ġzrka dlo
Ġvolej bal
a x
Ġma fie
ĠdÅ¯ vod
ĠÅ¾ia kom
Va Å¡a
g ement
ĠA rab
mÄĽ r
Ġ197 6
Ġodhad uje
is ie
ĠprÃŃ sad
Ġzvy kom
ĠÅ¾ivot nej
Ġoptim Ã¡lne
Ġf rÃ¡
ĠpÃ³ diu
ĠK un
Ġkorup ciu
d ku
ĠÄįer stvo
Ġznamen ÃŃ
Ġomy lom
Ġprie hÄ¾ad
Ġod die
ĠKan ady
Ġme Å¡i
Ġume lÃ©
Ġnef unk
g ot
P rÃŃklad
ĠzloÄį inu
Pre ÄįÃŃtajte
ĠpÃ¤Å¥ desiat
ĠsprÃ¡v cu
ĠpoÅ¾iadav kÃ¡m
Ġdigit Ã¡lne
Ġle ad
ĠvÃ½ Å¥ah
Ġprie Äįke
P ut
Franti Å¡ek
to oth
Åł tyri
ĠzÃ¡Å¾i tkov
ĠGabrie l
W er
DrÅ¾ ÃŃm
Ġume lo
Ġvyjad renÃŃ
Ġpolicaj nÃ©
Ġmate matiky
Ġs vor
Ġodovzd al
ĠpalÃ¡ ca
Ã¼ ch
b uje
c Å¯m
Ġmotor ov
ĠBrani slav
ĠOdom knite
Ġin tÃŃm
ĠÄıalÅ¡ie mu
ĠnÃ¡ro ÄįnÃ½ch
ĠtrÃ©n ovaÅ¥
Ġfi co
Ġzrka d
Ġb am
si gn
Ġnajlep Å¡ej
Ġzahy nuli
Ġobmedz enÃ©
Ġupra t
ĠHen ry
razi t
Ġp um
Ġso fisti
Ġzlo Äįine
i skom
Ġp ich
Ġu sklad
ĠÅ¡peciÃ¡l nu
ĠÃºÄįin ne
Ġspokoj nosti
ĠvzrÃ¡ stla
Ġleho ta
Moz no
ĠCir kev
Ġcer v
ĠÅ¡ampi Ã³n
N ÄĽ
ĠdÃ¡v ka
Ġzahra l
ovateÄ¾ nÃ½
ĠM ini
Ġod pÃ¡
e xistuje
ĠPo Äįet
E n
ĠH ome
ĠporovnÃ¡ vaÅ¥
ĠF ri
lÃ¡ ciÃŃ
m na
Ġp som
Ġnov Ã©mu
ĠniÅ¾ Å¡iu
en iny
Ġpod veÄįer
m ak
Ġda mit
ĠC ur
Ġh ent
O ÄįakÃ¡va
Ġformu la
Ġto pÃ¡
Ġnepria teÄ¾a
Ġkam ara
u x
t Ã½mi
Ġvlast nÃŃkom
ĠMichal ov
ĠÄįe st
Ġp hoto
ĠvychÃ¡dza jÃº
ĠW elt
te ÅĻÃŃ
Ġ6 000
Ġvy pr
sÅ¥ ami
Ġza ja
U viedol
Ġspolu ob
ĠhlÃº py
Ġsuver eni
ÅĻ il
ĠP OD
Ġleg ali
si mi
Sam o
Ġkoncer tu
Ġsi t
Ġreferen de
K Ä¾Ãº
Ġnedostat kom
ĠT Y
ĠZvo lene
Ġra na
ĠrÅ¯ z
anu el
Ġnehovor iac
ĠLi ban
Ġpopred nÃ½ch
ĠpripomÃŃna jÃº
ĠnajdÃ´leÅ¾itej Å¡ÃŃch
st ad
ĠbrÃ¡n ku
Ġspo plat
Ġvyslov il
I gor
Å¡ ovaÅ¥
bera jÃº
Ġcak at
Ġden nÃ©
Ho w
Äįi ka
Äįa lo
Ġto ku
200 1
ĠnenÃ¡ jde
Ġote v
Ġprelom e
y ou
ĠM nÃŃchov
bi j
9 3
Ġbe hom
Ġtelef Ã³nov
II I
ĠsprÃ¡v nych
Ġprive Ä¾a
uk le
Ġd us
Ġna la
Ġne stÃŃ
Ġblbo sti
Ġs mot
aj om
Ġmod rÃ©
mie Å¡
Ġdr zim
ĠzabezpeÄį enÃ©
on om
Ã¡ nÃŃ
Ġvy kaz
Ġsko k
Ġne opak
Ġspo Ä¾ah
Ġkateg ori
Ġpat rilo
Ġ198 1
Ġda ys
Ġporad il
Ġsled ujem
ĠÃº niku
Ġsy no
Ġroz vÃŃ
Ġak ciÃ¡ch
Ne p
z ed
Ġnep r
Ġpo sle
ĠzÃ¡kaz u
ĠIS BN
Ġne Å¾e
Ġobra ne
ĠsÃºhla som
tu res
ĠS and
ĠB UD
Ġsk res
Ġpre zi
Ġgal Ã©rie
ĠvyÅ¡ Å¡ÃŃm
Ġsu cho
Ġo sÃŃd
Ġplo dy
ĠAu stra
ĠTran s
ĠbezpeÄįnost nej
ĠLiverpo ol
Ġi gno
ĠTe re
Ġzist enia
Ġa rÃ©
Ġyou tube
F ak
r ce
Ġta b
Ġobmed zen
Ġsvedom ia
Z ÃŃ
Ã¡ tom
Ġpostav it
Ġtrans formÃ¡
Ġvy sta
Ġver it
g round
Ġfutbali sti
ĠÅłtef ana
Ve Äįer
Ġkateg Ã³riu
ĠtelevÃŃz nej
Ġchod cov
Ġsklam anie
ĠSF Z
Ġnavrh nutÃ½
Ġpri orit
Ġsamostat nÃ½ch
g li
Ġcestov nÃ©
ner s
pra vi
ĠdÃ´chod kovÃ©ho
ĠbalÃŃ ka
Z ak
Ġpre by
Ġchy til
Ġdod anie
prÃŃ pade
s mus
Ġchod ila
pi tal
Ġspom in
Ġexist ujÃºcich
Ġmotor ovÃ½ch
cu m
Ġsta rÃŃ
Ġchemi ckÃ©
mat ur
ĠzÃ¡k rok
Ne mal
Ġnep rie
Ġcvi ÄįiÅ¥
Ġohroz uje
Lad islav
Ġvystup uje
ĠprÃŃde m
Vide o
Ġban skobystri
ĠnÃŃ zku
kÃ³ rej
ĠPar ti
Ġostrov y
ll t
ĠÄįas ovo
Ġpo chy
Ġdom och
Ã¡Ã¡ Ã¡Ã¡
ĠsÃºkrom nÃ©ho
i di
Ġse stri
Ġobe hu
Ġprispe vky
ĠzÃ¡slu hou
Ġg ril
P assword
Lu kÃ¡Å¡
Ġhra no
Ġpovin nosÅ¥ou
vÃ½ znam
ĠM IL
Ġ14 00
ĠmÃŃ nus
ra ne
s f
Ġuvie dlo
ĠC lub
Ġrov na
ĠpoÅ¾i Äįia
ĠÃº s
Ġpot ÅĻeba
Ide Ã¡lne
ĠmaÄıar skÃ½
Ġma sk
ĠpamÃ¤ te
ĠinformÃ¡ ciÃ¡m
ĠLond on
ĠÅ¡traj ku
Ġroz pre
Ġku li
ĠobstarÃ¡ vania
Ġ9 4
Ġbak tÃ©rie
I CH
ĠDe mokra
S he
Ġi kon
Ġobjed na
Ġnevy svet
Ġvicepre zident
ĠambÃŃ cie
Å¾ enia
Ġv ni
ĠvÃ½ mere
Ġplo t
Ġprete kÃ¡rov
ĠsÃº Äįia
Ġmobil nÃ½
zi Ã¡ch
g ro
c tor
ĠmoÅ¾ nost
Ġdr ink
ĠM ont
Ġs cha
ĠnovinÃ¡ rmi
Ġpodie Ä¾aÅ¥
9 1
Ã¡r ka
Ġpr stov
ĠvÃ½sled koch
l ku
Ġg rÃ³
Ġrozhod ca
fe ct
Ġposkyt nutÃ©
Ġsel bst
ĠM em
ĠG P
ĠobyÄįaj ne
Ãį M
ĠBre xit
P eniaze
Ġpod lie
Ġneb odaj
Ġno sa
Ne pre
Ġdi fferent
Ġkore Å¡
ĠF red
Ġsna hou
Ġpneum atÃŃk
Ġin spi
Ġhe sla
Ġrefor mu
le ma
Ġdota ce
Ġpoma ran
ĠÄĮe si
Ġparame trami
ba ra
Ġkost Ã½m
Ġpre stala
ĠvÃ½ voz
Ġpoko Å¾ke
ĠB Ã½val
Ġty hle
spo loÄį
ta ry
ĠLu ka
Ġpobo Äįky
Ġepi zÃ³
Z Z
Ide m
Ġkon gre
ria na
Ġpodpor ÃŃ
Ġist Ã½ch
ĠnÃ¡ lady
Na koÄ¾ko
Ġdesia timi
Ġosvet lenia
ĠtÄĽch to
Ġcen nÃ½ch
Ġz raz
Ġsk valit
Ġale spoÅĪ
ĠE stÃ³n
Ġ9 1
Ġkomp lik
ĠnajvyÅ¡ Å¡ia
Ġsi lami
Nebo l
V ez
Rad i
Z ver
Ġseptem b
Ġfil mom
ĠM id
lej te
ĠÃº kon
Ġch ova
Ġorg an
ĠzaujÃŃm ajÃº
ĠrozÅ¡i ruje
p romis
Ġprekvap enÃ½
Ġjed lom
Ġod su
Ġ193 8
ĠÄįerven Ãº
C C
der n
bra t
Ġzhod li
ĠÅ¾iad nym
ĠT ag
ĠÅ¡tÃ¡ bu
ĠÅ¡ko lou
Ġkla di
ĠYou Tube
Ġso c
F O
J sem
Ġsklad ba
hnut Ã½ch
z mov
lÃ¡ me
ĠJapon sko
Ġnemu sela
ĠvraÅ¾ de
st ria
lan Äı
Ġs oro
In ve
Ġziad en
Ġprofi le
Ġpocho pila
ĠÄıal Å¡ou
p per
ĠrovnovÃ¡ hu
Ġz ial
Å¡ eniu
s eni
bili tu
ĠTom as
Ġbesed e
us er
Agent Ãºra
ĠSociÃ¡l nej
al ov
strÃ¡ niÅ¥
Ġprof it
Ġk l
va Å¡
Ġnepo tvr
Ġodvy siela
ĠN ichol
Ġrozvoj u
Ġpod klady
bal l
ĠNaj vyÅ¡Å¡ÃŃ
zÃ¡ tor
Ġinforma cie
Ġhro zi
Ġnepo Äįu
Ġist Ã½m
Ġkon soli
Ġgom bÃŃ
Ġdrob nÃ½ch
Ġsvad bu
Ġne ven
ĠnÃ¡ sob
Ġvr stiev
Ġkateg Ã³ria
ĠuskutoÄį nia
Äį kovÃ½
mi ne
Ġpoten ci
Ġkoncer nu
ĠÅ¾ivoto pis
ra ÄįnÃ©
Ġna vÃŃc
ĠRu skej
ĠH lo
ĠchrÃ¡n enÃ½ch
Ġfutbali stov
ĠvylÃº ÄįiÅ¥
Ġod chy
lia s
Ġnapl niÅ¥
za ÄįnÃ½ch
kon cep
Ġkam eru
Ġskve lÃ½m
Pro toÅ¾e
AN O
me la
Ġpl Ã´ch
Ġnev ra
ĠobyvateÄ¾ om
Ġsu mou
Ġriad ny
Ġglo bali
ĠS ku
Ġkontin ent
Ġin u
ĠnÃ¡jde m
z ovej
Ġzvyk ne
ĠÅł vaj
ĠstÃº pol
me jÃº
um enie
tu ral
ĠkvalifikÃ¡ cii
ĠÄ½u boÅ¡
Ġs vo
ĠdÄºÅ¾ kou
ĠzÃ¡pad nÃ½ch
Ġcount ries
Ġume lec
ĠoficiÃ¡l nych
Ġfacebo oku
Ġpriz nania
Ġal ready
Ġkomuni ta
Ġpou zit
ĠÃºspeÅ¡ nÃ©ho
Ġkte re
ĠpÃ´ rode
B li
J sou
Ġparadox ne
h as
ĠÅ¾i jem
ĠÅ¡an cÃŃ
Ġma sa
Ġkon anÃŃm
ĠÃº vÃ¤z
Ã¤ ch
ĠÅ¾alo bu
ĠtovÃ¡ r
Ġte Å¡il
nost ou
go gi
ĠÅ¾ia renia
ĠDuna ja
KrÃ¡t ko
Ġsel f
t anÃ½ch
Ġfon dy
ra dy
Ġch aty
bÃ¡r s
ĠzÃ¡ loh
ĠJed en
Ġdo Äįka
Ġc enÃ¡ch
d ru
bi i
Ġnut nosti
Ġod stÃºpil
Ġvide ÃŃ
ĠLeo pold
Ġnev hod
Ġvyz bie
ĠpreskÃº m
Ġabsolv entov
ĠzÃ¡hra du
ku pe
Ġtra fil
ĠÃ´ sme
Ġop y
alÃŃ k
ĠDom inik
Ġnemys lim
ĠÅ¡tar te
Ġstud ent
ĠvajÃŃ Äįka
e konom
ĠhospodÃ¡r stvo
Ġmat ri
Ġbeh ind
ĠpÃ¡ novi
Ġna n
ĠSam uel
ujÃº co
ĠLiptov skÃ½
ĠÄĮ as
est ran
Å¡ kÃ¡
P l
Ġverej nÃ¡
Ġac tually
Ġbohat stvo
ĠTrna vy
Ġpreno se
rov anÃŃm
Ġvz oru
Ġpoz nania
ĠkatolÃŃ ckej
ĠzÃ¡ chod
Ġrek or
Ġf at
lia ch
Ġfit ness
Ã½ vaÅ¥
Ġur Äįenie
ĠLi ber
ĠvÃ½ch ova
ĠO z
cov Ãº
Ġli turg
ĠÅ¡ko lenia
Ġobec nÃ©ho
Ġpredsud ky
Ġnena Å¡iel
PrÃŃ jem
Ġtro fej
ĠU m
ĠdÄĽ tÃŃ
Ġ197 5
Ġnak rÃ¡
ĠhorÃº Äį
ĠdievÄįat ko
Ġobjav ia
S nÃ¡Äı
j ÃŃma
ro kov
Ġdre ven
Ġjednot kou
Ä ħ
aj me
ĠschvÃ¡ liÅ¥
Ġrozum ne
Ġsia ha
Ġdia be
ĠprÃŃbuz nÃ½ch
nie va
Ġnemu sim
rka d
ĠAmerick Ã½
Ġn uda
Ġlik vid
Ġdra ho
Ġzla tÃ½
Ġtr pe
ĠMichal ovce
Ġuniverzi ta
Ġ196 7
ĠdivÃŃ zie
Ġvybud ovanie
ĠR S
ĠvÅ¡e tok
ieÄ¾ al
Ġvz dÃ¡
Ġrov es
ĠP am
Ġod razu
Ġmest skÃ¡
[...]
